// Reef NCA weights — same architecture as the cube3D firmware network,
// trained by reef/train/train_reef.py on the procedural species corpus
// (reef/js/species.js). NOT the original authors' weights.
export const REEF_SPECIES = ["Fish", "Eel", "Ray", "Jellyfish", "Turtle", "Coral", "Anemone"];
export const WEIGHTS_B64 = "5s2FvG3W7LtMy48892HYvOoorLzUaU08FK/IO65rkLwgH7s76v/yu+LzDj36Fua8uGERPVrAyrxqTRE6ZUOxPD2XzjtE6oS85W4XPLnkET1drTo7bBzIPMPihLyd5eC7plNivC0F77svVJ68re19Obk7bDzgSiw954/fPNw3kTyL+9U8TfUdPUPVLDwNgbG8G6huPMo8sLzOYc47xWfUPAM69zx8cEk7xEWqu8mNBDtafZm8K4dwu0fVzTyZ6qE8lYnpO95v17y0Jao8NCvVPLmAID0z3M88YgIiPL/AszyPjy29bAZBvOKLOLwxstk7ZG3ZOxDeoDzmADE9AeFZPQcRKz2tRbo8UtYYPe8StrwvfOU8oNEDPUaKmrw37xK7zAAevQUudjzbype7KHMCPAHJ/zrnjUo7y/WBvFrqYLvinx+815MnvHXfLbyyuo47soguvFFg+jyuGpA8OI1XvW5d8zvmfhu8EZrVuGsK2LwyYeq8nMfqPBLSyDs+gxK9g/fOPCJCKDuQLQ89k9fjPMwS37wjkqq74t3bvLDAyLymjdq8vAOvPXgKFjukYXQ98TuGPNhVyDpAuwg9jeZ4vD+3gbz5GAA8YRcCPSCaY7xmEUw9Ir+tO81SwLuDI848g6vDvC8X/7y2qZA8qboavTCH7Tu/P2G8CfncPCCPRDvR+Bm9z4vMvFgwnbxTsge8wO2vvAA2gzsCsqs7f/8PPfZDBrxPMru8LSLKvEBj2LxZY1O8MkxFvAEULToEeAm9Q/FDvdCi7zs4exM9IVokPeA6wTsGnU49cDkTPbVQg7zJ1Dq9DIhnPSDPoTxucVc8W89lvbhMHTucN507i/zmu7oSBj04rv88Oma+PEG6VL3Vb9U8i3Eavfe3TL2NSts8ZJHju24d1DzZ6Lw8PztrvBD9YLwlQJI8ZD6dO1QTBD0xw4U9iFKTPBZnuLzlIlE8mqdFPVHaJLyo/ga9IMYmORftYLyFQKM8DGMGvIg9CjwDs/w8y3sGvURanzze7po8QjMlvRJnXbs8SRK5wxIAvbJeILxvo0g93kb2PAzTMb0Kftw7yG9BvBUqyjzFZ9g8quMoPDtH0DxaT3g8KHeyPGnFBb1tJc07BhvSurcBS72O8/M8zaYbPVQ6IryNYWy8zJDgPH0oPTwjagO9d6TevKVtfzwXySI9aya4PD10N71uXgy9IRIaO0N3MT3+EOK7vlHEPDvv17zJgtY8TTC+O+lst7ukdve71xc8vERc9rtNMqM8LRrUvM43QL2Kx9G7xXm7O3pgM7zznKy89KoUPCdqML350Jg88YcVvbBJTjwDfZE7nfrdu3uwhj1IoMY7D8KvvDIu1jyPx7481jbQPEk6pjwGJK087J1Eveda0Ty3VSY9Xt8kvTq1DL1jArq8kfAjPfb597yRNRC8g34xOtVoFz3icXa7qdqKuxdzEz1wOo88a7KsPIDjxLwub8S8VZ3ovFoz2jylIyW9OXuSvLjhsLrGeA090g/KOmMefbwfSta8Rg6jPHlhBTwLy8w84R6VPGw5qj0EL3u8JUpQPcQTAb1AJkg9aJbxvEs3Fb03dja6GpwFPLRJnDyn2508dCAFPW/oEjwDSXY8nKQsvezmhjzzEXE9azYHPVZBLzxcFA67eWZNvIfR8ruj84c9FDuvPOWx9jkpEpc8B/L7PBs5ijxkDp28Vc7OvB6RmzuuIhQ9WTP/vEzm1byr3s48ai6IPEEmdT0/5CA97uiTvITLgrtlJ9a7+TnUOvN0Fj1Rkzm9f9+luoX+rz1dlpq8odHkvB7yFr1o69Q8roKzvHJEJL00mvQ6EW3OO99Wxbys/wm89T9uPAnyEL0op3O8K5+CvJOmUjz1KdE71zewu44rxrxl4JY7VH0IvVcKU70E9q48jf6LPXyIl7yzFFE9eqQavbFnvTzKF8q7BU+yvMKnL72PGiC8glSCPEl1e7yUpJo8m+RkPTGP87zUGV88aeI2vXS0SzyEzrq8izmYvLaHuzxzBUG7D7EoPXUMEL3by3W80vnqvKV4Ab2pxYs7VFijO5/2KLwl9hg8IPD9PMY6Kzwq26w8M1KJPEwAljzGGmy7jwkKPGLq1bvFyC09CL3yO1otqT34kXQ9r12APR8QJj3RZiY9ENcaPQWAv7wgz8M85+eavEZSI71xjEs8rgw8vZ8D+DtVhRm9C14Ou+lAD71UTfI8iT2eu06M4rxWMgE9RHZ1vEHY4zwBdwe6K5z0PGLrKbyrsLW8CXPLPF5LRjxB+4C7/vEiPCiaZzwdcnI8oCaSO2JQGT3otka8AmpmPHBxCr0wXK88N0ewPI/CgLt3bM28dkxXPGAgSz3I2DW97rxMOupTirwjDrq8yzU8O6NeLTtJzAo96606vALDAT3FvwE92XgSvM82MrwUn6k82V/rvK6f/jvjxgM7OgSzPJYPSjzkFRA9V1k7vN7wh7yA/UG8gh6KOvMunbzjioe8lXrJPDS/bbv1r6a788QDvMvxkbvT4I86CktNO4Zlajxqgy69npvKPJTDmDxUaOm82rW0O8pqNTyEVH+9MBLkPBaOd7xBk8O59JA2vWnPKr0pP1i8dtMXvcY1Aj2mwlK8HP+bvMxC7jyVROW7aqYZvPLx4joIJbi7ZmuauuqwILwycLm8vvtzPNp/mLyth888JeXKvHzXK72SNV682Gpwuq+mnbw3DvA8WqsLPQBmxryx4Mu8SWWGux9/Gz0E6Vi89sXSvBfzF71Sc029VXOyuuZhPzyALz+7W0cBPB72jrsWolc7PnMQPVwTgTyP5yg9oGOJPNsSDr0gxxM9N5W5vFri1TzaWga9fqOxPIHMTDzXNfs7XnboPPSoIDyOLu68DqkHPRGV+7xzhQm9OrgoPMsg5ryq+RM8e6CYPJOwAT09sa28TVD5u735C7sUr+u6n1buOjmBvDzgac88fz9iPLOB9jz31wa8wRnCvKSZBz2U2kE9Z6/ePHHNh7wV9ss84EjXu5Qz47x4Ojo9d2azPJq3Gj3jXl47CG0zPdy4lzxOlSA8M5QhPaTe6jxMfCk9PRTNPOOfN7x+hsG87xgQvCQeSz1DRvW8Z3EpvVKrKb1TaOQ8j8qiPPlE5ryVYLw8RToTOpp6x7zEoro88Cquu45bWz1oPCw9ahoPvWGp6Ly2fBC9siLUPO7gVT0AMWY9TJHWvC8nwzxLO8W736rqvAByITy9+FC87JATvbi7RbyGDdS805cCPB/aATr0ppe9Gn0pPYkTD7wef5G8ipunPLdxPr2XtbY77HY0O3B9N7yHTQu9fSCfvChLjzuUJqC8GLaHvZpNPDuHzIy8KslNPU5jN7wJ6hw9Tq/Juj/+2TwdghC9BxukvF9LWrxv/4m896N/vBFrtrxGIQQ9ULRuvJ397LxoHBI9KvkwPeKBKLwgLJS8PLtCuVjqcTz7Hfq7ajsWvLKXBLwp34G8PnggvKBofrxfg8S80fu+O8sBI72fpFM9ta7evNUyvryTVRY9UEsiPb1KRLxu/FM9Hpl4u6XKWbzE1di8yeuXPLStmLzKHcE8sMkMPCZWYDxOPTU8YlspvKBZTrxpJKK85IkGvbwtsbxI7647VZ3RvGjP1LzPOE297SyAvDEbhL2wx7+8qlbxPOeMFryhQ+Q7aXhPvft9Tjsv5rA862YCuvmWUjtfpDE85SExvApgzLsLSwi9k5OTPFEqlrxU0q+7yVnquZp4C7xoSPw8ccidPGMmqzxG3DK93FDgPI1lAD20NLy85nQdvRjLMjw04Ms8lLLPO3CgVr0NIf68RJOKvDuRHD1IdS29/DgbPZcJQjsGhFm9FLDOvD5TEL1xq2K7U1glve/iILyD5da8Q8YkvFXwHr0Xrgy89mT5O3zS7jxzE726HRFLvaIAGr3hYE29m4fHuhtBZDx6lra8qMv/PDuBq7w1HJo9SE6RuvYWhjlAYkO2HOgmOuTm9TwRIb880Puwuoc4K7xim6I8qhEfPE8um7yXsWI702+9PKAAXrwfTz09JKY7vTfZ2Lofbqa8ToebO8/xvbwwrO88QnuWvGhjAz3rROq88njEO0O8ijxBLAy9oZEEPUIHuLzGC0S8DxgWvXjP2rwUDvk8D933O7YmD72yYjA70A4Avcy5Rbn9/mO9vq0PO/0jtDz5rOk7fkYuPcTVQDySuSw9W+MdvVd4Cz3nxnk75KRHO2oJsruAc+08QVJVulqWhDqLhmK8M1Ywusauhjx7kzi8IBDgvOF0RruMSDy8FvDePO+JDD2rpoS7+LGLPERNjLxafpK8r/uDvBi61jw/CzW8vh2oPBakC70w2W+9gszBvB5iMLq+e2S87VD+vCcYnbsLH4C8+qrQPJLuZzyrM/O8vBVXvXroJb3O+dY8VlvOPOSqu7xGmBS6BfpuvCweST3Sfuo8r4Y5vHBuEr2Qr5E8z2DIvGLQFbzopmO8f0lVPJnjNDzlOwI9iOKXvH/HZb0Uts484X3EO6eQAL0HItW81rE2PfsFAzya/Bm8MoyhPDr0WjzNMpk6lCeIPMVETzvD0FA7wjsTPKDEpzxx/sg8zxayvJcl6jy8Rgm9s0nAPHv6Rz1FG5K8d6bPuwbuNbxwwf07h5WAPEBp0jxEGcg5l26bu/ftMzuF0d28tqs2vRIP8bysxzq8mFcJvcrwyTzVsKA8O+/KvDulpbwGPKa8fCCNPM6niLxfb6a8hPbnvLSx0jwlBiI97c8Ovfg9ljxdlBK8FqqvO/w2/bpYnhu814vXvDRj67z7Dnq935uyPL3Kvzz+P1w8/DK9PD9dx7yLHTW9xUvjvN59gjsfKJO89afTvK1qEL1jnXi8IIewvPheKL1fqy490ysVvexlQrp8ThU62BG0PCxGTL0Bvbk8FZMCPIrCrTxG5rW89WgdvTwsDLw7Fhm9ZL5VPL7Ew7wxzFQ88rk2PT56izyPU0K9QT4bPaz0M7zo1HU8Qp7DvKUPMT0HNk08Hg0jPKSpT7yb2/k81uqiuxZe4jylzJQ7KJ5BPCIGHLzC2jU9aGY5vC18YTy70Q69sGRyveqYLTvo7ze8a8OTO9npdLsHIpM7+jkOu5frITwSknM8OWSLO+b2n7wFyNs8mZDsvIwPI7yccQW8Zt28PD+uTzyNoo+8Je2sO69lhL3l9Gs8o4eYvOkd7TzB5bI8BziDPGrr+Ty0FVe8I35VvAMBAbzZRXK7FVw+ve6DijyyGBu9dovyPNqpCTobED49FjHfPF6p6Lz2pA895IQUPIlREr27CPm7cpYvvaKdzLxIHF69zfSHPBXwqDxpxeM7+PeOvGhq0LwAlr284glQPVp9CrzpQTK702C1vO0XjDxCcpc7mN7rOFlVxjzWzFG9oEwfPfWgBj12PuS8bP+Mu/xLZrxBii29oW7muTkbnryPCgM9c4tAvdFVGbtlF708uCEavbND/Dy2/5Q7xjc/PZ1MWj36jw28RckUPT1URzyiJtK7PtQPPee5JLpiFRc9tU42vUKjYbwr2gY9dn6+O9mQUj0/CWq9thlXvE4+RDtE0Do9QtiJuH8HIDyq6oG8Mr8nPZvH2TvrrSS99GcXuwCZfT2MZBG9dn7MvCWhB70oboY8fw5IvROrg7swMXG75igTPW54DD0+E+88l6EGPb8yJzwemim8OG9Hu8Yz9zfGQUU7ZEQuO/5OWbx8z9o7AQwCPdMf17oz2oA7600vPTEkqDz+bgE9qKq7PC7bDD2bZly9kJ/8vC75CL0ZP1S8UUMevfPE1bvkOzC9mJrzvEBhOD3PNBA9EGKLvJg6y7s9NZW8GIjdu7jAibyR7CE805pqPbmmOT3vyLQ87mKFuvGFELxE+Za8J82CvZw3D7w7fV+9fyRKPDxsILu9nhQ52oItPTWf0rx1o7E8DI91O2aFz7prGSY8kcFTvCqxSL2lJq084DdVvdhsZb29eDC9WtxSPP9OajynWn68KvBwPAos+bxyZRg9goSSvGjc+7tMfA68JtvQvPApLLwMtlq8y7bPvHEl/7zkNZw7IG6JvNFl+bsC/8k8l4YivcCJHrtgh4m8ZO+MPNakCrypb3e9sjfkvNSEY72xxwa9JLMavfOZYrtN4A49geB5PIPf0zqMBTS9zaTfPFpbHrtU2zO90tjGvPc1lLyuCJK5JB8KvULuPry67t879ZrMuphjAr3MgRQ8TDzhPFcO3TzG6AC8rBSCvJv8vbvCQFU8MpsDvQ75XrxPsYQ8kwyGvMslnLyuLog8HIvxPAoQiLzXX608XYCJvUh3Cb0rmM08DY7GvKfOxDxExok8mm7XO2T0IryOFsQ8OWX/PAhVrjliZEq7xTBgvCDMWLnXHv+7OZjbvFrfCL2erHM7z4d8PEKR7Tyt3lu8f6dIPBDBFT2hjYS9j4XoO8QdzrzdXHy8CU2ovHWdZzwDpTC8Nf3uuur3mDy243S84G03vRNN8zw2+wY9CYEFvXKFADxjdqA8RDZAvWCxCz2iYDS8+MGvO5dEAb2PHa28fpCKPBgjBz3D6wS9EDOnPNUy77z8HY+8SLc4PH+XVb1ZvRQ8J0LcPEgN0Lxja9W76YuJPNOmuTwYPNs7DqxFvai/Or2ygSq8bM0CPbvmuLy574K8v9vFvLv/eL14R4E9xocfvbSprDqKbZa74HYAPeJn7ju5Eu67WS46PXQdkrwb4MY8BFOpO/x0d7zm8Bo9YfnAvNGgI7wt4p48nFrFPOlf9bzvgw69tvasPP6327yG3AW8J6otPTbRJjxRxFe8Iv86PMwHkjzBZQk9TVgEvKP2eDxQouc8/TjQvCiaSry5fFI80CXOPJaEBLxhghq9hM69PL9G3TxOika8UxqyvKLAjDwhmVy9676MvG5N07pw/qq8kpuYu8/JFj3mfyw8revIvKV+grwp7U68IVK7vK/kbjypnI+89T8HvbgUCz3LQeW7k1UhPaAJ2LwZknQ8I88kPO1t+zyu1xQ917R8vDCamrwlYAm9AvLQvNl3RLtFTUG8idVSO4CigbvCEwm84rCzvMndADw1WBQ9jXwaveHBbjrwIue8FrEDvWnbtLu4Rne8tooevaudjLxcxSu7sejXu4+69DwHgMc8FO2IuzObzzzFCRy9o8FkPQwe4rzVdxC8IfDtu+rnBT1OX6c8oolYvCz+gjw72Ja8pCsAPPYNdbtZuQo8x6xGPQz2hrxw19a8iNBGPZtwH7qsm7S60RaGvP0Kej0gpUi7wiifvLcbQLtD74o8Xh0ePH3oODwCxX+8twagPDjDnTwx3Me817s3PALwLzz2g2M8TIKWPBvcmTzQsh68W6GNPGLtLz1KD3A8C6ASPInqUbzQfIs7zziiPOKgMbzfJsa8IGcOPP0mSzxYVBC8SOVDuxPdwj10a/u82ncvPWskp7u6jAI9/8BXPLKRAL2g3FK8pEuZPNZAYLxEzFK8G1oVPYvUI70e0Ls8K+ewvNDMkLolSWo9hxQ7PFUun7uzLSE92BotPdt3wrvOMmU9MvBnvKfXvrsIWno8Qf8LPWv7aT0p9m+8xhzMPM9AK70qQ2G8k7ZXvSbLNr3pgLe8wFVLvA5XiT0yQ988uZpku37UozwnVFo8C/o5vbHccry/0jy8lc+JPcBAdz3DR6g8mpXKvK+Y47v4Q5m8Ucu7PN76HTxS57U8nUTGPKDUrTwmVvY78p1Au3ZAQLwaSI87lfpbvIThN7wQgaQ8mIXvvAKV/rxLBEO9ZOD6vBMnbTyqYPe7630JPdY2zbwFi1o873Phu3somLwMJEc6u+mDvLVC1jpxlYO9IxUDva/HvTyTXQw9IsuEvaOpYzztBQo9nmaNPAK5xrzdYxU9gwhVvEQ5KzzvMFu9hEL+PN/aGL1Js4U57CfIPFVwtjyZbTm84m3/vNLAGb2hZ1+7tIMbPSLGiDs0rom9A7FXOcD6Bj0hpv88c9w1vV+Qhboek3O9bwOquhq2ojwim6W7BvXTu1L8ZL3eXCY9AC6+PHuukLw0/0w9/CApO/DRwrtCKQ095xgNPaYfs7wOJo+7kBDJOq9di7zGAQ642x+1u388HT0FSz49XwffO6KOxTyat4S7djnku8xdtjz7/re7QyEhvd3j1Lyl+QK9XDRlPFrQOL0L092806ZDOxRepbtGN1c852+9PDdksjvWh+Q6cY3pvF8CIr1+R8u8w6YFPVAAgbkuSYk9rOOlvGknvbyBqFA9ZAZ2O/V2ZTyCkic63CtLPFn0Ar1jGTq7OcZrPCUvBz2r/bk8e7UePPCSnbyJb/g7QiIGva79yDojNj48znQIPaJC6ruRSra8g8d2PBpuibx4rya99qzevOUwvDwNBAy4KJgHPG9BZT1wyR896JIDvTntUDxn0nE7ww8qvCT7Ab2OUD+9UwQfPWEosbwZ3di7TaEMPXc2BjwdAYY9ijMvPcrFVz3dmwK9kVPcPAtF17xIK+e8062NPCrTJ7yDZLq8ffSvO1C3szzF/4S8DDEVvXaobjwAWPs8Q0PhPGW4uTwAP/28tBZNvT4ilbtg7T68eiIlPP7zJb3E02i80iJ+PLkyd7yHzn88C7Mdvaw9Nj2p6309VfLrvOmU0zyXoT69Fmt4PQfHEj0zu5K7W/AmPTZzx7zpX9W7yIIfOv0v0Dy3bvM8VmcyvEtSwDux/K87rPsqvcsIczy9A4+8czXEPCehwTwY6Bo9sccZvPx3Pb1Qlxy8nbDoPE6Kgryj89s7mjOevK43GLqzct+86BczPK07/LsW8XQ78SVkuxKcsDughuG6wwXgvOhfGTyEkYs8TE9Cu3kOBD2kyha9VhHdvI6mJj2KfTw98li4PH9IpbxMhse8cy7VPNml+DyRKeQ8Nv8JPR9OKz3eimS8EyyNvCzl/TzfEuW8mmKxOwvY3juX0WI9fw9CvcxSGbwXXR+8j9C8vHzwAj2NEru6j06jPEo1Dr1OsXC8hiFyvC//Eb1frkE8wtcpPfuFiD0xgt07mp+8PPj36DknTqU7JKttvL/YBrsM8Mq8soyjO9AtUTxesjO89BcLvAxV4Tqp85261Vf1vLottrwnGBQ9LxkfPdbrJj1bsyQ8CWY2PKU3Nz2V5nK9hlkyPFVA3zvu4BG91EkjPQHKsryrjgQ9can+PNKzIbzIZ7a7HAZEPErrljybFAq9mluRvOLAtryaKwe9tT07vKVRzzybqKQ8HXFFvLrMVDuHvWQ9jLzRu07KQDtCEb883XL/POcCgjkRtUI8oMQDPEVZhztvJ1W7Kg5hPAWefLys7Am9cNRsvM9eM7xd1Ja7h0AQvUhe2Dwlm0s8+DidOoDohL3/wrs5Abx/vPrUc71Aocq8mCKkPCNMJr1WnDG7xbDmOZlczbwLnI+8jFQ+vHNeOrwabEI8YsnBPDrlk7kQF5A8jDyPPEhYBT1+ua07eMLbvEGSD7zVVqO7MH6zvHn2C70Y9EG8fWnrPODQ+bxiK/c8SDbHvKDLKz2AARM9miIKvd1sJz3/9gA7RgXaOyS9Brx8HPA8Ts+POmYilDzB/KS6fGgDO2Fqajwq7He8CqRrvSES/7p6KRy9R56pPM4dYzwztBK9/MGKvOJfRT1av8o7KndFvEVwAL2K4Na7FFccO9gdFL1YIP28W2rHvIoYk7ytXeO8qKaGvMxEiDxj/GI9QT1puVQGxTypuim8gB2uu9cb3rqvBo0832/OvDmVIb32C9Q8cUvevDnaCT1O6Bk8Y6iOPEFjjzz9QMu7L49CPZ0oZrvcBL88grTavNRXkL159S+8XGNCvQJAU70Bc0a97nxlvLHazzttody8cxSqvAjrzTzq6RW9oV2xPIaOkDwYqIC88/ciPDV7v7x7Os+8i5cSvSFlsLzJPiK91eFGvG/OGT3O72Q7R6r2vF2tAL1ZcHG8b3znPBHKXTyZgMC81W8WPRAujDxVmUc8LmcLvHOcIr29UDG8AnZ2OUqsTDv+4vi55ZNtvOojBb0tCwK9vZJSvJatgryD0Ts9z5EZu/F0mLxy7Uc9v404vGrmGr2bOdu8zK0JOjJ7IzlBZQW9MFWPvMXnLzwbLYw8dlGtum14kbzRU6Q7yCGRvHwX1jwTN6c8XUGhugPGE7ylTXS6xtM/PVoLArwiN4s8zTcAvWwe47wpiSk9q/N6vAeWnTus8Mc8oQjwPLqhd7zkzNe7Ggc3PWbh4zzBBSK8dBI7vK7E7LxdryU9XqVTOxPnLT1A5188dJ8YPQurDz37Tf08PgD4u6kLETy9YLs7aJkEvftfZjuJSNs84bIfvQdMO7wr7hU8gS+qvMcu27qsX5486ZCYuxBbxrxIiBc9i/WUO225dbzLuL087i/MvLbDZrxCAWe7ybAIuh3a0juClP+7CD+4PHqvc7ynqh895yM6PD+tEr2Gfrg8jU8kvYqh0bwH6PO8qcYsvXRaDrwdnTg8bX1VvcWQNz0KtkC93k3Pu2woHT2UxgG9qtKFPDe3MLye4Xm7TvGIvGjfR7x/fZG6pBYVve1uG7z0NJY7RI1oukoupLw/77i8FeMNvUbh9rxhHp88EmrGO7z3Bj3PBDu8BIkcPSOH5jyXBrC8ks5qvFbAbbgyQcc8Z21BvWBYC7z7TZ68/McBPXW1RzyEKCq9SReoPHO43DyQxIA7xYIwvcNVsDztsCO93c2ovANHKT1K9hc8ichyvPnD3bzlQgo7JHm0PIUqOj3soP68HutIPdJXKD2d4h89bFRoPOEsmLuS1UK9uxOSO2FdjDyvg927B+nevCItHr3arhs9rC6NvD5sA7zz5II7EpXwvBHqIb2uUNC8M/wkvUkF4bzmN/C8i0MuvWlSrb3l06y9ND/bvNXb7TzgFJo7YJSmPGOfYT0Kyek8dMY/PXlwKzwB84g8NCuOOxNPcrzHXVI8S6cWPMfzvTvVa1U9/GTPPDxogz1e1Cq9faWzvCp5eTzZT0S8h92RPBnAibzpOou8UTkpPWGwvLuDfYC8ImGgvOraFzuTYm+8O3pvvBw/XrtOffC7TboCPfXM7jzzK+Q7JlXEPDdoAb3DwsQ6WrX5POhoaDuXHUq8MfHBOxHjPjykbzI9Vm8BveNn97oerV48fPl8vBDI9jzpbxU9ZyYpPSm/K7yaPJY8SrJXPHr4/TyKScO8UdAQPK3kjbw/0Tu9RlNyO0ugjTxSZa26ZaVPvfsumTqoENC8S5uiPPUkGzvr/Cq9vcTHPIoDGL3m1Ri8afcCvWW4RbwENhm8nbBIveHrGT1tTb07BMgtvT0kk7zxTvS8+/Smu39mR73s9p+6y3sEPTzAG73JUIq8FU9mvQi5WTxm+QS9Qwazu1yVgb1zvhG9wCtRvf3eozyL51S8Ci/9POvg0DvW6cS71gkdPDptkzwz+G07DOyRvF/oQr293LA7d6QgvY6fILzHrDM8cn4cveQ1LTynK5O8hI8svXv/Xr2SMSc9kq4vvc26ST0aD1a9AnRQO1v6NbuhOX29pJZ5PHeJtLyAp4g8E7onvXe0DT1zAhA9qmmyvLGDsLwYEhK9YjiLvOBE4Dyz01W87QgavTG8Ab191vq8NToRveuUWLzcIrm4ESlzO5kyHTul5s65VM53PPeyrjy5dg89Ep8lvAkHkbyNlp08gwHHvEeVmLu4oqm8FN7rPOFw9rq/0CE8zELGPC43Hr1XV6g8oUWQvQGIJb2iNoy8pMqOvDQLkrzqu3u8mFacPK9srjwRnxs8C3FavObUJ7tjYy49IS1/vOpdJrzKiaw70iYoPe6z47xu3B+97V+tPKwAXD0FxdE86qX6OyU4Hz0cZEy8Wp3svAXk0rrMw4e836glvfUVKzvvfTU896ggO72JzjzpJMW8bkZqvd2JprzuSTy8heHjutsnrjyCsV28MlSNPHA/xDyTd2I8kgXiPDD4lrwa6IQ9PY+tvP4vsTyC8iI8VTnHvMjc2DsTJwQ9VybNuxBo+rz4C1+709cavRq6Kjy4vYm8FzEBPQVqAD0yZ+e8yOOpPDG4Dj2hRjM8xXLTu/DGl7x/7sY6uG97vWnShjsqpta8Xn0gvd3TCr3cGoY3y/jBvKNC4bwAi5a87RJGPRSpkLz2S9M8KwvRPCMKsjziuSq9WU6OvG1WkLshbxy7jBJbPRRRMT3B5rC88boSPaSwuzzD/ga9MP/VvPb/qTrxkYU9VSYGvABVcjvQqK+848Q7POM8eDtIhT09m6sOuVNpgTyuK7E877aUPCvkYTzDsRM9EwU8PVf7pD1tfr28Td1mvTDqFzwDMG29zV30vHsFlryRlwe7BOGAPF0qILq/4FQ8jVPfvNHwqjqXBeo8BNODvUtJgrz2aR080VwqPTCHajzPMNU7LqQVvIm3JL0iWz68iBj9vNTVuLwlKeS7RSWjPCkRIDvX1Lu6EcoavTp9+butROg7cS45var2izxpeEm99qcJPcLfIL02fac95uuEvFS9rLyaS4S95vLHPNGhoL3jo268/hdwvXq7KL1JAkm9O0CaOthmAb3EG4y6YZMIvdCykbynwiW9U1PwPPX+JL3H84k95tCjvOeGfbseaw49VM0IvcWvMLslxhm90mK7PEm6hTxIOz29ZFEIuvY0Qz3i4kc71BSMPKchCD2M3Le8HWcBPSmZrDyBlq+7KXq0vPuhkLxRtNw8JcHHu2I0rjyGiIY7DQcfvCYhm7rPGcW8YghLPXs/azzfceK85xfovOwYLTyVnpe8THhDPI/cUzy6U5i8vAg/vApbDT3RJdw80KwQPRElu7xcuBI9F5yavCBbAD1+vQw9G6TOvKa6lzsBrly8CZKovFWQpzxOvoK8gJXfPGPywDzW2TQ9/9E6PF5kEj3Ge8g7z8cDPXfNvrzCntA8Pp4YPUEQCjzyDdK83yjFPG8u37sZwps8hXRrO2w3Ej3m38u896k/PdHkQryFaV08F+s0vSoH9bvA0ni8yRD2vCFqi7qqbxG8KUkxvUJG+Du+b9y6WqU3O7DHIT34IEo8BDADOMlUHr3rYi09rKA2PHwRWDzel667xS22vLkTKb1+IOs8QYRtPUoM6rsy1E+9HKjiPEy0XDwOsBQ9aysvvfs7pTyqUcM8WtZFvUC+ljyrteE737rou3JF9jz9VQC9y6dKPeUbBz3fNPO8IDARPZT8Xj0apwc97SuJvOoIlL2tAcc8QsEVvH4sDDyF+uu7P4OTvC4uc7v4XVu86RYMvT6SX7wvbKE7Q7o+PPdduTsz2CA4FXVxvHBr1zwYcyw9xWNlPdKbL72VDxG7mtSCO4T52Ts8rDS68KHoPDN47jz5SEm963FaPUkO0zw2nHy9eUN4vcSO+7vMz3s792FQvZ1JOrxwbby80IkYvfwqXjvEovk5PSq2vA8OgL1esbK8FUClvAg9vjw61ay8IiyYvMlNo7xS+TM8+duWvKvXC7sD5LW9bExLOmRs6TyapNc8BkpHvc3OAb2hRi47dPIsuzZZJbwpKmW9VOApvQU/EzmeAl+8CR4NPVbCADxt7CS8Ox6rO0/EbzwgUwy8EbAmPTHXET3XHFm9LyYcPRc1cry6woQ7ITinvFIX5zzdXA09P4AWvS/dIjvv0go9vtmSvKoc7bwIBoc7hWeIvDrc/zsutc48zv7OPE1cFz1ROYu6ANvMu5TbJr0+F0c8D6nLvOInnrzLmE88UDF4uvHn7LylTY48HRw3vHcC7jx0sgQ9Rqy4vDWxnTyOSQU9nVrIvLY7Pr3qLcO88fAjPe0GnLoqVXi8J+mnPJpp/DvdayU9cOPsOn5r4Dyjtmo7iC7VvIZVCT1cx0S8f1aMvAQ/Hr1vww49DuJRPHsxrDwfTJ+50ZFtPMu86jyN5Zm8irK9u/1TkjxxPr289qMzPPSPzrxmATc9jkiMPM91vTyNzaq7Ld7ovKZAwjyTPX079JYKPb7omrtzMps73yfNvP1HjDs1BdY6eKLuONEUmjsexQ89QVK5vFjJwLze4vS8aw8vPe1Ehbz3ziy9D6mRPLNu1jx61dY8MzYavHr80btZgie8bxORvemp8TmlQua8ozqzvFD4Dr25abG7fYuevI/iuDskEga9r5CIPA8abzxWWk08If1aPA79Vb2z7F29FuzFOzEAzDtCBA48S9kxO/p6PLxoDgE8M2snvD1Kgr06Ob68DGBHPBBPUjyi2Ks8lpIMPHruWr0XL+e6YFCMPORErrya4dE8fiikPD2uCj2tlqu62W8LuxjImLwmsQY9SVH3vHWBX7yJ24K8hZiBu6TqrLzjbLu88hs2OzGlhzxGwQ49hwzOuoBIFzwlvdG8ZuJXvBFrND2YRXm9jbCRPI/nsriaHMw8X2UKPX86DDzrFxe9NNt3PFO15zxo5ws8W9j5OuSCozywws689Xo8vCs+lb27PvA8dPVAPW2+xjxX2Qm9nfliPYfHcTspXvE8knwbPVvKjLx+n9O3dO5/vIcDfzwGbhg8W9o/Pd4M4TwgTfy5lQJgvAmczTyMw+S683kRPdM0Gz0O0Qa9xTn4PErwNb1jZhq9mz0eO8ItMjvr/dY8Mrl0O09D/Dx9V+M64hxhPBuGObxqa0G8rOHjOzNFJT1cTP+8tsPRO9GYEzwKC9M8eVmNPDFMt7xm2G+9mtNxPBa+6jwQG+M8RlNuPOWR7zydlam872gSPGwji7u0VY68LC71OoZQgjwGWva8sNwIvTPeKLzm0Us8FC/qvONiGj1N45s7+11sO15l+rtIUnu80LdkPF0vjzyihp08Ec37PKWYu7x4loy80amzvE7x3joXi7C8v43nPGnMEbybiQc9/nJHutA1gLxLgjo9zxgtOxmEQT00GgM9ZkM5vQs8ejptU1S8BJm2vKeFTb2bX4C8BJ08vYf7gTzq9yk71qm9vASCFrxLsMI7X/cAvSzA0LzXNxC9WbEwvCKgXz3yLiK9+QQCPXFQCb2Isxg93Gh5vFEGpDzWyt+89ck/Pe473bvHsak8hlOtuYaBhLy76Ay9YFLruMINibxzXgA9GEQQvamEHD1xvC+9TF/BvAR1CLyU68G8dR5luvXmmTydVMS8WuSWPDZCXDx9xW47FC2PvLKetDxHzeI8szkTvUhVOLxPP508FeZyPBZ/UjziXbM8GIqwO+5B4jx0ISQ9d6Z+PBovnbxTeba7qA08PSbGDj1hz8s7ZSEBvcuB9LzkI8i7/ssmPPuXADwhHgU8MRkSPOXcAL1ZClA8KEWOPGEUybzsV8a70q8AvZEDLDwVle68in0iPNloL7tvRCu9VPsavcjt0Ls3NZm8VEMDvH5dQDzZ3jI9MoRpPF7gIz26znS8bftHvJm9k7wp89q82WsWPGW03jygOC285sQXPO5IBj1xQYM78EylPKiapTxHZei7Hq2KPFZC0zw0Q++7owm+PHiGAb1if7g7eoAevcNpBDx0nBm9qEoCuwwko7zddHS715b9vJDg57q26JQ8QoMGPTqL1jtUMrE4nXyWPEKb1zz2/RA8zXSmvXZbqjt4y9Q7n8p8vHlpebyc+To8QhF8Oyz1oTxoLgk9SbJqOvaz/7vlYpa8e58oPbHtCb0axyw8rZujPJVeDT2LLWq85pCNPKi5sbzHn5m8mdrTvBSX3bzewmw8URDIPHc0aD2K4Qc9h6w/vGd75Dse2b68R2EbPPv7t7nI8Y88IOJ3uoUdhzza/KG8g4CfvOIzpjzhFxW9TTAMu9Hx2jwurFC7DMjmPBYfBz0tY1m8rHravN6oKjzu4sQ8NvP1vHP6NL1pete7e/z1vNMwjjwHqF88i400vcS5XD3VApg9J8D6vBcbu7rhWgK8myR6PDpwET29wC28qYEFvcd70DyQbG08OD1ZvMfpvjuJ2Xc9jSY/PZIVoLvuHZE9O4dbvdppobwqRZG8UKc5vGMX27yXuFM9DZtIvV7IYrx8vge9q+BDPTe+f7xGjxa9xUCrvdYOEz009g+9KFDCPMcY97yWsWY9dLrtvGJo0j2jbZ48qxcavedvmrzl4xU9grBJvMn0NDzyKBy9hn77OUs0LrzIPgw9OIkZvA/jcLwLiB692MCGPfcX0jzsQEY9ThSqvBefmLscvFm7BAHKPN7mqjxwdCe9+VMpPGVRCL1KS5Q94VzZu6Fud71a2h+9TkpHPJSVKjnKNWy9J8mePF7WXL1KP/e8zr36uqe+XzwW6/k7lM2TvKH+eTpmqoE8uIOKPNmv67u4Dea7flBrvN0Z+LyGswS80xCZu/zHJLwlZyK8Ps0BPKeFGz04jRE8CGdUPHoUJT1AQA87np9rvNWyAr3JmOI89TijvKrGZLxqASA9nZu8O46w27y/G4Q8VSK3vCZjkTzdTDa8JCY7vIqjPzy4rjc8d3yPuw9KKboxS468u0/jvGz5vbwp/hS9wPmyvBcsyzqGzvE60aA+u2pRo7yqrk+8XxktvG+l8DxxkCS9HXCtu9g2GbvleZY8bYJcO4uHiTxvJQO9yVc7vYQpojy/z0c7V3pbPOokWL3buZA83BUUvMbDYDxdAhM9Np+8PJNjEr0fRkG9C4IkvHKGJzxMOnS8wQMgPFWAs7wjFIK7Gv7EvFNZVLzPwU+9bmDAvGg/Fj3EcsK8YSojvckV5LxmghQ8FfhSvUQFrjvwxR6900i5vP6pFz0Z0uu8YE1FvUqirbyo7zA72XA9veR+Ar31kNi8yzhhvD586Dnp1BM7haASvY+olLwOMCe8xyOiOcwhELzKzxW9y8vKPLu8ljtEavu8B0MgvQALJr0Teoq7/0oePFLdtDyMTdc8w4MCvQLefjsLmZW8MzzcvNoYIj0W+xa7mtUiO88errzDHrk8ple/PJTQALvZos07yDRjPSooFD0lxxa9REP4vHjjBrxp0Li8kZIOvOYlAT38kum5aDAPOSEqKb154LI8Nn6PPJF0t7zWRAC8cLzVvKRKtLv2h+M7d+qavDFqaLw7rSy9bWJsPAN6HT2rH+a829fkvFK/Fr3Rkz872z5eu81RRjxjXMw8wafNu8VIAr3P9TU9doMrvJ9z0bwR2BK9uILMPOeNsLwxMPU8TTgyPUdr17oZ7wC9XriePEEYubzopKS8qkAPvU98gT17ega82/dWvRHVF7sMNHM8Kk08uxNPBLze7s28ewKGO9hiYrzfkdW8y8atvO0morzTqnM7JHuGPPyY/Dxqdti8cXTZvGClAL1a1kG8QYXTO4pmM70fOY+5/IcePTJVVby3xh48Z9HXO/0snLyb4zy7cZfPPMWo8bxqH4G8/lfzvEjxiTwN8la88pL/vEAZPzxk+By9emWrPfTyLL0kpkk8YQlkPFXqtLx3jzm7s3P7vF1ZiTx127s8luYHvTrvJL34G7G8sdYCPHHT0TvtuYS6k37NOyfC2LyyWrK8iG4BvNOpojxbKDC9dxmVuxbAvTwnALK8vl6CvC7hrTuBW1k8N8Y6PLLHRjy92PC8tEf2PLTCzbxfkRm92A8hPXpJ4ruvUSi9hTvPPGFqMbukyqe76cNYPS8xOzyAeBy9VOIlO9YvWjstEem89XoZO5MVjjtFiLc8t55DvciVezxOqlY9TGx8vAZYrDt4oVy82KV/PPQX1jzy9+y8B1FyPLe/ejwfzEk8bcExvX3WHb0L5Ec93n4VvThYFbyGyU+9lIJzvUUjQr0TTBs8RCKAPDrp+jxZTxM9OYMDPQlHt7ykyxE4Jpn4PCVh37wgUOC8Mz5IPZKz1rrdjmA8l2k5vQF2Mr3Z3sw891o5vKp8Mr3eyiu9mtJzuzEujj25NBY8d9G0OqCFYb0zEaS6RHQWvcg2E73xzWA9LQprvVAUAb3YOi49s9j1PPPMsrr5lri5mtQ4vCjZfzqXY/S77ThIvOR9XrvfTo07ydlBvJ7gJD2DtA89kFbUPF6v6rxa/gg98Ay/O1ti0Tw23+i82HkzPZERUz1e25495ck/vRofeDt2UOa8JIlEPZqL3DzkoUe8ocHaPLeKcTxC+Q09C1QNvLJv6bxdTec858gEvI+dqzxEgxU9d0CYvFd0G7tKMiq7mZe/uyqiAL1DSoS9w7zkPD5M+jstja48oX2Yu7tR0Lr51aY8WF4SveeR1zzgmQ+68ej/u3l4rTzLZWe98xH2OyfbmDwpgke9IPZSvLd6EL365267r7i+uy8qALxbAQ69UVo2PWuyO72EApe7pZ+muwbyqLq6TZQ7GsXCu/LNSr2fi7k8EdiQOv5fJj3hsY67Ei3OPNfkkb30vhK9CdSHvDxg3LxTWaw5sq4ZOx+4mzwIqQw8Zr0vPaME+jxdKv+7R3FkO/65RDytPjY8SD8qPB9Ng7xBqie9JeyfvOyJkrxL0fA8nMdAvWYqDr3jJkg9MPPmvPCzKDwot4C9Jbs6Pb6QlTyOZQ885QXpvP+OmroRPxA9C1UBvXWw/Toh3sA8NcEaPeU06DxBprK6uo+Bu5KisTsF/188s8WLuwh43Lz+H+A7ApzqPG31eD0rj+48mG8ZuzKS1bwDW409Csn9vMM30jy9slS9XM2UPOigS7x+sR290SDoPNdxIzqvnYG8NippOwNb2ztMxcy8YvYVOhThvbyHuIq89NEKvVKiID0tESi98wQtvQhBwDxIOus6ILWvu5JLAz1dYi68BgUEPSgDLbx914Q8T51gPJCrjT2JrOO8oPFMPfKLBLx9txO9BEtQvVA+RD2dBX07jFHJPMrQxruS27o7oRDKu6KMD72ytzq9gNBYvc4AHT057Cg9Lw4TvRDDujzRf8i8B6AhPLSuRT12UkY9F23BvPv8Ar2Y/ya9/5oHvDuEojvYPyI8phJbvFSkOTtJTpc9XAzVvLsPgb3QZYS9vDGcujCIhLzqbHE864mIvIM+6jtFS/G8t0lLvZMQH738d6w7ntgLvXH0Oj0bL4U8ltRjO0uJd71EOyK9edFDvTjk/LxTkOm7iEEjuxKUBDyWzze9wpgRvf4Shzxr+168e1kLvSHMpD0id8+8/e8jvfURIb35BVc96rUQvCDBL71a7mM9AP7JOqtVMLzF3YQ8rFUdvWyaijxo0Ga86hYKPaXn47zz80C8OHw6vBvfsDyp9oM8kyXTvLFaL70B7B69CUc1vClOUbxvIRC9gF+pvF2hvzwhTdi8t61gO0mfejweFy68IryWO5YlnLwEt4K8t+ajuwSv4TvcVVC7Bv01POCVKzxnoHG8p+FyPBiNU7u8OQq9JRdrPMtwTr0dtA69K+gOPUmQ+zxcJ069yKAwPWggSbzRSVK7/4biPN5Avju8Tb+9v0m1vDnA0rzg6CC6R1HYu843NL2s1iq89igWPL0jj7xRsBa96Mz4u4yXW7w4IuC6puLYulynyTyngUS8xPALPKyPpLz+dUS89Ak0vVppFTzs/kU6rn0SOxKx47xeGSK9QBUgPLao0Dv4d5u81mqHPIVtyjyayQC7oCm0PJfGHr1kEP08QleGPLh3z7v7UkK86tVfvLx0gTsthbk85WaJvCwvJr2NW3k8Jvh1PSwMujzeRAY92IsRPUzLKz35dRy7J3TIO0rDv7zsCQ29fdXfPL86LL1fNKm8Clyvuw2DhDysgtM8zcrBPA0JAjwF0Jc8v6MyvRrg47u6nj05bIUkvcpjrDxF3Ws8pWRsPPV3hLx7cVo8S8EdPPtp/rzSqb+8GTA8PQDETL2YWDS9IoHfu1x0wrx2fLi8BpY+PDeiCD3Mzxe92MCHvNLzCD2iJTK9KLe8PDe58DyZEDy8gKSQvIUq27yWtuu8+c5evE6eVLxw6IG8pvAtvdy/6zuWJeU7ZbFxPZ4hzTe8LTo9qMoIPf05Bz2s+KK8M/MIPAQojrqPnGe7Qr4UPaJ2PDxT7cG9cMq8PJHDFj1/wSY8r95hvKBnwDuojam56W91vfB7sDtrteK7aBRJOz8hVrxADnU8wd06vf3ZJD3inGY8r+FQPUEk6rwrYgA9ptsePYHJl7xaO2e9cfL6PLWd4bzmstM8yxsIuw0aabwr/5k8/Di7vBmEGr21aBq3W+mPvFB1Ez0yb8q8JeGiu+v2x73Xqha9cxTNupuJW7wnMu87JzYHvKaOzryrqgW7AjkIPIfOF72FiqY4c/SKPOVR4TwNdl281mzkPN5j572Rcp88WVF9uyfhBrzyzk09LOZyvOLzVDtl4hK97kQzO7UlIT0UpQO+9VHlvBxSxjofVS49yJDGuwSTyLyCDja9SQOavIUMpjzmTWE8HewnPdjINbyDHhk9ByRFPeBl2L25EfO8Nb3YPGF1W72SweS6QQj2vG5rKr0Q8qS82+MrvFhaADwpRQY9mszJO8N4nLy0/WK9IgZDPKFUez2MMSm9Op3PvJljyjrLwCI93thvPG5AKb1Hvqc98fEVO40MjDzjw9E9rB9TvSugCz2NSTG97ASaPBmQP708iAW8XZMavKeQGz2YoJy8loOWPfbl4ryfg4i8qKgDvUGVQ7zT+jK9ZLijvJH8LDzYYd47AhUIveUGlj0tGu885wMavT96AD1YmLm7m4vQO07y/jxSlt246nMIvQmObTzBdXc9FnzJPB4PFbuvNK47VBKNPYCujbxHdkI9e3QhPTDaxzx/vpg7NKSQO/ftaj1LUjq90OnDPHOAT7zZzAO90lSMPDE7gb23F0a9ZTIEvRw+Cz0UIpm9ssMJO0m5Wb0/j+C8Y28qvV5izbuttdO8gROXPKjaBz3u61c9DxYlu1vjsT07DYA8QSnnPIrqrjwMRwU9XBEzvE52EDwnKCk8J8ftvDc3g7xGzCA9Q5akvC9/Ar5UtkU9dm4sPf/atTzYfcK89iPcO2ywDj30x/q8sVXlvEUNWbvesaW91lesu+2F8jzDpqY8VmsbvTkM5TtQM408Z3nwPJ1nDr2ThD09TxRSvU3tJD3F7wI8NrtqPa9HAT3wPws9rIWKPI0JxbwEgYA8Sm2/uupUp7xxZ927gO56vGDJ0Twy/qG7xK8mvJkvvLyiGfm7wTjau53zBD2Fz2O9RMwVPSe80Tx9Ips80dAxvWIDMD3r4Nm8uuaYPN0+qDy6x0g9Ms5jvDn2NL0xah09gyOAOrxvjLufZ5Q9hR2OvMtXxzwSsf88yEopPdDFBbsEKlc9DkAqvDxQ0juBPYy8HasJvKT+gbvV/n88bsZAvBhoxLw18K28r42SvKzfhLzaPAy8yRlKvP2aCryKPJ28uHgyO2U2izzicre9etxzvNwyOj355Y48SZB9vLfRuryxu3q8kLzqOrWA5DwZr6O8ngfrPAhYAD3zyCK9brLXvCB7xLuJ3Wy9F2WPO3Xhp7yqGME8L7vWvIl/OL2BxP+8/PLsPK7LmLvoNwU9vsHJPLOmtjs+s4u8qbJfvTZu5ztsods8veqtu9cQmzwzle27LWoGPJfEi7y8jRy64FLvO0B2yjynxHO761PbPJI8K7zGpfY8KN0APW39P7iCjvq81qykvFNpMDufVKI8yXNbPHkeNb28WrQ81MqmvN9pVjxIVx49NU+MPO2h0Dxrf6o8YLcJPUTnu7yj1Yy93TE1vFgW0LvMXDc8vbvTPO3mPzz/o3Q8NjA7vRR5JrzwEyE9ZcsAPQHG6jm71s+8Z6FOPES1nLwbkyk7hGlEvBj7yTxGdkc79/BNvfBuIr03EOY8WgcSPB0UXDz/1JO8GDYdvYDe2rx9n+U8gCexPOJfgjz7csy55xiMPMBPNr2mEmy8HWQ3vcAsnzyOJs66I0LWPMFr9rqjdek8vIYnvfVaFL3fxee8L8OZvFPFHT2EvLk7FOSiu0qW4rzperm8u6SBPP+5iDsxH4O7ObzTPboF37yEOhO9WX7bO58MnDzATSg9xIEbvVP/KL3X+Vu7BvEOvbIHOb2o6QK8EmkQvCV3lzwpFp885iC3vGwJLb1LCwq9r1IqvN56D72gyde8sIQWPWbX67xJ37a8e9NXvPp26LsT4lm71/6IvIwAfDuzw4w8qLAzPIlfD7zsHIS7g8nTO7Hw07wWXoq8NRskvI8SOjySOt+8riB5PeYSubrS+S+9H3nyvHX+Djv2/S26TTievJsJkjyIfBa8OMJ/vR64jrzpHCA8DNlAO4iQJr2o/Bo8axY5PXnnZbxYy6I7ri+kvHPlRDyzadw8aHn7O41NK73Ntug8l6G4u3ZIIL2OFXa7e8aHujxrH70Qweq8pn3eO7DIUTzx2gq9Qi6OPNMTgrs1+Iy7jk5oO9jDxTvBBJE7pWDtOxXRvjuLZtY8z+kIvN5GBrzGhTA9pkvYPIwgZLxqOAE94m94vcw3GDxPnxu95UBePbA/Pr0nb4E81K5zvDotg70724k9rcV6vGvfVTy6yiY9DhsZPTx8kLvYD5w83n0uPe/7FDsbDqK8kFG2vEX1Pb08BGa94rvTvEkXlTwUsMa85y2hvLxFO71kf/4650x+vLEKAbzjFzO9UXDsPGpomDvi3Xw9sXgHvX5tvbxPWD89vWLqPO6muDuZYuS7iP4ZPCQ1PzxpTIs7s/T2PB11+jytbRO8EkfIPDZVRb2BRYE8VeLhPLb4YTwpalM8CqLzvEBuYr3WMIG9YQcvvVXs0TzC27E6iZ7IPBmw0TxYJcg8sm1WPCpJzTyOrFc9QuL/u/YdJr28Jkg9uugTPeq7tTzoex886HDCPABh7zyeWEq8Uhm1PIRObTyiBUG9Q9mPPAYw9Ty81Uq9mF/ZO5K54byuxsm7odFQvcmHCjskEUk8G31svAxvmTmLYUG94WbqvOBkzjsQxm06PIAxPYvcHDy+E027VqIDvDkyZz3nwL+8zYntu2FaK71g44o7/gElvbl7BL2Uy508fkSBPYFCi7ytG3k7eyCHPV/F4TxWdRc97pH0u6WqKz0b/gy8c1ucPA8bwjwwVgi+6uN+vIP0hLyonwk9baywvD4WFT0HEr+8uPP4PLNDNr1GbhE9qh4/PJwB0zxkVrS8U5YcPRcJMr3uAS49H/L1PDdwY7we/eK8Eej5uonkyLgjG3085C4AvcRDHz2mOaA9ChdJPIEl3DzSbNS8VlR8vCiLwjvFg6C86Dz3PDz3VLz6LYS8rrqPvICaDzw3RR49oUArvBIoKry3MQI88qtwvQaJGz1xrM+7jR1BPOfWUrjjT5492JsRvUOo1jxRaha9xa4CuawuE70Bf169KxCAPI1VsD2pFzo8EwUaPSlSvbyAP988021+vWbInDyl2Bw9cnZbvcZWYbxivVu8a+IQPSITWbxOd7K8Mcb8udppNT06ufY8EwEYveYuv7wu2DG9fTAUPGSzmT1Qjf87vvaEPLUxxLyRik+90SwevPTzqDyU4do6cpHGvAn4oL02bao9diamvG8kbb06raK8j3wJPYLpAD14gP+8oQAdvT8mnjw8FiW8EG+CvPTYpLx/Bi+9kWhTu11smT2cvTy9A/u1O6JjTj1psAq9kyuKO3VWSz21qBI92J3avD70C73U1Ju9vrOcvAXvALy3KhY9iFiMu3qqkr0oacg8WRwePUmtELxEfpu9cqQJO0ysWT00hL28IDvhO6TEqDxOibe9lXB/POE+crxtv2S849qIvW/9Nj2mcZ68rLmcvLmyB725Y/g87wGHvErZPrkd4Uw9b0ngPA2U4DuambM94WE8PWzyvrwB7TC9zrh9OzzmiL0clgE9+WyGPFKirTx6sgm9Uy87vLpr7LxnvRA7aYAjPTXV4bxAHKm72CfEPExPMTxi+4E9wwZjvSdmuzuEzNy8m5YIve7MYr2bsKu8P0KLvYK0f7vYBZW75SL3Oyw5BD273Ig7+X2LOgO68jzLMb87J+bCuww4Czw8/30981jcvL97WD0KAUk9AiTFuxEWPLy5dSo92ZF6vIgKArxbiE+9KabIPBezq7xseDO9JfgEuzP8iD3sEA49dV4dvPRNIT1WolE9UnVSvatS7juw17a8M3U0Pai2Dr2yFTu8JJUEPV1GUT2ScjO7MNqCvBF5rzxBoRk8PFDBPJ91fro3vDC8MjpWvU4k6jyfb/y8oEVGO/zMTD2qnr49X7weOYHHML2Ugdy6JuQLulDaOzvHw+W8T4ScPHFu8zwiiDU8PUkuvFU7hbz9Y3088+cmvZekgT2D9Bw9qb69u9eCwDzCPZA8mWPTurmqvbseSRa9hSgfvFacHTvoUF48K7dovMV5QTu1A129n86xPM4v5D2qljc7rkevPMBVL721C6e8uUskPMqXdjzHHo68FzsqvJusDb3HSus9FErdu2BGF72k45u97VL2vD3w+Tx4+vM7WNkIPVb+wrzTVo69X/aOvPcGMj1Gy567bXU0vb9rkj05S1C8FNLeu8V2pDyMcIQ9fdesOqTUaL0eB/E7BBwGvcDR6rzFjDm9bZtOPIsPWb2KjZQ8NzEePeGCCrxs5UU9RBEEveqrG70ueIG8rmIHvd8vy7xKh0I9LeaQvE5OAD1DSdg8WeFuuwUcT708zo+86y6uPQZ4SbwXxDK9ThmaPdX1Ab1FZzw8ZZ6IvHPIpbtFpZA8NlqqPGKR2Lzo3i69BqGLvXKBKTwZyDE9eL+zuwyZN70UtKy8Kn11vP4dD71Kwz89NeVSvWI0I7vb9wc9XnYsPUj0irxLDWk8NGPrvJtzKjyBe7K8yu8bPUIs/LxJ/Wa7d01LPRHFeD2PqrE9sgg3PcC6BTty7vG8qdARvUqQJz2iGja9+VopPaZ6MD2OvzE9rEdbvQ4tyTuyA688TOBCPTz9ljw6+O48XiJWvN+eIzwq5qQ7+L1OPY2UHL2pKYs9uIkdPNlTzDzFb5i8qVUgO/w4abpQWeg8r3cfvVsdbD2xhOy8g5puPX8lcz0UT2k70XBKvY6XiT1RjZq8VWPRvNrCKLxsJYQ9qcmkvCyjiz21lrm7kgonvQMKtbot4pg9bRaevCb8k7yKnzY935PSus4nYDvhwkW8p+dJvRcwVrtkfVq73oF4vSs/y7wLoBC9CvsAverHbz3ASya9/rA+PafFgztT4/w8OEcaOy2I0rsA2SS8EIPGvJCAhLpXW3Y8hxEePH7n77ytkh69oZeTPJQ6kbx5c6c8uM59PT2vB71cbjU90miCPLZ4tL2jmwo8TEV5vGR1Erz5Oby68EQfvWEJ+rt8dmA8zpWTPXPNrbwlS6o84tFAPF2LFb2GFlG83JQvPapKKDyQIwS8/5vvOwikXjooPgk9oD6iOp+kH726Tfe8zWx9Papm+7sGquy8O4kJPSVyM7ohh5G7WWbhPFS4Gz0wigC9xcAPPTbJizxm4xg802xDvFUPlTyqV8Y8SogJPcBRCTvuGN08aS0oPDIFpDxkTPA6KCKhPJAXRDzx8S29WXSHu/TnNrxioB69MNAAPX/60rxS5kI8WPfovIYIjLwgm4I8jJktvEailbxe1F+89xAfvbrxJ7yfjDC7Uh8wvaKCOTwe/Py8oOzVPKA0Ez0Gvse8hcMnvBlkET1bNAs93on2OxfCBT1zmcq84egnPElRBDvCWLA8UfbGvP1bMz30ZSS9OrNvu2xKOjwS7oi74NrLvJKRED1j5HO8npybOze7Lb0RTmm9Hy0jvevvvrxyWvI8EWk2vcGUkbwG2EC8890OPQ/+mLwjvAo9Nibhuw3MajvBp2i6PZhmPB6kebtdaR87N3kiPWnwwTzHIPg8X9wJvAfZ7LwIFri8zWJ1PFwwprv2JCC9ftthPU1ITD1EsNg8JSdAO7twJzzuhlS9HsAlvXEVB7ynSLq7ansKPZwhNT0+lhW9WKfKusGBc7z1Jw496WU0PT+IpjsB7RW8kR3LOg5mhb2wpQg8t2S/O7VwHj2q+uI6yVLnvOU0wLsG0rY6v0SevJ0msjy2lhi8EggEPblLMD29v4K8UI2vuC0zFT2usiy8B/64PC43Pb2IBC68aX8vvLiAYDs6Doe7eTs3vO65Cz2pl4q9Rc3SPF68Gj1l/ni9/eMovZQJXryXYt68cnwJPSvRGr0mI6M8lqQtu8tKdDxWwVe873ygPDERYT1bKU2899bwvDJgGDx7zYW61HkfPdJ4pbshsga9o9jNvNt7gTzU4Lc7rgBQO9CNGD23p0K81Tt2O3sJvbv2qoC8GFsKvfRMET1oCU67srixPC06Xrw440G97J6ePJTm9jwsvAC8IOUbPVtFubxJqrU7CyZfvAiVGD3qZjU9S2YrvIBrwbwjs+e5ZVeFPHqzL72KFmy8f9gBvPJ1fTxgWlu8HD4gPRs6DLumXd67gcRNPRL/y7waFII8FjL7PN2WyTym4xY9VnxIPAgOuDuVXh+9J0wDPTEIgDzui8s8K2ndu1scDzwOx0u8dplou8KigTi+fFc7SsYNPPSmAT2YYa28Ph4LvQpmWr1NjMC8CDPyPKndqzt8vuQ87S8XO6DzrbrO5HY7PLcEPWGK/rj55DC8JYQevIWfKLwuagU6Nc7EO7rGMb2sktE8JW2IPHIX2zuH+As8sye2PBcgrjzV76Y7gqwfPNoQFTwYtvg71jISPTqnxjzX7gM9uETGvF39Mj3fUti8zQRWvCkdpDyfPnA8Qoz2PJb+lzyzDfk79TAovfbYNL32avE79MQhPPVh/bwTsMU8027COhnSMDvxQBQ6/nd4PP6JlruvRZc9Hpf6vAuZrjy9Ttm8IzeJvBTAab3augQ8RRSpvCQYt7z2DSe8++zevAjVEz1SsyE8E1wuO+0KBD3z1wu98vBOuxxBDD0g4ZW8R2+YPOr4ATys/dW8MdHBun7QgTzmJNm8s/2wO+lsKD0/5AS9Q1mrvD9qzLyb/Ga83+40uaOGCT36Bze85f8jPS+qXb2BBP48SasePflJJz01pvc8mEGYPBYOEDxTCYU8w8UVPdiEE7xbBRu9aSt8OxZKsDyPdig9hIZlvBlYp7xPWAe8F4PkuoG3NL0cCrc8GBCwu8GJoDybXyO9jZYuPHxDtDxUtt48QLlJPAUSWbz4zWY9p2WtuxkXi7t8iDC8isOMPJGOGrzFEiE9hJZePbJ0LD2/ybE7v3uaus7wdTuxg5q8zOOCPDdUWLyUSpS89gU2vCIFIz1NQcm8XcwpPInBs7x94w+9geipvEldmzxxCKq8rpUoPU8iWjx6Le48Paamu4dmn7yUthO8OwAbPSmoDz0aGxI9IF5lPFDHF7yvejq8mFOkuWzB+TxKxrI8ZFWqPPPBiDyIoy+8Wta3vHvGmryoO7C8Zi8Au/xV6zzwOOs8ThVpvB/1Fz0k8cg8mOztPBbxB72prU+9KATKvPBAOj3+APk7r0CBvNJTDz0iR/o7hxYjPaAH4LsDyye9Xso6vJdRIT3pm8c8ewn1vD0zgjyej4a8ce69PK1kAT394aY8c9EMPape9rz+znm8vKWqvP179bz4xtY6OAqrPIazbzyl6OC8Nj7cvMNhD72jSjE9Nr5GPQZ6JLxd9uA81uYSPJrww7x2VU28H9HxuwikoDynr7a7eEtXvFh4XbxNLve8/+8auxe38rwp7PQ8kDRUvLjhC72mPZY7lle2PG4/KL1IuYG8qclEuqlWuDsS5LY7oIARvbOocj01Dz6791PtPKlBgrw/XHU9M/YqvbifB72HNs86RXnZPMxbvLw363M8PO2HPLcJQDwwkTy7DCctuljg9Ly5JE88px5pvF4BZ7xbFIo8bN6HvLqt1rof5ME8FpAzPfeT9zuSPwS8ivFKPIlR3byTTp08dhyEPKEEFD20DVa8a2iAuwUgBzygS847/GcDvWYx2ju6zWw8pncRvTYVRrzW8uC82Bovveh5erzMW0y868QNvTZwAr3G8bs8Vt3yOrk9L7zMMy09bNsevGFwDz2zx4K80MjhPCHxDz0kE1M8Hvybu5Faq7w2SJS85tgFvdM/zTtHrSu7p6HGPMXW6Tu9QmS8VAY+u6QfDb2lfjO9bbnqu6V9zDsgEkA9yktJPOzIOT3XGFk7xGjUPOtWBD03fC07rXssvJrXzDwn00M9oWDwPM+hDT02nA+8CfkBuqMcWDyHY4K4xIgVuRFTnDzjtSm9nR+HOepry7z0fvC83ipzPH1gQzqsO0q8JL/vuzGqHbwlc9i82gT+vN9elTxuG1C7Xa51vGlFNDwuzuc8XMlCPLz/kjtCsjO7KG7/vGoXJTzeRJs84xmNvOpxDTz74jm8fd3cPJbvPjvyF528OUoVPCYOiztIgma8EbZcvH5H+Dx4uGA8xvSdvMb11jxwS4g8bAMXPRp9SbzcmQI9KSIDPb/om7yktPu8M5dAPb40D72VaLC6zMQsPKv9gDy0vPm8N4pKuvDVA7tu8Bo85mOFPAo4wbloozQ9VXQaPUjLNzsbVvM7OqfkvGPT57wASz+7cdmSuxB70bs1xS49bO8UvK+LejxTOA88twyDO7aSCr1c0ty7bgGVul+5HL0ZkUs7bVHqvBKWej3RVAC9bCTevL2qTDzCVR299ns+vdctxTuMnYY5kmwTvGWj27xavzM7vcyAPMA21jwkKJM7Qu3MPKfwnjzOAJA90rmbOwtL2buJD9y80n5vPSYN+DzZmd+872EjvZ2g17zWBjU8gNg+PR6x/7xWNwG9UNC/vAIKtjzaIzy9XpzDO4jLujzl5wE9j+IbvTRvQz2/sJs8C4Uqva2/8zxBRei8V+7gPPTyDz2q7ig8g4nnvDV4sTwnv6q71q5AvHOqHL20SAG94f0cvCh8mj3bBw+9Qa+XOqWu5jzfRcQ87SErPIRjhLyV1L27R0E5PXKGDLsXyuo8UcSdPCFfkrvqvna8ELObvAz2uDzDFSy9cq7TO0JtLL1rf0g8eqmmvFqn8jpq8X67OKJaOz7aOj0f8V683/0wPflLezzPdAK862XHupDWYrpgy8K8iIscvc9FEz354jO9Jx++vMthMz05TvK8rUhiuzwmaTzJwwQ76CjGPITxz7y6wPI8j1sYPROE8DxnlhM9fb/iu5WnizqxR2c8R3wtvQJiRT0rWac8BXnHPFZl27xX5dS8z3cLvaq5Mj2UHaG8aAcMPIb6E71FsgG9DeCLvNqynjw7jMY8ZsSpvAR+ODzI7Mw8D+OnvF5yYj1H0SE7P/3SO2PPDj2+XwC9R0ZFPE7nHj0Yw8i8NTSpPDK0B7q8D3m7XncIPYrVHL2/2Uw8rQEdPQAM0Dr/SBe9tU1DPOcLtTzHoCi7b700vDdDGT3qs6m8PDiWvEynnrzhhxW8ZF8WvUX+/rpaZVI8lLmuPHKx97uSopi8IMZ0PMFKSb2/a0a8SYfdvFKZPDyiFTS90nwaPcNWIz2pCjq7kNbku9QmFb0xfqq8PugHuz19Hr3EeyY8iiZLvMFoRDwbpnW8ieC/vNiODDwF4u08fQtavEDA1zynoHQ6VskePXL2M7wXM4m8YEVKPHHsNL2MV4M8ZLjjvB4X7byP+0Q9MP/NvCP0GTvATLG8bCfUOzV61zxR9zu8Hhb/vBQoOTx+i4S8SAbFuxoNIzy1e+c8tMDxO2V7CToS66K8VJefPCsvh7wt1OQ86j/AvNDLPD1xHcM8zufXvPFDgLy1wBA7o2ZgPBxp97wYxPg8CTHJuJEvrzwCphg9sQIkvZ0OVrwIzZO8qfTiPAOxmbxqU5g8HYWUvNErhzzp5N279I7ZO7MkYjwxFaK8zXKsPI1TDz3DwTy86rqHvILhD726RjW7CfTDvA8ZuTxcukU8gAMxPcexV7tiLWm9dzdVvRBEZTzp/QG9NGw8PDwpbDzDC7g8SDRVvWPeI722C5Q8P2UyvdYySTw4Haq8tyTCvBOkwLyOCKu8YVxeO8ueyTw39QQ8YWqbOwoNmLpGHim75lnkvFRPT7wZwS49ZWJDPK5k3rxFLKo8mCOJPGoAID3slN+7jHwrvei9xbygEM06mcTbPOmjxrxECfS74IMXvd1I1Ts/Cye7P+cKPWjqVbzkIv88CCVrPB1q3Lx4S8w8C26nvLHgs7vHnjY9nqOqvDQ7Cb29EWS8QwekPGCJQ7xQ0lG7jU4mvDsYF72PfrY8OJ//PA4CHbyVRag8p1nhPD8qlTwvR9q8DzIDPTWOtrxfhZw8mlaFPN2hmjzsf8o7RUJQvAD3krx7TaS8Y9UEPE4aeTyxXdS6nLHpPK5BPrw+bG28gbX/vIxesTwZM+K8CEJ4urVrtjwrb0+913YNugnb9LvZunS7fFzAPFhiCjsvmmo8b9qXvTGS5TxVT0095cQbve5uw7sk2Am9pEmNvLNdVL0Hcww9wz8BPZZn47sWfRk8XJgmvSGZ+zviX6c7+9jvu81CRL27yhO9auGvuy0Ujbx3k8E8wnidu/Vn/zziEQE9TgxbvLcRKr06DW+8eYrzvGBAF7w6Bpu61XLpPMo9NDwsf0g9P64DvFODS73GQZM8z94nPPmCd7yA54S7I+3PvApUJD2MuMq8q+rCPPMuTr00hmA81n05vSyYRjyk5pk9Yfzuu1TzVDxMk648WEF2PQo/pTzy3I88M4+nPNeJHDmokPS8MLkevDvcL72II+G74PiIvC8kI73/Ggc81xUxvC795rzNmBU6nFGyPNogHj1OP5K8B182PFZsMD1wIVc7UoeIvLOZabzftB+9+Y0zuzlqRrwl6xq73Z5dO5SIrrt8gJ88BCvUvCnm97wzziY9gvRtPKNaw7zonLA8I8jivOdWLjyImZG7OqzXO/8QTbxSr+w8YvHFvNwduDypVpQ8Is2zPM6zG72ygeI8Rhf6O4W8DT07mzk8t5obO090DDz2gSW97iakPDD2Tzyloyq9yKHOuoSSrrwGQAa8jW7HPGt2tTzdiZw7yI8cPOKYvzuZOhg8fprxvB/nP7zOPYS8DuU+vZ6fPr3w9is8NPipPHA/uzyQebe6FkAsPVnsV71+Wwm8PkL9O2/02jx0xcW8hCq1u3Um9juuHCk8wehQPcLCfjzCqwO9l24kPTciJj25RhI9mSlju9KM0Lst5a86x50FPUIs7rwfopu72NAfO1VxkTzBu0E8c3onvJ6PzDzXPym9zUuaPFh0uzxhZxI953STvNQeNr2AUAK7n3jxvL2ByTzjT7Q833uqPHj5HD1pawW65tIovTHOgr35DIA71pY7PBgu2bxnrDS9fp0BPBOSMj2X+dY8T1/HO2mmLz0MYga9MHKgvMzkw7rWCLM8/rU6PNAABT3z/2s7QiRPPZA617wswiU8fr4iPHzfJr1Fn40861axux58cjy4rDE9Zj3CvCr5Hj2iBUq8AwI5vDImxLyF7jc8ErJPPOW3TTxFjA+9WiH5PNFjaDxBS6A7VEoXPUY6NT25fSI9/R9gvFUgx7wIWeG8KZq8u/OXaT17eqY809o6PFGN5TvfxP28G3TdOw5fHz3ZRlm8hkP4vFZdjzsNQb08qKwwPAl3Jb2+wtG8GNlsPEb6xDyEUgM9z0SHvI+uTz3mUBe9nl9UPPyCCL3ReYe8ziULvYVOC71HrtY7v4siPO1gp7xiFJa81DmBO+OC3Dza0lc9CDJgumJ4Ib240TY7FsYXvc2h5byKPAS9jLPrvMUQbTzmBwW9r7+auzIFXbwQ2Uq8+vYfvdkXsLxF0/A7xdBYPF/wEr0/7Zy7g/CRPMfzCru0rlK7UOSUvBGzbz1TQYQ8h2tAvE04wLzUjmI9esobvXjRLb3dhk+845nQPABXxrx2iLo8DEtAvXXuVDyQOKa8uzLkPAyaTzxtW8y7idgbPAXskzsZ+aI7fvoKPT9HibzdRFq8n07fu4pplrzd2Tu9w3PevKjGwLy2i7+8tK8gvZz+Ij2aCRW83ZsnvZlwhTtbbie8SPOVvNugRD2LfL27FTEMu1TSQTzIC049Fov6vHr/rrzYchs8FketPLY3PjxT2Bi9Xuf/u1jqTD0kiQc8T50nPZJCGz2K3KM8TBMXPOXE0ryK3p076tNVO/VKnLyyumS9jlXUvCoPTrzzbhW8gAwEPKrUAr3FaA68XaKBu1Sv7bz4Mpu8MNEqPX7gEzyxWLy7w0CuPCrKLby6L4s8f7i6upFu4zs2+Ia7RIznvECZQLbJNtc8uB6QPNxk3bz7AHq8WAdCOzP4czzAhoM8ZjCvvGZV4bxq1xQ7j47zuyvZl7stYAY9TGR6vO+bGz15Cgk8HroqvQ1UzDwSDIW8K6Hhu+PcCbpSPN88Pto0vbWrijzQcsa7oTeqvLa9OL2eiJG8YE+zPCH5Cr2+B0O92vkOvWk/B7yPJmM8lALxO9JgP7wIqCS95+LWvJVYe7yPUoQ8/VCjPIR4+TzDUFu7A+Dzu2vq+rzlRwo9EYz4vKKQczyC04Y7NqwFvQqAqTkHY+m8cyYHvMPkHj2V2tM8eZspPecsmTwNTcE4+5+vvC/lEDxwe5e8aXRVPB+PkLxiImu7jvIivH7bwTts2t67MZdlPah3iDqYDXi8tAuMuh0C4zwYUza9+FxrPevtvTz+3HE7D+PzPGgs6jzmdRu8gQqgPK/hC721lJS8r8HguxD9qDaUinE9TbuDvOkpAT0re5y81IaCvJWnP70FT4k8pos8u2dvJrvOE9C8qzEIPRa30rvZ2jE8iyEhu3bO9TwdMwK9acEku8jfQLxrYC09G85YOqCZY7wGRKi7nKWXPN5FdDzVxj08u38cvYHjUruQBuY6aYpIveMG8rzNenY8DRb0PDCrCTwX5A89UsxlvHBd3b0g8xk9+uFcu8Q677xYb9i8OCyNvKKA/TypZfe8RsTLu46JiDzDEBO8UiubPIhfu7tAwhu8RzkRPe6p172Y2xU9LMU8PGR6EL3ofoY84fYFPLLelLxMqDq6LY2APaYZOjxf/no8l80BvUonIzyLBUU9cA3DPOpVILz+ksm7hkqaPHMJ9bzUX3c9SpmDu2SDIjsMRNA8zCH+vEUkcb2EgQc9+QMxPNJVE73kpkQ8HIeLvD7xkrxnawM83l7mvDzCwjugQfk8Xk4nvUPwgjyt6L+7lre+PJlFFz3/Nhi95GqtvD6y2jsE68Q8yFx1u/whQL1Ikiw92xe8PMwPI7vRJHQ9+blzvX3PGD2KJqs8Rs47OwPeBruTx7s8ojkCvbaWubt37y691mQQPVq7Nb35b0O9KjDRvEKxoLx0qz08VepEPENhezzrZzC8o425u/4nZTwISPO8QZGQOxmsCb3M56g891y6PLidMD3BHYk6mO9nOtfSDr3sOh47xmbNvAukMLyzojY7MGCwPMmlHz3uV1G80fENPTR6Oj1O4uU8ZdIkPcHaZT2CWum7qMyXPQVZ4Tt4yQs967qLu2NMnbw6V148F3vNPDaUcrqD51+8VLkiPA/cPr1Hk6U8PBAsvScGersjHWG9qsDJPF8CbDwsRJ47KI/jvCp1MT26LaQ7svAsPTWcAj2A/Qq8Bq4bPWVeALy6CJe82gVdvJzuljyz3js8OlkJvE6u1b0N3UQ9w73pPCffmjsoHZa9jFChvKkehLvFS4K9krbvvJsgzzwyiT+9GXKMO691rjwPmYC8WcvluwtpDruPr6k8m1f/PLXEJjuDfL6809e8vEntBTwVSCQ9i7CUPfl8azyd+gE8xiVvOx5CDz3Zh7u8YGWIvL8PEjzWQfS7pB2BPAc9FLyaRaW8vrZMPOf3XDwoRn68VN4jPUWmijyWTeq7lGK1vIwOoTvkFLy7cqXQvL4ybDwXllO83Vcdva7YBruQf6o7SOwmvWSy+LzzEeM8GFYtvYCFCL3UeBi8Hs8DvCjuSjqtSJO7ngW3vDve6zyJ3IM9LVV8vHvSXzxvNSw9vmPDvDW4Njw6ACC8pefDvLU60DnTWxe9RZP8PITmArtbj0O83oWxPEWxujzdmyE7kmQePVY+8DuUB4c9pF0sPLGrnDovZQ49tDrNushdubyadSc9Bi/yvGBk6zyS+BW9dF6SPOkTTD2hM5+8lvhEvLG29Txf+uq8Kf3UOdmLEj3Llu68t1uePNpojbtyo1O9SN78PD+kxby43yM9LlsSvfzS27wDhGW8LuE0vV1H/byJi+87uWyZO5mYY7yvExs9xSqFvFt3br3+cey74FIOPVaks7z9d9e8fG5SOzDyEj0uFJE60jvHvKVR9zwRLhQ7p6EiPZPeCj1lUDQ9WE8SPG/zXr0jIWk8yyxVuIICE7tYFvK8QTygPAdsGL1W8Su9AV87PdYHjbwSgyi9ht4gvMNuFzyegI46Km8gPOHbETrpiUq7EcACPDOKZbwaLXo8w4E/PQ0vV7walE271PqYvHIwj70JV8g8EohovWYZwzsQ20I8lb+/uddLIbzHJOG7pcQwPGltkDz0PMQ8nwqLu9MWkLyytqS8hReNPFhRuzsOCPS8rDTxvLMHsjul04a8tR34vNoi9rwGqO4749V4O7GeozygIUK8484uvakLHztwhfW8m0zCPLK6yLxaK788NNyEvJgUqDxyON08slAYvPfb47wWXa88/P09PdYd/LzItwy9CcKOu0vG+TwvEdY7zEAAPRaylTx3WBS9pprmvPRS97vrAPk7rSHOvIwaFjws7Hy8Zs4FvUj/8LkLzko7qHwIvXaUqLykCRq8U/ybPBwbJzwUGWK8rbJ9O5b0RrzYpeQ84accvG3Oobxoy3G8cLm4PODotLyjvra8JsT7u7O82LsAenC9rokBvMU5nLx/0la7oyIQPcY1jbwB2Am9SvsfvEQ34TwD4E28teBBPYbbBT2gezQ8r75YvcVLGT0jLGE9f/iJO9Y/ETx3SgG9rZRcPMx6hrz4ODG7rwbjO8UJpjx/dUo9IhkqO6P5vLy9VXo98/YMvJGlHTuqGYG8DdR/vZ/tCj2PjyO9eXtWO/WkPzwa9Z27MrdjPciHdr0m/qg8do3lOXJukzyQShi9O0prOhzC3TxOeEE9ce0yvQbIkbwHSMA7LhaFPQ75zjteCzu8BJdJvWUDwzspizc80z8sPWPwO719qTu91dNVvZuLwzu6jqE75eAnvaNtgb0pNwG864WvPTs4qLzWb8K7aPkdPe41cLuKDjk7D/M5vPtyNb3s1MK70Z9bvUSxzryR4LO76anLvMkd+bwdibg5oQAbvSSoyTzDxOc7/NhJPMEFaD09pWs7BIy4O7KjM7yuEOs8cZ0ZPcDSBbyFN2I8/89YvNmT87w85508ygbvPHiqxDvU6sy8k649Pfq7ury4+qe8QsS3O6AI5rxG+MS7QmIEvbO+wr1zvCO8+XY8vBARjLxR6H47ZG0TOztMaz2FOhm8EgwPvMYRDzxBTF89Jw/WPG3sIb3iMAk9GcSNu5C9L73MnBI8eIYyPHWZ5bwOJlU9LyLFPEe6J70nqUA8ocD6PPDtKz3oCnw8LSkePY+EeTwrVoG8ylPqvAko7ryccby8FsykvHT3PL0llQE7kzUFvYEqMz3vi5w8VpN/PTKWhDokHX+9whT4PP0qZz0tI2G9i5FmvbcPGL2lf049UUkrvX8pADx4yNe8PV09PGu5BL1ZbLM8r3NjPauk2jvklBE97PTfuz8WST08w428WgQRPe+fWj0VBZy6qLbDPJodAT2bI+W8rQUlPPmtQT35oFa9bpz4PLkRZjxOyyg9LWBuu6X3ST2jkeu8rceEu4fDj73sV1c9E9e1u/4xKD2xBHw79ggKvO5R/TxMdBo97LGrPArXeD3N7V48GfwnvJ0gID1D8a48xEf8OqULaT1807S7X8dHPWgw9Ly9pv88V8cTvRQwjTxWyec8fcaovO5s9jxaKTc8xNGGO7FSVT3uwxO94iAFPa0tjDv2/oY9Ll0Cu8Ju/Lw8gA+9bvn1PL/PRLzMIhC98WaVPFnYrTzYkaA7uI+Lu4SWQTxSx3k8VgdrPHl0BT2wi+k81m1Nuq2BrzxL8ou8PBO8PEoYEDwnf1m8ZPEyvWuvLT1EljG8/tYLPPPaADzNyUq8e42QvEVfUz3ukQO9pP8dO7E6KLwbfsQ8dnrAvBJW0bydg7k8lZagu05T67nMNEM9grDSOxIqI71mTT29LAQkvKBEZzwL5YA9ciXvvOeHCL3+dg+96tHPvC0b2byxWVK9j637PO/BTT1DGhy6SnzsPPxjhzxjlXA71LVRPYIbHLtUoOu7wvcaPQAFLb2+eZG9krWBPNe4azwewkQ9vNf8PEFPq72BWoA8kRbavIlHCjxHsYO9VlGAvL09pLzLBMS8grWUvNVuqzw/QXu9ldKTPfyxEjxJ96M8j9dsvbi3/TyO8Yo80JhNPaBQ7TsOq8Y84WmTvYV4Lj1I48m8RRWzPLm/J72PWUA9cmsuPVZBaLpcSIa9nWIJPQ0fqbzlo7E8tLALPdYvLDxlH3K8tmeuPMwMhL0fDQE8wyASPTDlpLvXgtG8so1bvIV+HT1YayY9EEBtvTohGryVjAW9qN3cPAib8rwV1Tw9ZSoQvVMrvbxESTA91MI2vWkDAjwDpxC9qR8DPCIuRD3GpXm8ScxqPLyBKDwkMFs9yvDzOnkDwDzx8IK88/JYvO1D8jyz3y09uW1YvVgzRb02iIG9+6RgvGu2MT1cSgq9y8nvO9YBSD0WWAo9EJr0u7y0BD1lr3i7ATAtu29QZjwO7Fu8wzDHvGjit7zGJZS8MM8IPT93kjzu5Ao92lvqvGJh6zv5AIi8uKgPvcBV/LzKmOU7yLNVvehyujxrFWs8LfedPBH/+Ls43I890yobvHlX9zydyjK86T3yOUNE9DzPeeA71MewPLKQbLsj3Tk9dUhVuqrr/7ty4z29MZZAO5C5lD29uYW77WDwvLs/Az02huO8yWRiPCW+4LxkBwi9RLs8u5quqbxDo3K871/EvEIOtbzBeOG7uP7FvG3rhj2IbJg8883xvCVt+DwREqG8SRfHPApczryRAwo9JlkjvbT+zzvWDkQ92x9Ru9Grgry4A069RE+0uwLXRz0dURs9v2uBvIynuLw5ixG9EetMvSB107treze8bzLuO7PqST3hf768TmGLvHHGJ71Zyyo9nwx/O+tOh7vr10W9m9XXvHMVw7x2ZjY8ig4CvDg5cjw8IuY8ho4dvAm9dLwe6ZU7y7DBvKHa0Dw1ffe6NQ3iu/OqR705wTg9XPaNPU8VIj0tT6k8a7PyvPp4orzvnXC8mz9EPXgSGb3Pph69uLMrPcKPzrynMBu81t7LPAk1VroS77i7jksGvb5Pdr2tMSg7Cr0XvVg/mjuLYkY93rdBPCRxZbwtn8g8m4Cvuw1J7zt/+lY94AYmvIWVobxo5Ie8MkhYPPa2sTldOUw8Bc4kvb+9e7xJ60m9GXZRPW9H27yisJc7pKCgPOwRqLzBla08XDGAPPVNuDw0to680AG2vOIWjzxs3Ts8FmyVPNlzzrw8a/I8hvtXvSPipzwYcly9CO3NPFm40LyBpAK8NaP+PNMSkjyp9S+99YvBvL8/YL2gjVo9BIwjvfYbS7zoTGG8xpWuvC6pgzxs2Ie8MJFFPBgPCjzaMu07oPx3PHJDLj1PoLe8STcVvXiYpT0+EyK92q3mPHOlCL39lY67DVkrOnIZAj2RdDY9DgchvSx/JD3CkSo9dT4pvSxcCD3aSHq8z9Q9vLpnV7uVGtO8l07QvCc1UDz8dqi8zVNbvZpuObzr4iS9LFCavYG+XT00Z0e7AHrbPH0XYzuimBg9iHCrvGzum7wVUAo8ZNdjvenR9bzFNQ+8Q/q6vBUhvbx9KAI9LPOyO3sT9TukGGc8q1evPKD737vLlSs9KWFhO1CDFb2KbhO9TEb2vOjiFr0GL429+J2avWEZOLxy1Ju7Yz2KPfZirruBKoe99VKwPPIbgr3SLhI9Q0WnPZeE8TydR8s8GacRvaqj67si7jS6KjnuPNJFNr2N3Dy9hnnrPHjBgDwZbBa9qqRFPbYmqLx64+u8KQrHPCHCkrqIIRa8Tp2jvKLNtbzg8Mg6jU1nOkJPBz2BrNc6Q9PiPCFoJb0xZiU8hXmSPOnvLT0M1T46IW0zPZYsGzqdyO+6SDSNvXhimbzS6gg9DSUCvT3OMTve/xi6izJ9PLPNnrsIqZq8fzzEvNE8cDzK2uy8KweivBxkPz0orP+7Pa3LvZu26Ty8t4K85rZBvPCDwLzwlA288xFzOvIwVT3U/1Y9itKSOjJeArwm2gS8phy9O0K2VD2jjeW89PkovPm8k7wqTBI88g74vEmRjTt6UB69/BMlvSrZtTzXPMM674tGPcBujrxe+9I89Ns2PRxBVTzIwpq8KkIBPTLX2bsDIkq9uBFnvT2jebu5V5G9fIBcPaVks7xrYp28uIU7vEgN9Ls8UiI9hK3QvPcGLj221Ke5yvTOvIWZxLx08B88RsOyPPp1dzzpeze8EGGTPEZ7Wj2zTNI88iBsPI6kHr3F24O9aUHjvBwySDyEeD08fd5NPY7DAr1/Zoq9Qa5bPTsqm7v7o6080Kshu1HSh7wY7UU8piOwvH0wdLxBB8W8ZnyLvJHqGzuozvy8b00VvDRJAbwSJe08pcnZvF1T0Lx6Lju9WcroO7Tw/TyGWk69coYkPa40cT02bNE8uf7zPAotob2iumC8xTFNvT1wzzwo2Cw9FF3xu7depDn7vYi91ts2PMLT1TvhjpC9LeEduy21Erx0UAS7HwpNvBHKQL2Z6BA9a5z4PJQ+9jw/xS89RCkkPQv+j7uo7Qa9ivKnvCrzdLzXHj29S7udvD2iJL3vbaq8hwrJvChRyrspGDc93nmku3/tPz3Uj9i8YFQYO1XebzrtSIQ8mWIPvTRGFLwoVu28Sa0Hu1OERT2GGEm9jEIFPAepBjxMuGq8g8CnPNLk6DxZDfa8QcpdvFcB2zpwyt85ETkCuzVGnTv/Ove8NsMEPStGMDwIYo68SHWGPLIYJj0P6rA8GNe9PJGE8TvuGBk7Kp8oPHil2LwWtxw9TQDqO5nruzx2g6E8+iwHPQKhADw4nx+9fKgQvGqIFz1uN6284BExvbqTAT2lkAi9YWbVva1dpDqQahm8jHTGPE2MzLwWwOS8hvudOzHAMru0DbE88XgJPeq4zrrLSZY8R3BJO+qEjrtJd+O8e/7bvIdEpbwo1IQ8PbEPPWSyLD1Qq8M8pWTVPHEgM72ZaqS8MbbOPFJMFL2S2Dy8zEvwPADy27xv5p48zP0RPX1tqTu/Dd08LdCIvBjUfLxUZia9OF8kPFw4nLwaXac7IUDCu914BD1H5vo89YPZPLsEdby9jii839EqvA2w1LyCQtu8p38DvG94/7y/LdS71FKNPORSEL0NtvO8XHKyPPlsI70gfWs9FUVavNtIXLzrKvU8OjAwukxQDD2iaQK9nByfO2GQwLw7/jc8vhAsPfYTQL0WnJW4xV85vfnho7ys1Oc7yFgCPKqLF70TC1M9mL91vMp1XLxJMjq9R5o7OYw4FT3aA788/zjMOxrHJLxUVz27u5i+vaCGPTzeVL+8SvFCPdT7czugBCW8P1CAvKn1pr3ieRk9uD+4uwV78TvBFDy7HI4Xvav43Dy2HZw8LtWevPHTu7zS2NM8/Xy3vBu+Lz2a5rY8aWJHvLDlU70BqUG93QXFu7PH/brArqC7tJvBPPo/orzZyVQ9lkIwPU2zUj2QB123VJK5PNea8Tz0Mfy6BUfXOkdCO7uxsd48djv9O1JcKjhAr5+86xCBPXHCLDwftgk9xuynPPJWx72nFiY8HN+bPHxxlrxymc68RcvRPAeNhjtFg168i4H9O7FjKL1E/kW9dG00PLa4HT2s3xE8nIHdPNdo8zt1xbC8mZAjPUttzDy0MiM9cNWtPMQM4Tqlkys9GFkGvWebGjxoWyA9MRzGO5bHNbojzKq8sinRPBzbATwvdgM8pdelvNB0Hz3812I8k6SzvFAKR7ymaUE8RvnsO2ftNLzZNDI86wXQPMa3bb13oXW9JpS5vJnHVTwtwBI9qkk8PXolPj3OjTq9qcXzPCxOlTt2SUa9e71vvV/cSbzkHVy8yXOqO6vkmDxqAtc8iVi+vKxfPTxllYa8i9S2PP9TCLwjjUS8aunhvOzz17yDBq68Vik6PVwSuDw6rlS9Jb/3vPRpDb2YhuI82Vc4Pa6nOz3MzGa78VdAvDDT3jy96Lm7QOwYvCabBbwFUNk8A+cOPRk6QjuKI/k8K4YhvbH5uTxJfbq8xYQZvWXACb0xyru8C3Eku3yFCT3zijc8VrYovUEIGb2HihK8atqlvOzp0DyAhAw968+QvAgY8rzBewU9mlTevEJ84bx1Yrw8YNr1O9oPvTxayNa8Ga3mPEkKjDz/Vl281XgXvQDk3TucWgo93kygPNNHi7yHY4O8aNc0PTi4lLvTLQg9SyO4PV55Qby5nTW8OO3gvPK8jjwXSLc8SnOJO9Kg/zs6Noc6RFvAPH1hobxGOvG85l4bvKq9GLxCBoS8sQaAPG9h1zwj1C88l3DgPA1tvTvmhXe8acnCu9rA47s7t3c7ekQNvZjNPLwKrk68n1tyPFztibwN+DU8iuCPPGRkF7y3JeQ6XEGaO/getDrNpqQ6/uUBO2hWKr1oYmY84CSDPUN+LzxChly79iHyvDXptTwINSm9AHLQO1layDw+a1A85vVkPQpwxDxU2zg8ge6LPEN6lzs5/aq8nBZ/vH7caLtWZKI7/ZsnO+k2gjy/lR872zgIPT/Rgzyh7ZC7gTqovKpRozylBDA9UsJ7OlQ8GTyQGh09mHMevZDDLr3RFiU9DfXcvHF20LvQS7887IkRPcWZnLwONDg8Dy8IPRDh3zwt1cM84Uy7PIx5nzwPFwq8WJPXvdTDq7wq4IO8//nBvGZjvrzkVgK9aWiVO78F57xa8dC7kT+0PALo2DxTCWU7aOQwPd9PBrxcf0W7B8wPvWtOAzx3RVw7aSkovES7kTwe4AC9KCV2Ok16ID0fpxy8S3TnPKfOCL3/UY48aRlUPdsGlDwtmVk9FBc8PXxgBz15ovO8HFYDO4cFXrwtw668CtQpPQgHh7uWIku7QY8IvUwTv7w8+oG7FBkfPCxFGT2+8v889pQHvDHd7DsQ1bI7blPYvLxGD73ILRM9RlK1vIc0K73w1AS9yUO7O6pnTjuGnXG8tAfwO44DXbxXoVK9m/1ePDfLETzOeai8al8yPddpWbxIZBY881QbPChtfTzbDWM9EtYQPeQPCjyVYEY9011cve9vKrqVeGY8nRLKvBLJvjyi4to8RnYeOxcnV7w7zc+8K/FBvDZE1Dsh+l48VY4jvH8JDD2zKx69VRk6PFBMeLsvBIO7lTG/u7Ndlj1TbT29o4pJvPF6RLw0sY67vLjLPDWk6boiwke8npkJvWwJIDxoSjK8TLTxPHvV77kDUDC9niSruko4pD1b4zw8lyaevP5EbTpenxo8iI/PvEJ73jyrm4K839/QvJQGLL2jcaa8P5XfO7cHKjsZH9U8GXWSO2U+lTxSgrG93dGsuiTgrjuDf9C8hiwsvFXVebymyp48rCE7Pc4ZmD2wA+e8adOBPPynQT38fjC9IYaiO0Kt6TwgQ4Q8oD8YvEkNy7w+A5S8ZpZRuwMvqjxUt9w8laNNu9ZNHzynuqs8ToLdvChP5TqSXKi8cvgWPZ0oIDyFKKe8rCO1Owqs0DxF/Mq8OEA6vdatj7xotn87N50nvatxLTrmueY8L+CUu3o//LtHyQi8Y7OiPJyjpbvpX0K8ozZoPT4nbz1+wlK9koF0O7JdU7xDZue7B0OyvBlTFj0J1Ru9ss50PAVNdjw+6Bq9BFX/vAP8BryNLlG8LxcgvHVr17xvi6o8bOp8PKKu3LzhCzI8Gu/SvKzt7zzxbnQ9CyGXvKiFcjytdz694gwGvaHCnzrug8o722kUPXsYeb1gtxw7+dZuOZqa7LsJmCY9spM0PSE+sjwoYfi84b8cPJTyPDzHDRC92EZavD8ApDzNYBC9C2N5OREmiD0lxR+817OBPOdQjTyopAo9XcMHvBM0lryQ14A72ax9PPOYWbpeRbu7FXFqPM7QlbzPAo+8jyvkOwJ0iDy8edm7zfLbvDF5qTzHeAO9p765PMYbwDxC8i28Zk5+O4/5rTzKFr28HUWoPAjMbLwBmzu8U/XyO4uJET20VBU7BXnCvOxiHr3xixi9m2ytPI6dcrx1Wu48JzhkPZL40jy9Gxi9AnBuPPuCK7wUYVA85GQQOgiD1rptIh69Ij4ive5nEb22ML68kfkEPPM0sLxIJEG7zpOSPI5bAzyncQU9mKGMvEeVGL0cM307IK7yu/hyUj1kBM889ebZvOsr8zwAqcA8uog5vV8hDT085GC91NJzvOwuaTyqXEg8IZs/PTGbFr2teAU9tSoVvTF5QDwlX+y8JwCEPNHrz7zRRII8r8b9vH4Eozyg9/W8AFsYPNfqdD1dteq7cSMFvIP+2rzd35Q724hEvYCpBDybo1q7SPeHPLeNcT0T3IM9NofoPJQLjTxd3/c8hJQHOyhd8bvKgsc8aQRIPCV2q7ynzs48z+rFvIBs6rqxtoo713T0u/hCHzwxOia9DfcIvRmSgzue+ya9YmOwPLA8KryzHxU8zf0nPL/v7rxMiXe8hP/LO1tXWrxUzOW8myhfPUp1vLwMn2g8p8IEvehepLqUNxU94bDxvJGxVTy7pA88laxXPDm/gTzjKSc9nmj6vJvnyryMOHo7/sAyPI1uyrxj2qc8EUgbPfZ2ojzE1vw8Yf2KPDX1gTxOX8Y8HD00vA3vh7wM9XM7F+ecvHmJgbyLbtm8tZZdvLNvVrv2cak9f6B+PdfGnzuXylA9bXEsvSDKPL110wm9N4GXPVGG67xcYnS7JCUgvOzqm7qMXP28O/wHvTbkszu0qg89DRObvYL1zbv5C7M89nESvD0vRb2uDR88Y9nXPN1oAT1o8EQ9JplauKsXGL3nJjk9MmHBvOc2ULzpqlE9Bdm2u4cwCb1kJbw807i/u81JFLtkxu27VvEWPczyVD2TTMA88G3GPGxIEL3ainC8Yu5hPc++Lb3EO6Q85bEHu7phqzzQl2E7/46avOHCK73udSc8cuAdvWIIrbxkQxC9cLfyvLc8oDwOSyQ9nEhWPVIMr7xj8g+93qzbvEj/eb1dFfs8XUPfu7D5QjyGNqA8iOH/PITofzwDKEU8RH9DPR6YVD1p1ry8MCU3O8vfybwayCE8eMfovCHp6bxTL+G6x1HsPAu6+rwv4m88Qg7oOpSyjzs/njM9nfm8PAr+qrz/7Q29cCdYvVbhJzwQ+RM9hA/4PEN+8Dyoe/s6nUWQPPqeH73LFwo9wnXFvD/3RbqHy4e8SuSIvG5rfTwwUfu8rcHavM1BHbxEt3G8aRL2PLwTxjw7rWM8ZU8RPaTuMz0SW3q8Qi7mvCVg2LrVu6y8d2NlvOarlTygazU8hO7OvJ6+L7v2+Aq9e7DavHW39rwkMpG8S8S0PEaGRrzQtyw8LZXXuy47Gjr2hn+92ppRvKYYQT14XgQ77kwkvLGFDL3f45s7ajgIvU4NyjsMgIA9/6aPvJGu0LzHZhi8fM5dPLxZsr1UaSi8rANLOYWZ9jyVTQA9UdKlPMGmvDpzhDS8q/K2PPNVVDqrjFq8ic8WPAEknrs6lfW8BhqavMzyCL2s9dC8Ev5SvEWdtjxrF6q6JadkPVXj0TsaGf88Ntu0OncYHz2eezs9Q8GfvMeNDz16uyu9W0G2PFvbMbyB+Yw87bnMu4IYXbtNFny8U2UqPcwsCD3hEOI84/YgvUuhu7yAgeK8ehaRPHrxnrsWzBU8NSAuPcayy7vThSY9CIY7vCTsLb1GQxK8ODq6vPOmvztaxMg8G1Riu9f1rbxySJu8UwgDPDFI7jxcSSK8MOT8u9yv+rzNPIG8ry/tPLFMOL0H6Sa94amJO65CAT3Dssw7TnEuvc17KT1wJyQ9VIyvPAl7FL19mjm9S+KUPAqrtzuQWMu79jpuPc5wUjudx4y7ST8svOiMEr26EQ69tQDburBWaD1q3re80dZlO2pD1DyydQe9eYWlO8lDwryEZAS9LzAyPFXqcjzOpCk9XDbUvA5JXr0rffM8gwEROxgFmz0IKAI8jdCqOQlDGDzPJRa76cZBvShjvbv7d7m8mi2nOuu2LztCMeC8FqLqujbpL7360DM8zL6dPGNIizzapr88GcJ5PBwX2jvwoIs83zEVveMB97z9E0Y6aFcaPRvDmD1vlis8JxGAPPhXZjsa/MW4+eRKve0q6LrwaB29riftvLBQjzxzoQQ9vzNNvJRwybz75vK8WXMAvKauGjyXyQU9c84GPQJ4VL0kQfm80bYAvf/s2Dy8JLg8o0JLvIAaaDtbG1E87E7TvL7OCL2NUzq9Hmw0vNJMAb0kkMo8aw+IO++lerxtzRe9J4q7u8vywDtQs3E8LocPPMVgJjsTvwS9ht3Wu1d51zpAA4q8hHg0PEuDTT3rriy9EicNvXtsfDzrIKI8OjAJO6lCXDy/4JY8ogJtO7J7GT05ztU7a9fIvDMWIb1AaYy7iI/bO6H4Ar3NCp67OnsWvDD6ijxnItc8mjWlvGMV27pO0U69tQ1TPCh+xjyA8kG1zUl/u6XSM72BIOO68e6YPAk/Er07vW69sdhjuzUGsrz/qQW9Phgxva/B/jwQDF+80E4YPMMqWT2lAFU9EWEtvTOJlbwgdYk89aguvVR9XTzIc/w70kcbOxoRvTwg9cA8cqySPEH67bw5kIo8WjttvGqaDz16gAY9AP+vu4amurtbpv48Odc9Ox8rBrwT9L477HFYPem43DsyFnu8pzPmO+x9frz/U4I7uEGsvCpW/rx5OtG8B3JsvBYOWrxC5BK8OfXGPBvBFzuazac8X5jVPIKoijzUsCm93vUPvI1MHj0bsRq8acgOPe1poTzVsci80soNvavJj7vEVHi8Fv6IvFvrGj11+DM8YH6jusA0SDr41BK9pw3EvCOPh7qwVvw7Ehf1Ox8UNb3L6s47SgDpPATYMrv5ESs8A6zWO636DryM9hS93xWevMwx5zyDLUc9qnXkPCJWE73MZiA96s2xvPla7rxjjU69Lc0kPXyFPDw3xLA84axBPDpmFb1Fips8aJqYvNM17zy/uSg9z0ifvJcGvrx7aGe83P/quwLZ1LzTOF48EAsbu1JD7DyHx4q8awI9vM3KRTxhlwI9w6avu9482rxahOA8AKjGuR0b/zyEOmS8NLAGPZ9bULtfGu488bKPO7Yiw7wNN0w9RGIvvAWoq7supd48/atkvOvBELwcoZa9/0ECvMKoFT0pqwI9OfkXu6Ne4TwYutA84hzZvXzkk7h1o7M8+609PbaOaLzihg47nZKKPKuo9b3qLN08MVi+vKoas7yuU+477PMAPXSFjryAb9k8XygRPaliTzrhc6u8e2XMvEipAjoeXjc8ZmULPJpL370Vj5S85zQRPeB+gbuKeR680rBRvK18C72nk1U86DFlPXThLrxDVrw7e2N9vEDUFrz0+XO9ra8xPX/Q47w2rjI81M4WPbP+GDyeA4i7oxsPvDSsx7swaBs8GWfSvEOD/72si8A8ExMTPcZ4WLx3kN27gkkevFtR3jvuCaq81byFOwIWeryw78i8+AXmu1+hmrxYaVC962BLPL/lpj3Zrsi8iPv/OzPD1LzncfI7uDwqvMEzWDtBNnA9mk72PFrSzjygywY8B0p7vDaHCD3Ldsi89CYKPUOSE71yBJa8wolbvQA0A70QoQa9UeISPcqkjTw7qba8DewVvUJYC712xpu95fgJvEBPIT1atsw8u/A1vcQF7zxbZZ+8oUMdu34ABr2knHY8W+FiOwn8AD1Jm9A8ELkOvdMTKjvc3h89QQUhPRjSa70hFr25cGALPYZFzjww+Ro9J5LfPNkmED0UjZS8kDWVPE5DirsSbwk7nUJpPSLl1zyWcQ09EmydPIGnZL3bG/27msKyvL/ZxTzFwsW9Wur8O9MeOzwSyj+9CCu1PAw52rqCQZG8wOybu1hGLTxflfU8Dh0CPfNOkD01dz082psDPbAZDD1ied08Qv63O6ibIb0wP9K8yf75PKFYLj1E2Es8OAmjPNqFQ7wRJcI8Dl6MO0iA4brRnus8TI+rvF+W0Dvigmu9PI3XuxArN73gztK8hcwCvJTxDD3CFuk7LV/IvKSa3DzsJ+A60pAjPbABNjxaUWa7Dz37vHfxYjz6Kvu8jArdO4127TzoOnA8T2kVPS7VH7tHT9Y7NRoOPBxEELy2ujo9SAsevDrfwjvmf8U87K2ZvF4dkTzD6xe9357HPLAO4jzPr3+8xR24PN7dRbyjWiu9TUEKvTIstTtOmFu75XerPJM9V71cC4e82I1ju/iAOr3eqT096ab4u1K4yLzwAQK84McUvXZgorwEMCa7vJkXPc4x/7tcLMA8c7dxvMQT+zxHDQ89oMIVPanohDwCLga8++wtvSo9dLyn9qS7hcjvOy6tKr2HwJq8Vi4hPRqHqbydLgw9BcJMPAqZZTz1tNo7iOskPTfOHj19Bha9+6zAORc81jusOPI8Wy3APPpRhbyku5a7slC/utQ9qTyaNJ08hY8avX0P8DxNppa8tlCgO9iIEjzVGCi8BQpRPHyExjsj75e8N0/NPLSdSj1Bvx49u27mOyQhULwlH648gEYTvYJ907wK55Q8bFVZvEDskTzuHQM8g5Q4PJY/Ar32H6K8tt9aOZdVNTww3a88VqfyvIexory36FA8UFQPvdHlW7w+a3G890/BvLaECLy+V6i7hR7hvJepVL1VCae8FPlNO6v6dDx6XNw80YWyPBZgvjuM1xw9aZQVPbhmb7zKK3Y7ejKcuy8mBj0IYmo7P9W/O/yLJ7tT2Is8Xf/nvPoSlTxH9Q49jj0sPbxHzDxBdHE8US9hPN7o1L1ncuW83Xe0O0KjDr0SAUI8XcBUO5Z70LwqnC293xk4vMpdMT37AFk8S9MKvTvonjxXipA803QuvNoD4jvOE1G7eoiQO1NTD7xmGZW8+ow6PD4tF715PHY8C5DNu6dU5ztKqBq8kXnCvPW5Cr3f8Ca9GKsHPfd1hrxZoLI6Dp4FvKtHH7zhhSI76asmPbeJwbyo1Co7FgKdPat0kLzMxDS9m/P8vLZaQD11H5o8emdzvO9KNbyNjsc5+HYrvapMFLy3Aw47JHg0vRZ60bzcpoS8YVD1PMlLMjnyhR29O+8SPe6WNbxtkHy899JJvFmN8zx2Ra45AZX7vCFXCTzzAmk6hRWlu7+2FL2lEUq8nc4IPJkIR7mtoOQ8rbWquvTO5jyH5pa8V8Ayvf07EjyyVRK95RGkPfW9oLzycgm8hxkRvaLa6rzXED684z0BPCF2izuEs9w6zsUAvSh2Xjwyn0w9Ci8hvQsFUby8wRG9SZC7OS9beDzbcgk80EIYPKMOCLzqkD47pQU7vW2/Ir1v84s81HGwvLmrUDwZGT2990Upu3fp2jxCl1O9gp0MPXllqzqdijW9XRnqPF+sEL2kEEo8wY7ZPLHsiTz/X5W8r07kOwHcVbyxxE49KOPDPIiSC70PE+47ek2BPNHmVL1djds7gVNcvcK24zxND628jeiuu+imWr1cB6I8MA/dvJAHr7ybj3w8xPAFvVpAbbytkoY9YSHGPODtQ70gfBi9KS9DPCo+Pj1aLri8joA7vc2wg7x0vGG9Ee9OvZDFlDwNW5S8W/IVvanjQr2/HMU8w462vCDzhbuwQNe7jhGaPWxhLrqCbIc75HhLu80TZ73+bwU9unUZPYvELz3gBAE9JtJGO1lIejwsat481F4cPFpxfTwSnB28T3XWPLpR3buV8gI9IdPnvGcdkLtGyVe9c38APcW2hb1ucqC8d34XPI1cUrz5Aw29WV/XvJdMJDwkbGq8fqSgvH0IiLxZjQ698SmgPJx/i7wfgaU8O2RbPAcY1DzpQ+U78ueIuvFDwrzmHuq80l8LPRHg9LxlQi27rfENPd9PRz1TPo28Z5olvNsFAj3Le+k8J8xXvbPUm7uJ78M8jtITvET7zTy2QbC9dMO/PGt86bw5f7m8WaxBPanWQLwoFNW7r3M2PQOciD0XPDG95hR4uwxXlDoqnvs8lHuKPJAv+brrya282+D8Ov5q57wVQUo9OPkHvELimDt83kw9PcydPBB+eT2iSRO8TpkYPfudwjzQMYK87zv5u07ykrwmlxG8GdWNvN6RDj13hpc8WjyEPfcnPzxCwDw8GK6GvLdDmTztZEw92+sevcuuRr1191w9TpOCPKwijbzm1wC9KsHTvMBLpzzV/cQ5QQIxvaBjJz2Ffs67DDq3vNfAuTw9Wxc8FOudOxYuPT2aFi693ow3PTjHubzL7128KMwDuz9csTzd0Rg9wU/fvOsuDD0nfL+8GvtJvCH+cjw5WTC9MR7KvCmgjrtYAp89lNi2vEg5FL36yAa9winWPPM8Nr11fqa8PxqmPUiuOD0KVGS8NZ21vP6Ho7w1+Rs89iUzvRK1lD2EOhA9EtVWupg6Y7s1n/O7xdONPPYGHr2RrJy8HmBgvLTtSrxWtiM8kDANPVt0tLu6Yqe8sN8VPbY5vz3Ky4c9pbfpO+bzYryC8QM7AnJDvQ3UD7xm2om9IIyXvP7OAb2/MBM8w6tDOvJxZbwkoKu6q9zevHS2Vj3083q9V+4jvYHjBjxxgyO9tP2Xuj4nxDshT1G9vuGPOzXE7D0H0dm71kMIPVY7ND1dFAy8srxUPSwggj2wOac8uI5fuj8dxjsRgVO9nTbYvEJW/7u0pIk8lZAYPTEKeb0Szme8ZSMiO+VJI7t88wi91H6gPK90JDysrHO9lb8zvZ7bW70g4qa9uusPPbKsHr0zt0+89NVdva6r77vIpwQ8U3D2OpidED1Hu7o8v+ogvZ15Az0ZCiO9smiMPXPQvrxE4MQ9Q2l9PTazGLznvnu9lDIdPVW5Rb3hOb47+XftPGBMUj1A7cY7As3FO7vcjLt/Woc81FjBvE9px7y0Ci67AeqFPEPXJT2t0+g6yvujusMnSL0T7US9hc6APH0vgb3/hSu9m63XvDG4cb1x9iM9jjj2O7+MCT066M08Ekspvfghgj3nYXE7b370u8guFT2ksCs9vr6gO96gtTzP+BM8bJRsPJKLJT1aZLY7ODhlvYToqbycehQ7kM4lvFEy+jzh2m88NZcDvHuL/jwBDlS7aL+WvOIN1bxIT8g8h3KzvCa0OL1GQb68bG/jOz1z+7zeUJo7WVbaPIjWsjywa8M85jrBPCYf1Twquxi7miz5PAt8Cb3oNZ86KgsFPDkMo7ypjCG9lSf3u5RGNDzCMzY9a7TRvHHY7DvYwXa8QfvoPPz+j7y3OmO7We+8PbkgYjyupP68VPZAvDqAOr1p+fW8XQjHO60Ppz0+m8C81n0BPaaYtrw2Qsg8FwRAPYXo9LvlLz29fplRPN4YiDzfHoc8E/8EvRPzBDs90y29IIuJugFk0z0ykOw80dcKPSMJQjwMf528/yK2vPokCT2ueT69NlhAvbC4C7ypN6q85KyMuwpQQr3YDYc9cKclvBlwQT2sY4i8penzvB70ibxQ6UC8ICVivZezsLxmCMs8JPynu6Sepz24uOS8+MFfvfm7jbwq4bw8jC/8vL4X27xKuTu98xUVPRi3xTxplwY9R9+avIpPyryPK4M8EsWsvAnnADzIuoI9uR8juww/Fb1AGb87hB6cvNthMr0Ey348rX9DPUoG5zxGbAI9O1loPOOb2Lx70sg88xx0Pf14XLzOF7S8OnIAPSFdjTyqVXG7yK2UO2s22juvXjo8dyp9vRxXg71dUEc8ZdNRvfFcMj0MH4g8RERAPOlzML2IroI8wWr0vPFy1ry6RY89Xh0QvbpmYT1QwJg9/a3xPJKviry1aC+6OEHqvPZDOz37vlK9T5DCvNBKMb2uyyC8D9KmPDY4VT1ipTY9KYF+PXSmoTwSo7c8wwMDvTFqdj1Wo4a7FBXCPEMbgbsGxzS8nZWBvaucnDywH0G9JLb7O58ypTv/SY468Tjmuu/9yTyE4v26llSAvSyjNbsgkbw9XfSzu2h64TyZ0jW8bHlQuu8tWj3TorM8bC+9vF4g8jzjHC+97OZRPb1bCD1BtG08FmphvF0kUD2Hx5I8PsSlPJAhC7qvqx492Y4RPLO6hj3/2Ls8KNVrPOQswrtYo+06aSlBvVo7FTunzc+8DjBBvUsr1byUNbM8UJOqvHT5EDzDWas71My9vJxlZr0KMw+9Has5va+dDj2Veqg7LjdnPBOVDz0/je88haUevdjA8Tvrh+o5R0uWvB9SAL1vlIS8aWIVPKW0a71WVJ44dzecPBZhIT1ifxC8CV/hPEHfmryGDYk9XW9dvKUZQDtMp5q865MDvUz7LLzW3e+80lZ4vd+Kbb0NF9060Dd3OyqDJL1B25K8FWITvJpXx7zQuRA8kCyoPbANYDyz/tO6JqubvFvRvjsY7e65+EeAvXmtir2IYQe9mLZLPTIilDwE9AS9EhIJPSCrNr1L94E7xsJPPZYAVD0jRME6YFfnPIBBJb3IvBU9DDV7vOQl+TxEMI07bGkUPNDI3jyoZd68nQeNu+/GJz3fBcU8XhWkPAcT/bu9OrA8K4n/PBDMKbxP2KK8Wq78PLfMFTvPmB49EGBMPJOBQz2A57+81SYBPQV9lLwuoTI8/4rnPOrdJbwxUU+8LZkVvrbPubyNB307vlT5ukkNMb3XEim6PBO2vGwtBj10FHo8IpbkPENCHz1nNgm9vJIaPTcB7TzHVxe9aDn0O6pCt7x7l6I88MTfvLXjerx3Pwi9mnE5vPgiFz0x3he9veAtPFLvTz3DH0q9g/M9vV8YOzvMI5C9pzjpO9ebijuSjzO9W32kO6SXCz3w3L+88FAiPMTZDT1rej68URCVvM1tvjsLJAo9pZDKvL8nEj10++q8M1syvbSRQLyjNKw86n2cPUBbojzEEJe9AW8bPV7skLsmF5w7JAl9O6mruzx8ViQ7kn/+vN0zjTxBy3o82Qm5u8gEObsFIoe9/eV2Pa4v47s5QvU82/AGO1ugjzz5UxA9Dr82vRLzlr0BV4C7EVBLPOwNH7tWcqO7EhNCvXS4HT1puGw8IJHQPCbTV7wxQji9H0YCPc7nZD3qyMO84yoqPdkBSTyxrQ49r1uOOjiRY73BKDm9oOJQvc/fijyhw3g8pSg3PMi9Mj1ria69SqkhPOFgkLzDMGK97irlvI2OPj0gTBc9nHs5vWDXpTuuOK88FQL3PEWQgrx/3cM8+jg8Paq1Jr0A7269xXwJvUs6BbzYhMg89t49PNgv4btvw2K8qkcSvel3dDxdDDw9xxu1POVoILvNPUU9FNIrvbYxwzuPh3e8Qrj5vDTkZrw10oq7GgQGvHhTujwJrpy7BKBSPKmEnztd6Y07fPebu6N5Oz065AU9HmCgvE2DrjzFkOS6u0JLvB1c0zyjXFm8H4XTOpPkNj2dLH06uiukvHDNPz2+9Pk7PLmzvMUqfbtAANm8ETGsPBN2FD3mGJo87ajguQoOtLw5Cz89Axf9PMh5jLwb26g7qcz+u58Etrz9qAi9M0tBvFbvuTwFD4Q8UBPDvTNUIz0rUwo8mDgWPZfzYLzMAAi9tDp4vCesV7ybOFA78WAgPVsCqLwBQkw836LpvEY73Lt4im68Lx4YuzvR/jwYhb+88QpWOmASPbqIGL48sqT5PL+kN72udQi9pxO0PAp3cDx86cG8YkIMvfeaCT3y2CW95FMXPCMxHj3IjCI7OF0cO33nlbyUMXa97CXcvExsBr0BaAC9rKI5PD3ITDvRC4G87cPSPA5Z8LzXa0u99tYDPcEigL39Oxm933kEPShiGbzRzRA9rq+DvEPapbybqRG9RHC+PGR7xzyGQ+28H/g0Pb6qUzq2LTa7bwq6uysqBD2j09687zofvZWwxLvrVnK8dccKPWC/vLuMnnA8xdZaPQtMALxQB8M7yD74OyTb8zxTlQ890sn2PMOV0rsWesq8mCnAPFHFzbxkftc8ucEQOzVW5bzTsAk9VOvEvazCZ70otAM9KlQ9PfrFljwbJ+a6VATavN1vkb111QS9DTwPPNXxbDzWRbk8gJkGvdXSpjysm9o85E9XOYhLk7zLRCO7uyycu3brszx0fgW8bSPQuxM6Ar0XYjC9DCMYPSmhAD1sQ5o7+kPCvLxzjDyEn6K9AqRePbKWZzuMf4Q8rlCCPB3oGz2I3aK8KAERvXNJVTygyj69HrBgPHJD7jxfaeY8qs0GvK2BAz0tPCW99aIRPTnM070WmeQ89jImPZBOb7xvRLa8Re8fPQK4Dz29riU94tT4vEuz1TyiSeS8KQkhvCUorDy7sx68YdQIPabrQT2YdH+9Pv0SPYM/Gj27Y9w7bDD8O79EfTxIo0W7QOPQO6afZr0chS88xd/tvINBRbyvT/M8GLClu2l6ILzq+IU8nIJdPLQrHD1/06Q7C4XPvB3LR7yqHww62lSxPFUi6jvxX5W6g6GxPG0vCL0UhJC9yuaqu5OPJD09Nws9dKQAPWFlTD3XA2u9gaW8unycnLzKu+68k5rEvEF/oDzwgZK8FxYevZ5jgTwsFm48Z9wCPUiVAT27UyM8DnZCPI+U2Dv9OMC8PWcHPFBzNDx/ssQ8dCHsOmPFsTwLjia9IawUu1Z3n7w8W4i72cBLPEzh5zy3FS89tHosO3zty7vWNfg8T/TlPPMOLrl1O2O8YjCLvHC3aTyXUjC9iQ8/vW3iZzwW1x29FFKTPJUWDrteDmg8I+ZYOz3SCzw5F4G8X+csvWnksTy9sDe8x/AlOnFYE7xFi+08oXnPPKPQFr1A/8O8qAThu6RABb2QOHY8zuI3vQixqbz8Sg+6Hmw5vTimAL2ra5i6c9hkvI+9YDuHtWi8KJrLPLxxGL0LmRS7OjvQvM6t0Dc7ll+85HaDPT709LwSPgO9G5qAvJQSl7zQO5o7Le9RvFwN+DoPQ4A8kMm+O/YoHDs7aSU9F1uYPJTInjyrP5a85q6bvE3ESbyM3Ou8U1uNvJBUmLlCJCS9RtXIPA4MAbwxJCk89cLJvOi9GLxWQAE8GNwTPVbn/ryuFK66BoBwvCgVrjwFVB68CBTFu0YhjDzywJw8xL/OOyztn7wJEIs7xYG5PbyZDbxQTxa9JTqAPFUb9LxQKi47hLaNuhxQRz20owM9KGYVPT3DOzx6XLQ7shRsPKnG1zvXmvc84gGbPGwv0Txo35E6JYmqvNtZV7zYYsQ8Mutnu1boVDyxuw69o/a8POGtb7we6xY9gys8PT7IEb0AK7Q8qjv2POGcBDw1Dks9JptnvIMeKjxLdA0650oFvTWafLxouWq8/b2iPKhXBzyJq588xekxPWRN7Dycfe87qOy6vYkTgTyATQw9cSaTPGJq2zxqBpa8z4DCvJZDPrunBVy8RmKDPJAyFD3byMy8+SSZPCVMajyJR8i8oQ9TO83V8Lz4RJ87bIn4O3yfBj3gB+A8Mp6cO6Nq/Lygz8c7rLvWPEz8Jz3wkIC8BjIRvP3yAT1v4nA8c6wjPXDapTuTUj69DuCHPLK3BjxwKfS8CAsHPT0CYLuQSw49RRTbvIbh+ryv7AE93u7uvG8MBj3obO28s7WcvDcqKL3LPM27TiMZvEwk6LxgaP08i07VvFqtEDyamkQ8wU3jPJwE+bupFFU932EfvTjtZ7x3gz697C05vK4aBj00w8g7wIQ8PCs2Xr1LlP88MSIlPNHkW72GKo09lmUXu6MJ3rzCVj09wegxvA3eiDxyWA29jNXaPIpKizt8HvY81yJ2vfsCxjur3yW9X3dzPYn5ybxbNua8rtcSPRL6pTwGkIi9kPhLu+EHjLxBRFU9gGfXvCPymD0c2Ae9ZsSvO8oelLuN7EK80cKfPAKsg7sKYsW8NVQcu3auJTv9bmk9tLi/POMdqLvJtmW9efa2PF/rejztDgI9xAJJPJG/7TxiZ5q8qPgwPXFGoTzyXhk9gw7gvNvAJr3QYSk8J1J5PLHNmL3ZJm68eH4sPCrfYLthqIm8FxmKOvCi7bzwBOi8A3J3PKp3HbyPRTK8Eb1NPSkVAj0oFJW7IG4aPS3jtDokp6O6BxzovDmM1Dwtllu8o095vDgkKDx/Ooo8KTmiPGiUnLzYx+G83JrevIkLPDq9Lu48lYCxPMRcz7x2QRY7x5gAvL9WIL2jDww92Fu8vK6LnzxG+nU7glg8vVSp5TyeUhY8MeXVvKhU/bze8Je8UK9qO9K+orzdz+M7PYp9vIcDwzyQdN67Zqw/PUjrSTyDVE08W8UYveBzJL0RzCq8c37cvKsEPz2Fu+w7H2XHvE6fgLy5sjg8U8ODPPHQgzt3bwm9H39XvADjLj1oKTA8Yj1+vKhezbyJIl+8/+25vA4FLTyULOM7KpGaO7BJp7waoOE4oqaKvDAATzuJpwo9GIITvEGRFzxfJ2u8ZX6QvPMTXr0KrGQ7G3VLO9SKED1knUs9BD4UPFxr8jvz6L45+Dq5PM6qe7sx6bc83mEPPSjo0jwQFEk8pwXJvFTwsDw/acg8c5fUOuqBOjp+wOC8rCuyu2ugabta59M8Ef6vPNzgQb2WMh88yf+wPOTPAT21WJs7yzDgvK7mzDu90Lm8I7e8vINZ/LxqxiY894pBvdQT+DyBkS48/MfdPLSdyLh6HzU8AFp0vFDWQDx3zVw92kq0vMc10DzpT3C8xLRnOhX2yrxB8uM8rTXaPZ+zpTt7+/K8NjYsvaSktTwC3ci8rbFsPGgirTy1tRC9sVFqvPUPLr3BDdi7JJmLvPR0nTwhEHY7cRcXO4KvuTzAzo084NjnPINjgDxxDji8okOvPOpRqzxEODY9HJLcuvAviTt31ik9DYdpvDIm7Ly7l4o9uiCtvGOyfjxpIR+7BXbTu5lL9byBrME8rxjHPOP7rTyiyAe8pEbIPMIYYbzwME29GUjGu++jFr0wk3u8Dq9XPJtmlT1bcsw8jYZCvQAK2zyaiti8RlQTvc+plzwj3KU8Bwczur+yFDye80a7Vwv3uqdXcjznWkA7yAICvUCCv7wMbEQ986h7vBGuhDzChdg7W7TnO1IWyrslWQe9W9DzvMOOtDmETDq9k2GHvOUMtTnV6jW9F5P/vJ2ArzsdtPM8wu59vEhPEL1hkx09smkCveEXE72pvbI8w2WPPdFUo7wfKIU819vMvGx4Iz1D6qy7h8hLvIoOtTwdjl87enUSOxEsQTxp6RE9bWEEvQNfjbyBIw49oMJWPTUDuDyWdke8OzTbPPiVmzxShx29sQJrPAf2kjyilRa8yGkCve93h7tfu7E8zrzOvKiBibuNo0k9PyUGvce6tDyxxM085xEUvIqryjzCwVE7IaUrvOx7ML2zyfK8sPnOPS5kc7tL1CO99lIGPeSsHb2TpAE96RpNO/KjmLxhGHM8tfgYvYvtdbxot+E8RoFfvfVvYbx2xI+8rtqSvL24hTzNp9C8VMK0vIeupryEzsG79o8evHzIKr3mlyg9m0pKPD9bgjuaeLA88W2Xve6slTzPb+c8EBW0PPiqJj0KPeu8yh0NPYn/Dr3d1ua8qWbaOyq6ETwQ7cO8Tp8gPbRQ1zxdgKU86Q7ZvMP1RruvaCY7C6LrvOgf7ryoPQI8D8/3vGkHFj14/lm8Y4aRvL1A1rwYJMC8sPBLvcTykb1m4s48iNLWvCg9lLx0VbY89q5tPH5157u831q9VjPLPGvHLz2iQ+W8M30NvUWxurzoq5076RdIO2mG6Dzi3hI8AIT9Ox7kCbzEVAI9OMMeO5aol7xgdr46tbs4Pc32Hj1uGRK9p+Z+vGmM8LzHgRq9xcRRPObYjLx3/ms8yvmzvPuoyjtTOCQ9SDsQvWqWIjtvCoo8wCTPPJy0EryaIBM8X05sPEWgnryMucy3F4FOvGFuZDs11ge9pfBSvLqMCT2h/AQ90Tlpuy5SIb282jE85IqCvcTOg7zcJ6u7jLU9PA08Yj20EFW9FSdKPUT9u7euedW8EytiOggl87wLryY9zGIOu1Gabjv1ETS9l2RbPYL5Nj3bTZi8d8OevFiY2jziBwk9SP4uva4FIrw0pQo8dDN/vDmPiTy1bsE8GlV+u7MBg70/1Y88yuqNvGra07u1Uio8IkdIPABXJj2jZYa8fyPpPK4OLr2wAsq8t7FkvENuPz3pJ7Y8s54tvRssqLyJxwQ8KMpIuxEqoTwAFCM6OsJJvdVt8LwDKiC9fVQqPbMNQz2l+IM83I7Cu7yF1zxvk0K9o28gvFMExbpnujy91cqfPOsVpDwqBRg8PYj4PIJXgjzDVZO7Y/0cvUg0tr0IEAQ7N3QvPWxmWLzGxaQ7LSD8u9MCQD1aR1M8JHTmvIxizTsFSNo7Pc8XvXM9nDwTryq9JN4hPfkKprz/vLs8n14JPel0Ezz2wLo8fG0LPP2vhbzctx09zmTFvAmUYb2MSjK8kJ2/vPgJTT1I5RI88hYjveoQh7yWOC89up1sOnpx+jpbEio8sDeCvNnnHTzJNVU7jrN+PKgCPD2DP8A69vfRvPyjKb3klss8edc1vYL3/zx0G/e7BbyQPFncCz2aquk7BS1TPRds3rw4Xse8dlnQPKI5BT26GmC8JtoWvUlDGb3DvUW90jPdO7tokjyD4Ns85XYOPYqREr0AG+M7pciLOsTZLT2IdEg97/75vEi3Tr3Ku/M5N8UUvSgYX70bmVM9iW52u5hbdDpl0rE82MagPPb+QTkdae+7DS2DvIc4VLsvc5c8OKm6PGtf8DxsKT+9Z4ECPcgA5ru50ha9WNETO0R2hjwMEMi8hswlPK3lAr3sYgM8UpQIvRAk0zyKnBO9fL7QvInThz2otiU9c9UTPF0kz7xF8wI9J2VXPCOspruPpmC8p6uUu6Dw3btiaXM8HN8QvbxfDb1AvFs8yWgYvemF1TwkFU47oFgevX9c+7vJ0Ja78ir2u5w4DL0Olde8yZRaPT7VND2Nivu8HBZbvcr5cLy8g4G7K6QmPCDGHj2DjQW95BRwPIi4irxyPYu6CLr8OyER0DyU9ng8MI48PXajwTznpbo8hq3WvLfejTyJZyg8tiojPBuj77ww0yY8BkgfPR5TIr3wcik9Gr96PMfZLDsgqvY7cPhavI/HvzxUa2W9jhTGvCr1gbwqoek7c7gHvFGBjjzBbXG9QPgoPRMU+LwJKAQ86tO4vK93u7shiZ07ZTmBPGE8Fbua5iE9VPCAvF61Jb1ueo48+FWIvFqt3bxQw6C8vhkCPJWZcjrooq48ib7ovEvw/7ytbII8I134PAOaXDxNqci8zIquvHUwpbx4zC09U5UYvUqf37yRTDs7pu5KvHS85Lx9sxU9mJXvOzE4WzxZ9Em8OEyTPMYddjvznXq7OipAvKPCdTwxRWO8dst0PJrcGb3nbeU8rGZQvFNagbzkSUk8NzgPvQo/0DyQksI7zdX/vPVWhDxZyI28ScwPvOEEubzAz4681ZeKPENgqzu9v8w72JwVPZ+8Ezr7OOM8Ct72u9mQtTx356I8xc7fPMIRBryef7I83EgOvLsmt7x77YM9VX4FvCo1MT3PwyC8NnR/PHVc57zQSys6Lnkfvbhmwbw122A7rItJvWPRzboP6Oy7AVDDO3cS4LyKKBY8VuCpOojkqDzSYsM8FPgAPUnThDzA8ck8v8ovvCdOP73g/xA7I6gFPErZ2LuIuJQ8VEDYPLU+o7yuw/o5/cwSPSMQWTwg46S8xwK4vHCUGbq1CNc8SFlsvBCGJjzWpMo8dH3HvBUIw7sE1W48slJNvG2iQT0vVxA7ZIUvPKiZAb1MgVE9Koh6vDWtnTpoXHu9F2M0PaQ7v7sVaoY806lpvHQ4Vrw/nZE8PDXGvZq/tLzZOl08I7wBPQyu/jxv6Li8baXIPMFo4L1YlxC8L8TyvBYyEj1K7ZK82FOmvPCgAD0E+/Y8qNPZvEOY3zw6j8I8pwE0vHxZoruo4FM7bYL3vKqD4b04i7C7qjqBvJ067TtPDu08nrzVvKe/xDxx4my93VQKPYjDrjyqAIC5bWYxPLeizLr95Tm9BfOzPEA0HDzpAqy9YvsTvN0kxDy/FCE9U/ycPDDWBL2XMRK9DCYIvOz4s707LWe8WQHcPH3YnL2f3qO8ueH0ORBK17ypp9U7ElLXu8OxrbxaQk09qrzSPLEbJTuBZJW8TBscPJHNHz0fFF686WT6PM5OKbxUBQ89JDs1vNIhk7t9Xdg8w4SGPL5foDtYLJY9CcKTvQ6qpTx3gwY7bnJuO89thDxDcI+6NedvvL19nLwBFSS98FYyPYKMF730eIy7WanIvKCcvzyjG1y8TqwDvc4c7Dwt7E49kUwGvbENND1GGM07eyMKvJYhYjtHeww9+IRtPIqaqzzzXlA8V6l/Ox307zwsEW49h5Z2vAG1OLz2MRK94N8EvFX7jzyqtIg9hsQJvDHupDuJNdw8BYe3PNw0GD0OhRW8k9scPanQDr3EnAK6fVzZO/EdmL1DEZ48l1JsPBI1d7xjrO68OZWjvHUXubzPBr88snw3vWFkFzxyD7O63exlPXXeVD1q+cI8XjxRPNOsRDxrCak8TVP2PPLNRT2TeYw8DU/8vJ7R4LrSZI28WxHAvN32aTuhO7s7AjeAvHfT07yMIhy9iBkWvFZQOjy6nHk8VHixu5BmWrxzeB28WueYPF2hu7urJ+S8qzgfvCM02Tz8u8W8NZ7tPI4c6jz21n+84JsOvPeFMztt4YY8Sz/VvET0tjzvV748K0k8vQBFNbcX/Sg9PuiGuyIxD72wWvC8GvXZvMxvBLxxSBE9esLku0yjvLtRxxC9cwVevAMwazyVLuQ86VE0vM0MSjsQSC29ape1vALh+jxc8ww92BDCu8KA9jxlJhG9vuRWOwdGDb1Cc+K8M1FdvMJWEL3xpWW8cj0YvUHrmrzUYZI7JO4IPJK7qDyXly69G3o5PExFdzzthow9Fdm1PEDNwrkySsc8CWn/vFd5LT3pmiO8svMYvRqHGr2JjFW9HuoMPfXO0TyUErQ7Kkt5uxXxxjtYDPo8735GPHUoIL2T8Lq8+WVYPT1zubx6bbc8saANvWaKNbx2LSK8jIFGPIY+WDneCRe9xvvSPOS7Qz0GsJ88QxEzPUVNIbx1yFu7d9vhPLBayLwKukU9CJ8GPG4XKTx3GE29K4ZavKE/tTwMZU684MA/vZc1TrxIehQ8s89rvXht+rwc+g48vZ9APSFPCDyMHQ88H97jPNTTnr0MlUk86/i6OlWwPzzyE/S8YCP5Os+937w8jh081RUwPH7L7LztrQ28RDH+vHqlHLzHh6Y6eRIYO6oMS73uAoa8CRmuvHndq7yKL/Q8OAy2vPER3bzg/0G9kwmlu5bHAT3/psi8mozSPPXvGDu1PZe8pnUKu5WDxTy44527zaqfvLTpFD3dmCI9M+vOPLdQC7sWFee8SlfhvHoGgL2Tw508xvAwvUb6Gj1qGRo9tHE+vXkmA71EO1m8uMP6PHFstbxkckY8wPXzvK30erybZou6BVAPvZYonTzosWg7IIuZPMMmdLqQ03W8YhwCvS8nEL1Ez1+5ekgrPPXVjjxr2fS8O/mbPK+kCr3q1/u88oTEO9e9wLzvc9I8mPNyPKV1/jufQ5m8mNKPvJpBMr1VaJS8/U/1PL91JL2LDQq9p++dvG2bMz33Wyw9kAY4vEn4C72tRIG83gvxOcoZUL22irk8/z1bO6UKdbyLstc81gpcPa603bxmQ8c8sLM8OvBDOzs1C0W9Pv5hPNtqCD2NocE6usgHu+euhjxiJII7wvIQPbYdtLybwDM9B1uPvE4+mbwey2s9LZOvO3Wt2bs7Byc8BfCBu7BAgjxYZHI8Ii20PcnL2Dwe1Te8h4qmPF0yj7xuwxA9vyFhux09/LsI64c8e1z9vNE90Lst6zY94lIAu/+x8Lz8nQa9vhRyvNjeoLxnsau8N5YmPYmlGbzMIWk9NuIhvd/7fr2GylU9xDRcvScOQr2sFYS7B4TFuw26ezwZTeG8BePAvKbWHD2KhW48uRNAO8lqWbzs3QM8zVgRPQCVIL3NlLK7jxBDuh9o+jrtAEk8L+1Rve8miDyuGI28guddOwEA/LydUP08Ld9evQ+PeT3+Nyw81sELPcTkSr3GrEC9kPgSvd1Jgbz5BDQ9WmRovd0D0DqngYS7aCWOPW4ZV7x1Lfa7MridvPeVpTzem0C8FJoIvTKJEz07iLy89SdtvG82ejtSxUQ8UZULvbY/zrvM1hM9Z6AzPN+1+TwLTZE9TYcuPUc7Ez26ifc8uaa3vLLmzbzI0AO9SNbkPIHcybpsb4u8XdhevCjc9by0Kr27nfgLvZshjLwrYQe8JvYgPY4zer145Y+82XGrvOiC8TyFugu9htCWvJtzzb2bpP28UzVBu6ylUrwVo3k8ctNHPHc0Dz0GN+y8nIe+vDo28ryy2Ic7NWffu00k7bsvY488QNE1PUV7dLtrx2M9k05UvYc8Br00tYC8mt6cvKzzOTz52JK9jBazPASfh7wDhFa9vfAAPZWGKbxinaE7VO4svXPINL3c1bO8SoGnvIoPyrz+MD69lmtxO3Lpl7tiJaY5dv3nuwF3PT005SC9aioMPV5+kDx95hq9SN/VvONpFb1IzQ49XDHXvDmhFDyqlDc8CbYvPeyfjbthPwM9pNqCPcRcWj1+Eqm6NlmSPXXZdD0UEBS9gJ5cPDWgmjzps3m9QPOHugiwLL1paN08AlFWvbUlA7yvgBq9xZJVPDf7A71CpJm8+NQGvL+dJzvnbKo8sHEqvVTwTb3sYlk9rjYCPdBvoLzYJik8eMfiPNInSrtXu5i8G6ajvEkmprtzsw89+J5xvDccTD0qRcc6CpnCu0Xtf7tVy928sRMMPBXTcTz6ghQ8wq4rvHrOoLmCfps85x1tvUkk/rw5Gxg9GLiHvHpXhjy/ubG8Q42OPJtceTtJylo9v2xCvZJzRjxZiw48g/gwPcDuhTzwpRq9os+dPc4hrDy2cJE8vX0uvCVbI730ccA8ZhzXvG8LoD3xo/882x0rO+3nmTy/rjM8m2kDvM7UgDznwui7zE+LPMnUwjy3sr28nkfFOxL5zrydiB87D2qzu835uTw9hvE8xa/0vP8Kmbz3BP68sq+QvO16x7wB3AM9T/r7vAAmtLxoy2U8HtlCvek5u7wSOQ09gRWcvH/8XT3of6I9gaxQvTWbyLwwo8+88JZsPNQ2mDxMmQg99DCHuxTGbD0Mzlu9qfJXPeMIBT2hOsg7zqc5Pc4zbbu4luI8JI7lPDaYKT2RYVy9cIufPOTByjwVDks9C+5JPNeAdb3NLos8FkqYvFurRT0VE+C75eaQvGWe8Dvn18i8AsO4uU/sFr3OASW9svuSPPTf8Lx2WzU9WXyHvIxY8DzNQYG8PfQcPcaprDyhRn68eCeAveWB9TyxURq95l3gPOSshjwng309FzxjPSkvWzywHj+94JscPbk7hb0611E9UaA0PYiTsDzJZOE7WBk4PRNdo7vaB8S8I0fGOyFtiLx1QZK8sOC3POGnxLp69iM9VfpUPLVsFD1h3di7fY7GvF4RzLwzMvq8pMuBvXQpw7xeOUu8fn3Zu1j5SjtwOZs8wIN4PE+3Ej1KBYk8CeSGupUnfDzHaQ494gSSvKvJuzxXAz47gaDRPNxeNrujk3e90XVGvXLoebynNOs7EejcPBgsAzv5Wjy8LigpPJkN6jwkA3e7Twj+O8E/E7yV3188zoEWvcfM3Lw2D7K8Pjw2PVX867zhJyw8pX6IPJ3o/zzpay+9nZgyPYyI8bwBGaY8z8JXvJt5Kb3qnSi9EZJAvRin1jynND86QPXKvBnjRD0EqE49FzcsPEJCJDyJxFC9iDE+PaXUljxXfie8WTikPSTQOD2E5hU9YyGcvB0UkbzIaxq96QS2vA2gJD3oxQC8HbNJuwbTsTyuhyy9HeHHPDAna7x9hDu95IgaPYhUATxS+748+DeAvBVu2bzoY1C8k3Z1vNOGLz3S6249ee2gOwDl4Lz8eck8ITFluURART0WdjM9loO+ux4JuzsPXbO8GywpPEwWnrxN0289GPgKvXSwjT1jzbQ9U7C4PDkAXDwmosS8wW0bvfZX67zMM9q8EdMEvXg08T0bOby8xcZtvajOQ7wz9+A8BBhYvC6ACb0euTS9vJuOPGjo/7wa+6K8idz7u/qyerssFQK8HayrvL1yjTzFP5A9v2uRvBTBOL16+mC8Ts81vb/orby6cWY8czV3PcfIGj17zZs6FU6ku7bNsrwXohY7wVvUPAxUAzsm9Sq81uuDvA2sqTtm45E7o5wTvNQLZ7z7iXe8YVGRvMelhr3pQSO9lXWMvaRriDzofho8fx/1OiH7HDxDQsO8VzwGunowXrp32Vc93UULvFbbvLvDDpA9SJV9vKE2VDwbAU48w11kPMEk8jpN2UE65LjAPIrgAr1mbWU86iD0u7VxCz2/nGs8k+ACu9uLAT1weh089CK8ucj3ZDxVnBI90Y6+PAHPerwmag29exUmvSBsxTyXwrw7K0+dPLctlbsxecQ8zJetPKuUoLvba4g7ez8jvGhg0rwh3qw93R0aPAiPi7x6zRQ8DgQAPRNYhTwnlqi7gbyHvI0MED3YB1I9vwCJPcIDMj3bbqI7UgkfvDC6Iz09IgI9UuyBOv1AGT0pulI9w38yvKtXAz1dcv+7ZcaougOEHLxaBTU8GE7PvOjwDL2rffe7lbSSvB5CqjqGvek8EJM9vWxj9DvpeNc8T4rjvNgtfrxaljw84O/ju20JKz3nC528NlvivPZobrz7+ac8HvUIvfX33bxWDQK9hurUvMmIvLxbUDE9f4jWum8Akr1Ucpk8AVDUPE4gJ7xTp/y8tj6zPC0/tbw6uGc9ZLgjvHbwqr10Q6G8I8gYvRsRSjz2TFS9eWhHvTHzdL1GAme9+J3Pu8tLqL1Dgk+9QsUivAvAEL0tInE8NuVOPaghL7tymyM91lIWvdjALjyp+QI9gtlnPPzChb0aSos8UrFyPTEOlbwLhne9CsHNvLUdkjwXISs9Qk/BvE7cGr3Eq9a86ENYPaCeiryzARW9M243PRMfij0WJO08sGwGvRmMAj1E0V08ohsNvQZBM71O5ow8bv3DvOV8Ij36u4m8H3CCPCLlaD2BhiA9yDgHPZ0ZRTuG/yU9KgEpPYYGOTwRP3i85qrhOqnHPTr3USM9+ZmGPIYUTrwTgII9c+W8PJ+n7Lzqjm285hnPvNoIezwD+9U83ERJPK3Ss7wbuYS8+vP0vP3KOb1xnx88jVXuvEjfrzyj/IQ4Bl7utzE+Pb0L3To9R3cUPcdUPj3JsQw8hgaiPEUlnjwSBSY9wD3QvLYw6TqkzK672vKiPKtDHr1k+zq8cZ0MvKdPED0FMi08X0/wOywssTtoGT889L4nu5TBkzonoRq97eY4vdRdbjz9edw8PkzpNzsDgbyTy7u8X1S1vCm4hTzo2r46gW1iPWRGsrsoIX+8E2mNPEDbJTwrxOA8gOLZvLMNgj2NGyM9j8IGvf8tqj1DCfE850sOPUusizwnkFi9ljGfvJ4/i7wUG0Y82NIsPQp0yjw+3Um9UpANvXb8o70EwnK98zvHvKnl1j0wF1c9LbotPHJUHT0f9tM8fSBzPMlYpTyZLJW70+S6PNP+vrtGae87C8X+uwqj+LwZ0489+plQPYVBQb21IYE9Hy7TPGM90zuQcoE99a80PWq5ND3+J5y9QrH4PLKlCD0n3T+9jdmfvNe34DxL1TO8kW0SvSBWFrwnERM9cIAlPYR2Ij2KHF08KG1cPe4TI7xTofW8R7sTvRuVDzt2xxK9JjCguvkM2Tx9dXW57wVcvTYbPD2Sle676+2fPQwWG7xSlLO8USr2PONobbxHHQQ9NvG7PPVafD0VhZe5Q44ZPePRSzwZG9S8E+tpvCtRtLw2/lg7+XwxvXSHer1mROQ8f6UsPZRA0DsNI+a8TKpyPX0t/zuTY/w6u0IAvbyTMD3tzOU8Zix5vYFBDb0vu5+8ZkZuvJZYVz37ISI9msN/vFflND3ZXyM95r9WO/VDijxFUug8bNMiPUKfNr32mWm7nJYovVWjrjsA1bs8oAI3O//ejLx32pk8EV2DPXucAL3UTFe8yPbVPOA7XbwFhRA9+LKzPCrBB72WKvy87d/tOJpKPjsdcAs9KXtdvFfxFT0ZVIc87/aDPKw9WL2f4fC88lsQPVvdmTx8x888bu97PNV7ALzipYI7I6s2PObHQrz4LEi9duMDPJ0zibtVrCS9KEsDPSlUYLxOtjW8LZIQvBr7drxpNC484Vr8PBK/UbyRAtg8yx+AvdCTQD3Xlys8nO2EOwgA9bx7pL480jhvPIBTYTzgVrg8Qca9uxRWHby3AIM8jPQRvW/Wjr0nCWs8DOoJPFPFbr3uSQO9ZO+IPKPTGDwqygi8Au1QvCxLiTxNjn+8vyS5vemN77y5pg475xEdO0++pLwnRou8+nkyO5y7gzx+WyQ9hIGQPHKEYL32t3q7psJKPfULzrwwL7K84Wjsuu72Er32TRo9tiMSPUuWDr3pEFI9IgLlPBJmyLxGhIi8D50vuni+wjuX36y8OD+0O1UJtr2Mwhu9yy6HunzYFb1wmYs8AKDTvNnj1Twd6po7WQETPWwLDb2GRys8s/S4POnJAT04T2I7Te13PHFbSb00NhA9V6uivIZrtDxMvhO958Khushuhbt83bW8ONtYPFiCWD3cQxc9GmXtPMOrnryvQqG8H3wxveWiRzzySzg9j2kXPEbvaDyr25K8Fa5Fu6B9Zbyifxc9d/sTO2vAQTvy7sk8TKBKPS7h9zvTivG8+TcautPuPjtNmYM9L6XRukHAqDx9ZuU89ZgPPZuNrjwzPG08tvULPNIbKz0dLuM6Ksw6vTn79LxqRgq8bjhBPTB+CD0q+A+9vvoHPBhhzbzknHw8GRUuvMKmST3dzC89chpcPO1avTyBUzk7tYYovA2g+zxQ/z09+231PJzq0DtcN7a8UreUvA7yAL2Roxk8UDxtPO6xbDzFfII9tX8oPdWYzrxP4226ktxaPUlqOLzuyJ88Xfi9POpc8Tx9Y0Q8e+SWvF8OkLw7qQY9GKmSu4G+KLs1zS098LYyPXEGEDvhQ/Q74Ej3PI3eQ73m8Na8jkVLvcaltbyIk4M8hqOCPLKT3zreCo67ig+xve45ezybKbk7CtYPPY6MsrxX0OM7yV9jvMdctjzCONQ8PgFJvKv1Bz2CkO+8/CynPW5CBD2RbYC81QVAvAjjFLq4Xha9fmGFvMoNcz2cO4w88uSzvFBqpbsIIyG9RN8svHXFCL3+Xjk8s6QSPew7Xb0bLX689XJlPRqtOz32DMO8J+uzuquBKDyYt8I8JZkBPVD89TvrM348Ap5GvboUtbuL2gA8jROdvPR+vTw3krK8+3ubvH2birvmbUW9HoGdvP8G27xGmzC9UcM4vVUf7TyARgS9yoY9vanKITspw2K9vL9evC4MYDxEMVC848S8vI5oFz1e+6s8DHQWPWRdfbsQlls8RYNIO57SsbxZ+wo8TrfRvDmHgzzTQIW93tG6PBodsbzuiuU6cA78vGlZobxpaoE98xUSPYx4ujxy/9g8k+3XvNatIrzqB0m9TMCeO7FpRTz8dTS81lJSvX/nkLwdjlG9McbePUoKQL3uYui8EgUsvbsY2zyye9S8m4DBvH5nFL3DAlc90imwu4HTgDzXvuc8CYvHvMIUAr0hKzo9sRMAPdS9Tjyunta7bjdBPSf0cT3WIY4743SQvDOpbDqXhOy7PYBYvdEatLuLutY8OuDPvGv4aLprRuC7eaUBPR9XaTwdCmO67SDsvBXHNDunu109MCozPVQ2I73v9CA8GhV8vMfBZjnLtzM9ukXdvDRYxTzylFk9HkiOvKmWXjskO+i8kjIwvJVpDLtLozA9EkAVPMZat7yo5Om7YykmPOS3GzuGfMu84A8MvSVnBjxCAo27jcxTO8TvDr0qObS82+BUPbHTND3oAE08G8saPdZ/pjzz05M8wN0DPRL7+TxzPRm9CpbwvEyuNLqJsdI7mwNIPbPDFD0Wokq6X92OOzvpGD1UXrK8NLk8PbbO4Tx4dpa80DV+vXzvRD3mnFW85aCVPAoFgjwy1cY8saUaPQoDfDz5DRK9XM8hPd6HGz0paAQ8wzaku3W0kj0xUbe8Y0gavaoxI70IWGQ9ZpEjPLzdoTxxNoW9B8/gO/DWzzq+/zi86/sqPaCw8zyJTRa8RMIVPSq7Nj1DNJs85Sy6PLL4ibuppOc7NY5LvC1zJD0mxp+8V5qBPQtfMz0ipjI8LYkmvXKAkrzomgy9UhMYO/QToTzxP2g7reM/vBDWz7yzJcC8w90zveSOcDxSP1U8og9JveqsE7pmGfU7iBY2PUQZPz2HWQC8y3OpPGY9i7xr1TK8X6hAvblfKTxd01k8kDWNPNE28bsdk+W8MM8BPF8fwDyHfiW9UgpXO/67uDxuGiQ9qIpQPAuqTD0tj4s9E6bwPCgJCLxdT1I95SuovLAev7xWrSm9zOyrvLx24jz9ewW9Mfi/Ou8UW73EZ7Q8mXFsvUrcVzndor+8MWIHvfV6sjwcZRw8wQBTO7P9mbwYTXG9hnCAPKNKbj0u3gg9wcNbvNldlD33DQ89pfmWPOf7jj0M9HO89djevLDjDD043hA8mC4JPTCVobwcL6k84S9kPajThD1mx1+8siJwvVkZJzzeTyK9vfNGva03Rj3VEMA8NJuMPHYODj2JBOw8VSBhvdTzDT3TKiS9bv3uu/9ZoTx2UAq9pR9uvc40BT3/gZU8YA6SumU+Jr1+PGo9a14MO0jSYz1tKw09UYxWPef1wDy+b0C9r17yOzXHiroVWru7EGNNvRVzWj0/WMA8T1EkvG7d4ryOEI47LD7PPP5iYDzKXme9nRxKu/iAlTu+5hK80/snvfsND70hq6Y7HmUFPcQLNru10D28lA2lvOyo9LyxrXc8jPSBPd6DYT3pEQm8lsZ1vU3qjjzC19e8BuqRPOgPI7wgHAY8bpmTPXEMk7sbQqE5XgJ9PLUCRTt0Ffs7Anz/OzMhETwTbI288KXGvCR9SLziDrS8IR2VvIOGuLu+uiy94UL6O1LEDL3WLvM8Fh+Xu3JeHz3tSHe8as2APLq+Rzt/iTq9uzNHuz0AYDvECno8b10UPKAcvrzBELw8tSaYPBu2QjwCcYI816KQPI4+1bzBcSe9hv+QvPSFazw5rly8P7Xuu2GIRLwaMew8ZdSvvMq7QTzvYG295Zm/vFQiNT0IXQA9vkMeux6vPT1QLlU8R7Riu6djiTs5liu9JnKHPOVIyTztjpO8ZSJFvRUT6LyljU69mVIfvdKTgzzV3mq8VVKuvJyIE72IeDg9CtQLPPNRJbxK+189+XJNvcbLhLyihbc80Uf9PD+fvbwhQ9C8sPkovXuvHj0Irwu9E0EvPeXluTyxty28Zx+jvCgyqjx66Q28EyZPPMt8GzyJFsG7KME8vW26HD2KcJw8OPrJurwv6zz4czm9tdEYvYtc9bwTnH48hZFFvdEQlL1Zffy8seiIPIKPfbw9u7s7vG9VPEI/Dz0pN747lSHYPO9tPb16idG8gH4dvO/2sDxJWPK5mWHjvOQOGL2FykK9Sb8WvcZOiDzql728aaWvPDOX6LtRWF+8wCX+vNoQy7x076685e9avfpxeTyr8Du8Uohcuy8vFTwvxc28OcIKuULxM7zK5QS837CHvPbDgLyRYHm7lbymurAaazytn6e8b4hSvO3Z7DyVJGg8gHGEvFR9ibytrm29v6X5vMa1X7u0nxi9zr5dPAnrhjyCQyE9oeAIPcBeRzvxtom8ae6SOzGplbxmFb+7dJBrPBoG4Ls4WJc8pSVMvYoaGDupvUc8XoiwPbAoubwlxaC8WIgCPBLZH731e5Y8qT94vdWJA7wSTcg86jDgvQYTibtwfi89oXQAvHKVBL2YTFi9oNOuu6KCE712DMy87GK6vHxAz7ybTb86hjypvOdZ1roBIIs9vFzqu3+x/7wJ+4y8vxR1vTWzUb1N6lC8KcufPelygTyDIv08XSQdvLY+Mb3WJ1a9IRjcPErlzzqX/oc85KJNPPBvEb1MS4e7D7sQuqGui71GNZG8nQl7PUoRqDh/uza8j02DvVq4DD0T2Ji9D0cnPZujajy56zi9MQ+3vW2iDjuBQ8k8wc8gvY39qbxSPo49MVIuPMIoqbw4GdY8vSrpOygCqrwgRIa95S1gvaN1Y7yLYj05aOQivRD6Rz3+06q7m0IFPeOMDjzJzL+8pXxIve95/jqF1KG8AatYPSCW17wv2tg8gi9xvd0rGL0G+1c86jhTPIT26rwQrDe9Y1sGvQnvk73gtjA900SAvSWEpryyCi09zzI9veXCVL35+4W80eIUvWrAELwclw+8hRMzPYZwQ706R/W6yNN5vM9qCb2uA66834t/PDAlLz1s/z48AC8CvURnDLzvmom85oBIvR7cfr0dxjM951E4PJmWzLy11GU8IVA8PSX67LwCX7C8LAitvJmOQL2qH4i5DoX7PFzPWb01NqW6bdJsvKjPgzyCn1A9bE4oPFuxCz2xcKA8SgW3PKkN3LsNJn06Ggk7PRREOLwnVyE85JsHvU/OhbxDtD894scyvYUS5DyUY5G8um8GvKl7dDuneCE9YbfaPCErBz3QHgM9oSUbvIdsKDz2eVw9acnQvI2oKD1AWie9WNtYPOg1j7yIz3G9QfFwvGQ/Bz3O4nI86HmrPIF+9LurqRw9CbfEvHo6Cb1tpTM9sdrrPEZ9pbz3jFk89mk3vPqy7btJd/Y7O3U0vAiaBryYL3+8LHm7PCT7KD2ASzy8bxgqPZ7ZIT2mOSk9RcgrOpLSmjxiOk89KRWyu9qlLD3Jy8m8CAeAPHwTRr2zHNo6+9QjPYGGJj30sKc8c/QrPQ2tFD2n6ZQ7MrpmveLtYr2/USa9x3EKvTZp8z3f9Cs9MVTau5W6FD1aCkc8RhD5vB0Mu7rT2pW8f+FBPJj+Kz0YvVu9HFIOvdFgBTwAj249P6wJvREXF73U4z89k3uHPDAgNDxwoIA9Xv46PZ7zTD1nWlO8UjJQPbn0n7w16Km7+rXlvPOnWT3ku5u8+YwSvZ1lmjw6ItW8rSV3PFI+2zwxjpg8mT17PFKXF7yjDKk86JdEvYKYhjzy/eo7cuSBu72KhjwOFXS7L0huO7I1qTzT7yi7gABYuxq86DzlwTO9BosIPQyDEr3M/t88YYNhPMXmSrwuTAu9hzupvKzhJLxv5ni8svnjO6qVrztsvzu8nozgPOWPgz1/PfY8AWQavd9yV72XUxa9kN76O+cRAL3ulhu9Ii89vEwuML0a8Aa9AiHguxtp3Tz3L587v7Vfuzhx5jwJ8448pZ8KPQu3vrxL3NQ7r82QO738JD0029S8NBNXvOKsFruUWak8gcESOsFFnbxhGMo5oYEHvXKlVzzP08W87XaCvZ5fibzvDR+9YzC4PPvhDr0Fv4I8cfELve89cDuEtfU8ioRZvMXdmzxBz2Y8XBgMPfnSPbyI41S80F7qu6aL0bxIRBk8LV1avV5tP73WAy69c96vvNyztzxEwsG7bczUPPYa2DwKUcQ6Ay0tvPSMhbybK0c9qHPwPM9EvTtsEO67A8g9PPMuzbx7eCa93tjMvF4fI7tkENu84S34vNk5Vbup8p+7/WDEvMBZ8Dw9lcy6befsuzx0lL2e/Ba8QzMovZDlgrzmBtC8bJ8hvFsANz00NPK8e6OivFFfib0PWzm91AYovTmPqbyQb4g7RqgPvJ1l9rvM7sI6iTFBvHKrMD3MMLi8GQMOvdGMJr2nOtE8TDUuPVuwczz2Mw+8o4K7vFSWyDsICDM8rmEjPT16pLwvSiM9Zd/hO/+AQzye74+8tZLcOwItErzA7qU6ooJpvWTbCT1YQA+9G8tivZ2cJL14ncK8dPxUvW66UDzaP108N9+uPBNZhzzCzdS89e0rO4KUzbq2ZnS82F+Yu62/Fz3BXjg8/MgtvZJwAb1pyj87cwn2vG7qF7yt10u7/cTDPGY1wTxnYJU948kju57Y7Dz5SS89pCDHvA+17bxyY0S9Dj0iPfnWgju2TOa8PMBCvfiLozznNt4872eYPC3Vprunzy29M/aaOxs4JLz7A4i7y96pvHndcbvPAQ09l8UiPEMzvDv1RQc9jFqGvPErpb1UUAQ9Dwo6PbBkvrjHKD27YKlVPftpobqOOLO8aEEPPLx1Oz3YBp677lqovdcRjLsUs4o8YcQCvLk/Ar3tcOE8NkzRPJha+DtQxmo8uEC8PKZBLb1+MFg8QcNGPZyIKr1CHgw8fYmuuqs4Er25UbU8Bm48Pe5dI71VwvC7BeTNPLekorzVwiW76IyePChgNT0BCiK8/314vLwfor2jEZO6O5Z6u5XXGL268KU851ezPGVNsjuqHre7s6/numswcL1RHiM9wJGHvM7TT7y4xUo9y/rlPHBxo71haw28gMEzvInQlDzl9Na8ZGgVPeAbljxSxXo7LxCDPPSWl7wS5d+78mOTOjvcbzzHfRQ9wy/POpJ3L70mUZ08s+RUu/4tND2VZw49X1cxvBVrszxTCic952UpPXZIyjwCX5O8fsKAuwguFj15M/e8QCDjPCPVjDzVrXI8XQKuPMQPsDw5fBi88YwNPQdyJz21Jo+9DsShvBRujLy2pIq9XO9QvNlc0TyYs6U8Js83PNeiXT37Aaq7XjWcPKgkFTuZvgg8LZBjuwY7/jzBHU49yXAtPRSQ1LtNWoK7O3yhvN6SPz22ZGO9IrSAPMqlHLp72JO63vxUvXMNUbwY2hk928ZEvEFdD71M03M9AaqhvNuqirz2SSE6qjqFPQ9n3zy93iW9VQYSuRT2OD1KcTK9CFLnvCArFT3HYQm7TPmGvCOJs7x/ff286kyOPULRyzw3RuC7C3ugPL3SGLz76zK7bd0AvXDFVLz1Fjg9paquPPGeD73CkYc9d6gWPABL7LwSc1c8pOmxPCGXqLxzF1m91lqwvHmSNb3LWWO8pD7NOvzBMD1X/mG9HUWHu90dETzYjLs8tRUJvT758LxYMQy6zrxaPGgEsbwYPNq8s7bGO4OMQDy88+47hUQFPVsy6LyTfs48XRISvbQSfrzcvfg84B+iuVdU/rwnejA9+w7VvMHROz3hbDC9dEzKvF9t2zw9bLA8lqwXPSCkgTxU8H08Awa3PNJINzxLMiI8etm1PMwD6TzUgRU9OMxAukMNL7yG5z+8rwy9PVF0/Tu1MNA8LpA+O7szLz2h3zU87K0aPGzaY7xaOzy8wKwavT6POr0adzA9Z2mwPNJBo7yq7aw8OZ0Bu8B93Du9bR49VOcPPUf0ujzFgXY9uIXlvDTwqjz6sLw8qGmzvGduZ7xMrIK9mEAZvaOVJ71TAgU7IRyxu/jPxzwt3qe8O+DqvGGGBj1WpPU8HuRnPLxroTxwpi89msvXOzfmSD0emEA9R3vtO2Cr5Tw3EEM7PY9MvBdPLT2unUo8gy6OPAU2Sr00doa8UXr/O1rTBbwcl5k80l37PLxt5DyXHZk7rXYSPRVAoztGByY9S3HqutZPSj2lZ448DUkIvd8qCb32fJY8GGu2PMhphrz2AQ09kaeNPBPgJD3JS0c88roYPEyoaTzqmQk9RVnXPAVD6rz18uK8pKy/vHXj5Dv3Gns9skgGPTJuwrus9Tc9jvVAPHFMhrwfiYC8vv1PPYY1rjsYAZk8486AvNa2ib3ywMA8a6qiu0/teDyogxM9fAgFvS4AkDvNr4s8rO4TPbIfULx/yZ+7ZqaauyxTpDwQE5u6ffl3vKYvFTul86C7Xpm8PDI9dry6xD47wPGiPMicB73kcjC96d/YPCBgWDyvCP28zTDNO49MXrsIUxW72nUruwwTq7teNou78K0ovSWaTDyCSJo80WvwPFOM0jsERQs9rgdIPcHYQj2wWsO8nQQsva/5HD17j9m8V6JLPKzP6jwaBPq81RUNvf9vVb0SWQS8xXGWO8GbVb1Qzsa8Anu3vGAOzrx0EQQ8MpzCPK3fXrvccga9GqLDvCzwK7zYtmm8PsS9vBqNBjw9QES8Ea+5O4hzJTzPdNq8lvRVvEeN+7woO9W76nPwPCITbDzP+pC8oRldPJLBnbtQJhG95qw8PGZvcjwGwfG3hwO9vEb7lbxDzo+92N8zvEEnK7xr18q8If8lvHQC+jwqB1q8hb04vGDv7LwRN7g8rGPHPOT7Ez2Ym0G9NFnCvO5fhrzZgk+9OORPOaVdBL34tKq8q+IbvUhlMT3GVq89P7GvPPClurzBfYS8D8nnvHibFr3y8sU8er8jPevdlzweiUg8aCk4u9vu+7xJKmQ8/Gr1PUllgbwC42272cEXvdyYj7xI09M8o183vWYZQLs4Zpw8Yg5MvRHG2rzvN4Y93GyUvD8+xbze3V+9R8O8vCEpG73TEM68zooQvTxflb1nO1O94u/EPFKbJ70gpMQ9gvexvJAnObzljbO8HbxdvSJngr0tGQk7K1QHPcbGUz2pXiU9N8WMugadmb3esxq9oOxaveHH57ym3Zi8mSIoPRAOf7zThIU8tVTNOyZQY73D7j+8VobcPEtap7z/nZG8JGPyvBc1ZD2aXr+9IsRGu+hcIz1xIc287YS6vTXmPTtxDD89v/k+vHrC1byqXje8e6JuPeyqKTxXip08H2oCPWwgtzpRSj68cLOCvQuhSr0H6qe8uQJNvW6xRj3vCJI9nAVoPXa/jDpw6FI92PwAvTEmYzuGKRe9gIWyPW1JAT1tpCw9lm6FvUA4d7sjexQ9IsnNPYTYurs8rdq8WjPWvEu9cL03fj09R5mnvX75K72ol8g8RfdBPRh/E73B3wo9USwVvPu+NTtt7iS8g6TwPGTY8L3vjNS8nsQzOytkXTz7Y/W8grS6PCwPKT1uQ8s8q6tSvV4XnbyiOfa83rgGvegYj70TOs88qwmIPHbKo7znrzc9sUDzO+I36rwEPgs9SV1BPVpcGTx0cz+9NnafvEpAPD2dZwe9rjCUPRKPeD1ZiEk8gLkuvf/mFr02Ow29igd2vU4RI720fjC9AL/VPLtUG717jZA8iYJ2PSJJ/jwRAgA9aji8PFhXrT1FNBi8owg5ubolAbsKovw8sTxvvcumq7y6xX+990y3vB+6Or2n9Sw8vhAEPUaxUj0/AXW8PIqUPZh/xDzXoA486lAOOTg6MT0xVfG91cJoOgPmLbzOT6e8+8Cnur7XDT0f9XK8xgd7PU4P8Tv/Hhk9AoABPQzJFT2HtDY8ut09PKm6s72xzUs9LQDGPCpyLT2S2c47z4obvMnLIj1mmr07Af4fvUjZiD1KMwk9tBq6vF6oTzxQYMa47+D/PGJ3lzxo58I8fKYXPd6mdLzXzzA9VA83PVLWST0ZI9s7PQOyvFejHTyKzhc8w6mROi1Wdj3UTh29x7QUvSuQ2Trm8vk88u6SvGMnvTxQqPW8r6BSvaMICjtJqW29RSVfvNrRjj3lZc07VBarPJS9AzwXP+w84qvzOylMlbvCbjM9pk0EvFSLyDzTaTC9Un0+PTs10bz8+WO8LT4KPBQIPj0OJB69xUNHOzaPmrvXDye96VwYvGt6kz2O4DG9slafvFKVxzywtng7XXeCu/MgCjyNjsO8P0WzvMjZJL0iP349r1whveY9pjwUxwE9v98zPM6c3Tzc0KK8OvgAPerGZjtPrgi9sda+u2wU4by+Bla9b9pWPfIMUT29eb28lRuXPNSkCL2XxcG8Ek1qu5ovDTvpBjU90X7IPCYA1Ltwjp28+oYRvNXHCj290AA9MU87PCmSCb3TEwU9cMYMvDSEgzpFYAo76t12vKcEHD35rR+9fIymvKDxyzo0GtO86DlePdJmiLu2GgM9bTBRvWGYIT05BYY8LJSIPEQlPjuvGpg9CFYsvfHDiLwvHSk84DKwPBmdwrtinnY9g8aJPObWFD1fmdO8m0goPRM6mzyf9zU9MC6PvCUEx7xH9TW9xdQwvZn1nb1g9Se8zvXIPL6QIrxzww49DE0JPUkkPjxzjcs9zAMKvYdwrzyrGHe80D3OPOXahr2VFjG9p5mWvTv7g73xJmW6g5aLvIAd3zwGcUI8bc3KvN97Nj0yuQQ8HfZ4PSSoHr3ZSFU9lkopPDalWD1YuUo80GgwPY9kKjtjGuU8akGvu3cVHT0U2U694HerOxWf6TzA5bc88dNsPQTdUT1Yc/m76/YMvP7KBrwNrOQ8gnlpO2+OBb3+PKc88AXlPB5SYbzWh7I8+e7APSb5JT2mVuE6xQOsPA8muDszD7S8ELuqun79+7wP4Ke8g1O1vCTNsj2eRV877YdJPOCrfD0nga08MiuhvPb84Lwz1kW8y4lEvClkgjwuCqQ7CRCLvIwZGD0WP0g9FsxOvJ7SKjx1GCY7du2kPGrlNj3hQSQ9jc0OPGYnDj3ZZZK7xFKYO4v2l7z2z90875bZuhiG6Ltpkg49F85EvKKPCjviYjK6CLGiPArfcj3EMb88qiugO135zTuI8++788GAPJNR27yDpgQ90BswvV7Bw7y/fsg7dJTCO/As7Tz6n8Y8+xYtPWysIz2pEmS91l5yPfZCfjyaiAQ86JbVvJ+NuTx8lr+8L0FyPMB6tLxY7hA9HElQvWk+OL26+8M9IwnhvLO6A71WLoK9UcSAPK+Mt71yJzA8mFe+O+e3tr1tPOe8Ze7Tu1qnDT0BlhA9EF5SO4Ts1btZ92m8tCKbvfZAXL1wx1A8G0bRPVzoUT2rrVU9USvrvJ1i1r0eYH69Tla/PLFDAL3Pq7O8lrRbPEqpjjzjCqs7Dt03PGUYZLsXWxK8Iw2qPBJSJ7vrBJO9QXNIvb3DhT2Kdaq9nLzbPGAgSzydQGG8INYRvUz59byWzoc9Gl1FvYKMWz26XGI928JbPJMAYbzHSFU8Vo0kvS67N70tfbm9IjWqvB7PEjwoILc8+VvXu7GRwz2QxDw9bWxlPakx2DwcOkA9GGdHPFXELD371yG7SLKVPeLfvLxuqq08BmqivVF8GzwNgQI8LXWMPRG7CL0qo166/1SdvADeg715ROA8EkqZvZVf5jqwFs49jEgHPQKlGz08TUS6r7gTPechZz2QfZA9KJVNvY+nvD15LI49WXrxPOPumj22DYC82mDsvDsXkD1aCNq8KK+SvKpDCrzWEg897muVPSoUgD3YPs68wX+HvTW4Er1pcLs8UBlvvJM/ijw9eAm8PQoIPX22vzogfy89Gw4jvfw5LT1yk8M8UlNYvfTmKDyjAXK8DXspvEuloj3Wkrm79v3UPa79Db3gnQ8+vOqTvPnuqbxAwUE8n+ZNO1kPLz0/ev+8KvO/vGuwgDym7Da9oqpxvcVb2TzraP28ExsbOvgZULvsK8s9g1aKPWcAMz1ggCe9eiqBu3LfpbxxpqK8KLa5vaQAD71yU3W9N6gRPNKrjL0h+k49FXmevHI3Qb09k7y85D2YPazzOTwDL3y8pd6GvXa2rzrVi9+8hie3vNYVIL3fvpG9v5H7PaVF2TzxcoS8Fbi/vP3RELhYZYA9SA8nvXnKBL1CNTQ8DUowPYrCyryhbBq9t0/HPDColDyHFHA9P1JNvcOsobsCfJQ8efuJvCQzqrtKV6o8heEOvWQkITw74VY82HAUPZl+vDyLPwU9pTyAO5YlyrqgFzG8zxANPfyfVLyURiC9sV0IvR5OjjyskU093U/nvDrVwLyspHU9EWKPPdJNvLyzjwc96T/avPhVeD1fS3i8AjNNPU0uDr3zo6w6E7T8vBzSFjxTR/A6aWxZvXA24Tz36lU9becnPViQ1rzNsE292UEAPVbRgD0SjkC7FCFDu//xhb2hGka91y3pvE+Eb7xvack8uCNbPDIH3byCkc88vXZ6O1UIVz167dQ7oHc7PE/GVz3g88S5L9+YPDbxb73HSGw8b+qYun0yOjvcDkE9/X0iO77Tz7ywUkC7eEAGvXvAqjyHCh09/60bvddXEj25Sk28SGeFO8Byqryku5M8ywR2PaJtsTwIHMK6lMGIvPAaMD21hMc8cn0TvUTFPr1rpUu91RVIuh3rvDvY5MG856T3vDoxwbxqhra6PAsOPVRfNbzlxOa8ekb8PO4aWL3FA8c8AJgwPd+pGbw/rJS6ZCdzvXtaCD2y1fy8uQdHvVQ5JT3wOcy8Lb9lvdiDSLwsPJc9DAHpvBj0EL1pktE8tBylvLp45LwmeLO7bI3lPG0xQr3bWSC90oXpvBMCVT2oyXG8a80lvZx+DbwLzE69y4xhPOsLiD1zPWQ8g1CavCgCxLsyPI+9HdflvGbcoTxeqSg8Q5FkvXg4A7xuR/O8q70UPS6weT06VUq8HzXQu8i9VT1l1ly7dDefPMoOL72wnSE9KtdTvTRhVz0x24Y9thoqvCETjjwsbBg9ZCnQPBkeM70O01s800KhO3z98LygfAK70hMEvaLiZjv/Mh092ND0vAkEr7ulIxa7e5BHPEzB5TwVYY88a1/OvFxquzyD16S8eRRkvBzREDzYYJk7hSA3vEzWVj1IDQM9q3TcO8S3U7tKV1E8yyZ4PN/LSTx0tPK7SeTMu93cwbz+1ki81qMqPCLqiztut2i8r5jTuwFGqr0RNlk7RAo4PfzlIDxsHia9KyUMPUdwrbsd4v+8ZLPyvIEI4bwpcBQ8rZMNvV0W5bxkA8U7uZeKvGAtFrzok228PWDGPENJ5Dv71uU7VSAqPfvt2rz3LBs95j0AvRvLtL1qW468LWgNvFVobjydi888Ste3PDtIfDyoZwG9vsxgvNBWqrygTee8vqJPPBiJarzmM5U8G3+0PCmuG71na2m9rtxoPZF0Dz30PLM8ivB6PFMhI70/OYa8zMeRvNsJLT25HZW8sU7lvKH/ar2b/Nc8iFt8vMApIL2uAf08vzGnvBINJzwfOKS8qLosPa3C2TyQcBG9pWuPPCGi7DxRd9Q7JYBQPNPDCr0hl5A795gSO6DvkLw2F6c7sgjmOjkzOD1EyFQ877gPPJiRDT0ZqTI8kseTvJAoFbzg7ba9A5Z0vBLzvrwpk+A8UqnCPCyBO70mG3i8PI6APZjrPz05PHG9VHUePQRjDz1W1i86+nkpPMLPfL0I5u47VfRhPI63QLxQIis9uIm9vOJEEr1+CpM8scYKPNn+Kz1ytgQ8UzjHPH3wmzwyeWM95JPYPJZOgr0nsAm7xF32ucdigbyGNgI80oP0vCQQrDztWgO95jQ0PSSSDbtQAdy77z8IPeFcMjwXi2w8WSnlPI/IXTy+l8u91SxKPQIthbxOr7K8w0i+uxe6A71yNPG8eRuvPGHyuLxspUW9EW5OOx0l17vQk9S8Di+YPPUwtDuj6ws9pog7PfHoG738mhi94ALlPBYZDD2r8Hk8XfaVvCPNJ72Pnx29wso2vMSkJ707GCI9dQt3vBDbAz2x0RS9UaPMPLIKPTz/7AI8dqJkvOer97xDvA49rStcPXE33jzacSe6R+dqvQWOUD0KL5k8owM4vWi0FLyBAAE93IcmPaaiubvSqIU964izvNQdpjweVLM8vZnJPLpfnTzD4ms8wmgmvBLtGjxu/1u8ngCFPNaVnDoeF968hpRYvYGJDL25GRq8ssGXPJXOVD1Llso8mJr+PDT/V7205cO963BkvAkbmjzeDnU6p11pvQzMITw3sBm8cCuiOnV8Gz0pdko89o/1O3Yt+Txa4cO7hmyhPMRnL7y61/g8OZizvKqCajy3eoU9M4IhPY/qGj1R3Fe8JEkMPWpjiTyOKfg8i3uDPKi+/zxCGBq9uWB0vE5hhby6gNG6JBL7u01mQDxp3Y28MrzTvDysbDzpeDu85JECPT9FlDkC8q28LL9NvIoXbrthcE68qToRPPIzh7nyHAS9Rp/SPD6FHr0X8JI82WCxvCUP0TwgxTS9RFSluwJ3LjwJJns8/ptsPFEcJr0Kdxy9eRiWPKo5Ej0e2NO8E5kwvaK1Jb1hQHy8byHqO287C72bJm+7C6CvvNVbUT1tyKY7e2XmvMRbtrxzUzw8I4WFPDQ++7hSLQq9gJbtvDc5gLv4ZLw83OomvXiEeLzR5CK8vi2AvBcRiD1ePey8N5XNO+L/Rrul2AC7VDfwPFMlE7wApfs881k/vVGHW7z1+2g4sQYSPG9derzD1Ju8LyoivdDNGj1qOT497pIcvLcKF7wdleK81biAvGPCvjwwQNy8hI/Hu7DTbTtvTBQ8m2AZvQfUAb0N4zC8mtHbPIFv6Lv/Pji8jc+su1060bxYz3S8vFIsu8cuDT2LMt+8kSOsu8bVHD0fNLU8SGxWveOFHL2Eg1U9dCQYvct3Oj2zHYi7NOKKPKYznrykQ+G8yssCPbwnIT1kfjw9McJDvBj9S71+LY27Jn1DvX6FRj1hx5U8ryC/uj5BZb3dTHC8SVGPPYTUVztX42a8RgEyvCxozTzu/Na7gxaIPBQeFLzKzss8i0kJPBcWdbzzW588S88evSarNTwXF4e8Y17KPF78ArsToYI8rwBEPToxUjzyegg9wV0oPX/PIL1V/668y3YZvF2Wt7z3jMW7MeUVvTHogLzEcBG9js8vPUoByLuKdG87FkkxO3eCPLr8rMs7gXCiO1LvtTzGjII8ZDoOPX5Oy7wl0kI9DU3fPG+3qby5SgY89BUiPZDuVD2J0B49mACyvGDFFrw5dto7g8zpPOi2aLyk4ra8m0xCPP2oSz0jREy8Q8e/vPZXFj2ptcy8OoykPOjArTwjXx69/QWTvMoInzxL3pK8I8r5PJpcED2aD4E8cE4gvLfPiTypqwk9udOYvHGl2jwH/E295ZHEPK9FOj3/db09QbJSvGi4Xr3p+0W9MiM6vWZkpLysQkm9+fqNvNIIr7xIMhS70OGWPE9SIr3DTkW85+tGO7YUALz1bCk7/kRivPlyGLzn6j078X5gO9gaZjvGm388ja+4vBfumjwTXSK95V+VPBSVIb3EXJ+6mR0RPcWLBL0FSR+8u+nMvFcDMzzrd049786svAVEQ7v+3Q+7TshPvH/tt7w6sbA64OJrPMJO9LykLRM9H14OvTww5Ty1W4g9iznYPJ0/P738yGu9R6uCPD7tfDxNQqk8jLYyPURxCD2g+zY9IGMUvTxLWT02zSi7l2nKu8RSE7tQvhe9C0smPEFEkbvL2Ca8Ot+LvIbQNrwBjhQ7NQgHPORRV71/0+G7a61nPDXpzjwRJCq9tLnHPCpzr7z0eO+8I/1RvILr5bz43om8mXBovFJHAj1Maz88+CwgumiIN7wEtqU859pPvTuYcrzIVHi9d+MDvXvZJ7zQbW+8X2n0vIsJyDrRdmI8yHQZvUN/Q72xdQ+8JNsSPMkQvTyjv768UagmPbotVbyoY0y7m6+Su/+XYzxcUBe9YI/HvEbpm7s0YIU8pbY+vbkx87zCpnc7yMW0PGdlLrxy4Iq9dDKVvMYXPjno/ag8cu1sO/ADdLwqZHo8Dw5SPJu/kLk0+jq8rkvjOzg5RjvG9YQ8pn6vvHE1VT2+jMg8qa9cPOAls7seLD48tr0gvRQ++DxT6iK9EF7KvMCMnTsqWGs8ZLz1PA7kybi2iaS71KZHPFKUYjwdCcc8KqoHvQ/GLrv6+yg83VxgvZtl2bwQQKo8TNYBPQs2tbxszt+6kNcTPV1UBT37XCa9DsYjPfeEIr3p9cW8o8rZO6JsljxeDty7oHKVOuQVxjw5yWg8sWKpPMroFT2uR/E791HGPM8/lrvEKrc8Rfi/vAQTVj2w+pO82Pe0vBBvAb0FEeE8rcYYPAppCb0hSXw8L3rcuhxXUTx0Cis8R0BNvDhNCT0SFRO9qw1wO28bpTw+QJA7jbwKvTx7BL09y1o8RrhmvPb/LjtQLKW8J8sWvB4taD3VXM08b2JIvIVY+bx3eo07PQYBPV3e37vvrnE8+clEvVwt4Dx6PZe8QWIZOdMAFDxLAqq82Us3vEPHQjzomk49VoK+vEriMDzyAxi8ioIuvemCTT3bS1G70JGtvN3u7zy0Egs9dPAgvO/IPrzHYPk73yPoOjLmLrvfgKE8bBO0vE7/ej2Hahg9wpohvToo6rwMCao8Evi0PGh3fLyiXwE8n2UzPPTxh7wy1AG8Jb2uu02UyzxabYK7rsM4vTm1UbzoxN87gh8TvdsPz7yzf4S88nFDvVRvNDxjFd480hNLuxbKg7xu2zG9C/IMPUtanDxhHlG9LDmbveaZzTxbiiQ7YCqYPGRIqby+Ovc8jcsjvXeHkTlVbi89SB+pvGRRkDyNaYK74X4/PQVSlDyD4jm7YrM7PIK+NDufW2i8gPb+vHELUL3kLHK9h9CBvBsXbD27LGk76p+BPE6IiTxHCI+8lbU0uqAW2rxwros7mAkIvYwd77yJnjC8ROblPOtzgDwWd3W8x+UUvF/q9TyzLwM885ZzPW8PIzsAB4o7mVINvX+pFjujA+U6yWCQuu3mSLxK0Xe8408NvLqUgrxe/Za8wq8rvG/w2Tx7vYG8SLs2vQeBnLtV4pK8nz6mvE3cc73eneQ4gxEqvAqd8jumnjk9H52mPOWuwryJRXu8t+fnu3r4p7zB0Q89akcSveP/nTro5yA8uhuyPJsn8TwNfl299pwYvdxyADz/m1w8gbmBPc/AOb1HIuM8kuZDPR1CNbyMQ9c81QA+PeJ7jDsZS6q9K1mDPX13xjyCsoS82pEwPI61Jj0uTdc84hALPCsj07tTl0w9tb7EPMLmYL3FmgE8zwvtPJDnmDwTMic9qMg6Pbe7rDvtFWC9+Db2u8mpFjwU+y89Bvv1vHWTzDv4pzW870uMPLlwKb3zyic9p1WTumFbkjyhrqa84GfGu0k8Jr3MwBq8QL/lvNLVLrzePDS9oGW8PEG+Xb0xBRa8kAwkPavEVLw/TyW8u1/+vBdwVTu+6nW8nQ+XO82RY71pmli8Rfj1O7dTTb0JwQ89PH0pvSpVVrst1/m8u/HUPMkgQTs0A5O81hkJPNakcTxcRZe8Da8GvRvAJL0JbwA9CU0bvcgTervZiAQ91DAPvcxXwjyUPeo8J9O8PAOpBb39h+K8AQ3vPGsScb2M60G9R/yCu6pUkrw1Cr08dWwVPWOkar2ZUJW8NaNOPZrL5jtYzbe8PCIfvO9udzrhmRk8CS4BPfHglbx7DHC80kxFO8zNkzyOPuA8ObIWPZjrsrwUs7q8fsThvPcDSz1twza8qxmBPM/o5jsCdDc9T/ghuTaQJb21dPY8H8z8PDfRwrwEZrK89vgyPBFQQzzkxCU9eooaPCdwKLw7dtY8AjmePJGr2rtJ6EA8CagDPZohXLsQrp+92krwvK6VCDzRIGi6wvYPPfHHqjtdWLY7X4+POyD+9rtY0qC8toB+vC95eT2fuBs8Gb3rO1yYury0dK88UbcLPed8jTpUwxO94t1eu7FScTubOpQ77QxOPGPJU70xtAa8U1rcu3gdBz0dYMc8a1MtvbpXkzoumrK8O0syPaJlXbwuZeW8vdDmPGf/Kr1vFYI8bt3/PKl5Ij2jNcY8rJCCvYM+LTzAPh+4og2uuhTurj2/XJo8Guq/vIKG5LyEGI89dQcQvKQ3qzzQRVe8/XAUvN+RqTvreLe8zUUgPTEumTyt0xa9sruwPMvESD0QqkI7SILMvAELJbukEdi7Y4Z0PHda/TwJrTw8hVgCPQ35Db0Y/DS9kEdVPFp3k7x639w8fKuNPGghJjwa8Kg8gwCPvCqWkLy5mDk9JyOQuzeA0zx7xQg9M5cCvYJ4YrtCwgU9JHokvUgYezw7vSa8Kn7kvLNwqTzMfQA9HEI+uwh14jxhLeg8/Fimu9xlMjxV0E48sr9FPR+cFD0S6YI8ZxLbvH8y+DzjFCW8ijUHPEJigrwNNFm8jVtBPSLcpjxOI8O8Z1pCPXlkizyzdRW9GEJNPPARBj2GnNm7/+yPPAOb6bycIZ08T1M4vfkstDzjWV69etMjvTuKwTwBL6270mQ7O9d5BL2d2nE7KXgOPfIS7zwLrE29XxSFvYL0gDlIUMe8MuOLO3MvPL0WLQQ9bZRMvXW+4jz9YwO63bIzPUuIE7zMzju95LD4O2FPPbzDXwa9iSK4vCaNyjxYK6+7DIhUvKs2TL1xook7rPHDPNl5Rz2laPG8r65VPTQuK7xFHfy7HT9dPSFBGT0vtPc8rOPWvMKCL7yAgnW9f/myuxitRTzDalC8nxPCvNSJRz0ujJM8OvKePZehQTzui368b85Cvf+FkLzObCe8eNymvG3FYbxWFVw9UEsAPUgngDxSd5284SyMvNkpOT02IAU9qhhAvWLpaTvN0wk7Vksevc3bmzuOiay7rrH/PK0f/rtP/K+82NmpPJHbH7yE6gI8q5ELPSYd+bsyXLg8fO/+PKqlxzzD+w095GtVvWjWizxQoQm8fQzYO/VDuLyuCyg9lzImPQ00Q71bDNY6MW50PVIj/TtX4q08ahahvbs9BrtcZXa9YguCPPr0Db0bEO+7gIfUvJVHxzyJmeE8fIElPZie2Dw8ZpQ8p5szPcchzbzvhJ+8QQ0XvCPCAz3Zeha9yIdcvAwMXDzsswq8us4Dvbj3Ij3RlAw9uRb9O55M8jt/OUq81so/vJk3Jz2l2608jGanvCkypDxGHDo7U2yfPBdnvLx3E2y8wrYPvU6Sszypitu8rHNnPflr4Lzbgci7aPfHu+wIIT3GxXI8fkltO8f8K72ZX2486SLmOoD7krxKGjI9DfyXvDJXoLv86Hk8Kj/8vMFkD71xgfe8HRxtu3W5t7yWh/K85H/5vGDDUD316BI9pKQPPHGZRjz1AeY6lE4APT/mhjzfago8hXZQPFmpF7zRWS88L8xSuzzoN7wEENU7l77dPEK9e70B1uO9Fy0KPUboHr3o8c88tZ17vKb3l71K3o68N74VPca0RT3SJ129nzjfO3/K0LscKqS8vGj+uzAwNjuT5wu61K7vvHjAGD18yfS8zEcZPV2Cbr2ez4074yoSPYPbXzwQiOG70rVEO3ElMr013m49rWskvdTX/b33lFU8uQV7PJcuarysCdy8fdJxPBtCkLyuZ2E8TFzOPJ8mUb2O7ne8emniPKC+Fb2JDYA6OpwJPTXPz7xLdsa93XgGPU3JOL2jmbo8GCmHvLN+Xr3tc72818rAPE7ix7wDVgo70A3nPAZb2Ty054+8vLJgPctxOrx1lT49OsHQuiwuFD3B4FK8IEEWvT/OEbxWF8K8Rc4qPTnkVz12/Me79KBTPTRHibwqnzY9Z11QPES9GT10U9I8B8CUvLuoa7xxvhK8ZIeZvWSpIT1cz069TCn/O1XqzDwYjkQ97+Fpvcy577xL91q87kgPPA/TKb1xnyO9IokJvStM07wscro8zmWTPAkSIb12Ore8yMiEvUtw9LwCIPa7xgGIPPIqPT3gcNo7FU/9PPfe+7x7q048ROmZPJXXgTuddIS8Fyg+vS7F5rxKikW9g4hKvFRnab08lIy8sCzXPC2XBj02czQ9y4b5O4rYELo5JyU7ygzzOh/borym/bu86dn0PNDuyruxbwW85ZFePNTtiT2kakm74pAHPXkiSrw1gCa9CmSBvaVITTxmtni82hPUPBbKf7setgg9gJU6vX3OUj167AA9SA8xPInEkztnF8284FRqPZ4r9bxB+I+8bXyEPBscorw+Rae83yS9vK0kTzsVzzo99UBgvaoWqLyoSxq8VFxnPKFEhzzmwUi9EHsSPJSxmzxScvo7JPXEPDOP1ryXNtQ8ZFgLvANJ77xxXQm8g3/APOKCCT39wd08k3I5vVmKGjpWNRA9HR6dPSPk0Dywb4y6niPZvFO7OT1OSjQ8qSaqPEhaGzyTnSu9Bi/ru7BwVr1F11G7XY2ku19bSjyYSPq7wk+cuyxJejxmyFK8fr/jPAUDKD3Atck8D2CkvAFsxLyMMIG8EqcEvb4ECT0AXQ+9O6UJO5rwz7z2gfO8bymMu5PCELzeNk88S0sAPc3TILwog9g8pYXKux+cV71hUey8qx1hvPODyjxRilc9gJQ0Pe73JjwFAfQ8jJuTu4Z7tDwXIfm72mMlvLfPgTzZ+5o77fpsO5/Y7zy2jjE6sYbLvFAIDjy9Iw+9wJTUOw5FQD02DQo8TX/mu+Eg7TzDX5Y8AWv8vC+xpTsGLaM8JQoxvLAairz/7s87WkMVvRCntzt4JNQ6N6TAvC0iTbz5LKs8OgIJPUVLOb3Ee7u94M8EvdjH8LteW1e8N5X0u3bwn715fKo8DWqcuzqnZTwUEvS83GYnvZBRyjzLQfW8CYtOPFdvxbxDWRC96quiu06BGzzzJwk9wAtru6nYKr0SdKY86aQsPYolJbwc+ws8prclPY9E9rz+6iU9YCfIPABpv72rFQM9ExOMvMoflbzTOJE8V/+4PMpWdrxoLqc8wyAnPbRehzzRTku93reAu4WTgDsRYa283DtavDpuLL3rVXa9sw1lPbHRtrwwTMk8y/QSPWwvaTxoYbq83OwMPYxT7LxPZ+G8kF4IO2OzIDqUHlM8+EwCvY9uMLz/dyC9iMkMumPKhD0oWPe81mMgvVNGm7zjkhq9fV7AvJMz9To/oyu7ooz/OlQFjrvwJLW8dv47PcaKJDzSE7081KyYPK4RuzxP2mC8eKkMvcSFCD3AP9S8s2WtOzyUAzkZaFC89IEKPW4VZLlLB9+8vi0oPewxUT3tbpW6eW9uvUaB+7sO2zG7H09oPV4tMbwu6uo8HqsBPDweMj0pgqC8ww3MPGfjBz015iE8W0A8O1RLLbwgimu8GSW6PPLyzDs2uxq9fc5Yu55SKL2vTKI71dwDvR0YQT1FDjM98sQtPbhzRDu3v1E8obM6vDXpGb1KLA49CB92vRNbJ72SxhQ90K5RPIqFITockD+8+WOOvLydibz/qNg5O7k+PDlWCL1hFNq8UhRfvDEjmryuYII7kL8kPPuv47tCYAe97RXIPARzEb3JdT09HIsMPCIEBrwYZ3o7qd7UO6+yCLxwPQa9CJIZvFiBSDoySdC7OlssvdwqpjwT0Ys8yzmgu+Txz7wNE5u8AH2IOVPilTwzrpo8UA9rPICOXLyi5Pk8hzIEPdjLhjxcSli9ni/qvOf0lLyFaag8BwacPfRm8Lzz8U68qJYGPckKpTyK1Cc8prYevfW8jDyKUuG8uBRCPW5u6jshSZU8qTIvPYNwJT0TOQO9Cy4Xu4vBiLxSo9M8v4EaPR1MlrvIKmC80erKPPm2TD2dbgk9udwNPSaUL70ryyU8eIWGvcP+gj0CygA95GaLO0RG8TyuSWm7VrwOPXBNV72w02k9pRtnvZvwrbx2oa+7GsOJPClO+DyqgCs9JwNpumMKujmd3mQ8g4+BvQ8gGr3hGta8fEq5PGLgITzI7Mi7Hr22u/UWGr0fu4C9IDLXO4arFb2doDo8iUohvAasxTvWs1m8KRcKPOccojnkJwy9hgsqvTmzRT03WnU7jt2Ku6IkJjyz7oG9sO0pPRM4lryVxh09YKs7Pavsj7zb6yM9SXKDvO713zzXkt86UfoEPDSlxzw0z+c88jEePXLTprw2oMO8eSZzvGxOCT2sWVE7dMCIvGQAbbp7YSG817EivXm+Sr1zYZI9bJuOvZwpubyLtB68Gfoivd0iXT2qXeq7XXbEPAvCGjzdVwm94omBPI7cvzwjQ6U8ybGOvZfMAr30/g+9vH0ZvTf+xDzieDw9gDV9PaZiEjsghYi8Wd+HPZoHAbw4evy7E1L+O5Ul6jwMz+y8Y/N/PWREiT0dddy9KJuku1NvbD3eXza8CxgNPZILrbz7wpM8MjC1u4inOD27mEY9CC0Bve2TKT33Kx675qgwPXhlkr1Y18w9pfCNPI32bT2N3Zg8zOgyvNrCbDohqRI549CfvPAuxzy97DM9TVaJvPRTCLvvrVu8SFmUOxoa3rtFHzy98jlxPKf89DvqpNy8ieU3vPCyWrykPfm8v5QhPJJP+Dy9p6C8j9LguOqxdTyUW5m7/D9ROYOsXz2rKbI9510fvL/2ezzYB3g8Z6UKvZBpdD1GRQS9vAJkPMix9LzkslI9CaWDvIrrzzyyigs9urjfvOD0cbxhWIs8Df2hvO2luDyiYyw7kUzkvDKwU7vMu208wNMDvLs8U70NA2o8s8wPvfJqyryWjl+912hzvO6Uf7t9gRK8OdksvL9YSj0bnYs8G77UvJaPXTwc1GU8xm0+vd1jEbo3prk9XbqNvFwy3rvozMM8VC7bvGcY+7vD8SY9D6HMvNRDqTxH1DU8Pe9PvaA/R7zdQLK7Umr4POYIAT2IMbI7rdcqvQTfnzwCdA69nocuvQPJmbsnHPG7QyUJPGbA+zoHqDG9n6qaPDvEMj3FcpU6dsXjvKgfqb0LEjs8DpSgPGzf9zq/n9y7fBGevKr/WL0B8Ei9nBWhO82hcbx12EO9jPJwPQNtB7w3sEI9TbqLvEeBjLwvLVu8wGmcPO+n6zw0rvo7cHNIvaR7u7y3EzK8L+U6PW1jlb2zEF48tnw7vemwvTvYz7c6WJhHPcFn4TvmhbY7xBApPDi62by1HFu8eG0uvWarcj0OfJc8pxDeO7OTIbpj7428DaVYPdxYTj0i7HM9pT+SvGeQMz0QF3q85r3FvNPNDr1MR6E8ImqPvXQbUb1HT3Q7jCtbPaCplj0X25G8YpAIvBPNWz2zrUE63D7+u3SlALy/Ahe9/owpvQdmAz2iVLE96G4HPWKfvbxAVoK8PM1WvM9bvbwkYxI8LWYZvavNfT3wdio8EW3+PMA0LL09K2q8yppaPeKb6jveryI9rIKFOYAY3bwskpa8JSybu/KlOb06zYA7cmSwvNr02Lx0y8O83o4Wva1Fn7yBr1a9wpA6O8eqM70Pghm8SFZsvBRwYjtYWWa8kBPHPBjHAD2VU+09lzAevXgYfrw0fK48qywUvbUOiD2zx7E8vU9DvbV4KL3cFt09rnh6u4AfkryLUtO63mF3Of8ftjx5I7s8akmgPFd9OjzSAHu8dHYzvaujRz22+Ki78rGTvNzXorvfC3I6dpgYPJKggj2uSPy8al8yO2pGBD2aWVy9lr02PG6Sx7z98XK87yrCvNhNVLyiTrs7HwdXvfBau7oSu089idYLvYOCprupWhI99SNrPA+U1ryehfg9XeISvdVBhTzs0uA8TTu1vFlgED0cWBM8YJYIvSV95ry5/Ue8SL8ZPbVevrxQY2o9cZA1vf5lbrwixtW8YkkvvbiBE71+Mr08VcxnOxrUvLziTNY8bjW0vKucsj24aoe8XhISvSI0IDx82wM8pC2KuTndEb2BHdc8oXnGvOdpIj3udTI9AWk7vU/XFbv9Bhk8MfYEPNxsiDv0EdO8kiGKPJ3MNLwaF/A7sduUPVtgFDzvRZW8yFEuvUHlo7zJPX+9rvA/PUnX2zxuwAU97nDMPJKbjjyHV+G8NbADvSWN+LtKjVQ9KhlqPe6HQzraCzq7wqG0PKVtMz1oaqa8yKaFvHE517xvUKO72+8sPNinaTy4adg9tPy8O0wK9TytNyi9c+uxOU4JzrxA+688PAIYvfqpIj3nY1A8IudHvIAIXbzGBRs944nNvOC1YLvKkTi94l1IPDjTbTyHEZa61dy9PCPm7LyKqCS8WGwYvDvdN72BOiw8bMCYukhGmrs1zhO9zdgjPVdTlj059Gg9A2umvTDWPL2aq7I8Zjtlvbl0uTzxRde9aWu1u3xuej3hN1y8IeHNPSoaXjvih1w89jVTPetyOj1R+vw8A5IpPEPxu7yrI+Y8br3WvUl6azymk6a9aQ5VvZZ0uboVH9A8XETButKRLb03U8q9QnKTugwCHr00eRK9lJI8u+CurT0Zt4K9eFrvuw60B71XT9U8PcmhvK3A3rtCD9k8XOONvZvpSj0AAbO7MGu1vPM6qL0LQNa85BYcvUwYRD3rR5k9jBwCvT04iL0d/Oq8j3kaPG/HwLujE1g96g6bvL7hOzwadAo9cunlPOGYKj2Dzqe9juA9PQLjE76CHUu9kAwgPFWTpr2dKSe9+qe4u/+O1T13Z2g8IeWrPYDivb2WSFy9rwRpvXUxT72fkaK9iJDDO7hODrscJqi8MPNKPCMHkLxsLJW8iTt5PFDpGj1cr4e6CKLXO2hj9zwMjfQ81903PR91/TwIi8c8riNfO8Bp77tgTcq8zY2VPPDHprwRlYQ8N1K9vL8+FD1O11492agaPEnCsDyPOiK8wBsKvKmmd7zodji8aMPQO1N9CbyLVMs7MW7uvKyQ47sGjNS7mfj7u/8GIzzAGku8BcR8uyrOijyiYBw7pLsDPc0MEjyyab28NnMgvNdJUDwkWzo8VibUuyOZ1bzN6vU8K8gFPRQFBD0yX9o8KlS1vG1LujwUnjG7rxDcOxqwQLy5SDm8RENWvCmWoTzSaPQ8Xd/OvGeIkTvhUAu7cClHOs00PjxByaa8Xen/vOPJjTxr41S7IsYIPVxeCj3FBgU9DfK7PNBEHj31b4+7rqj5Okj1rjzdupW8bIQ7PEflNbxT7pK8MdsVvE7JCzwbMsm8rU6WvbdMtj2DEsa8ykWuPStwYz17ulQ91lugPfk7iD0BXSO9vr+Qu9DqlbzEsqc9g7PbvWzoZbyR8D0950dfPH6w9rs4bbi9GEL2va7wmT26vmI8pchzvI+h5Lzu4Z295FXOPb5yjzwvhsw97E28PXOCwT0JojQ9i+K9vd6pQTy0z929BHvYvcpsub2T8U68QteaPNm1p72Wxp08kIYTPcKBPbogD1697kTiPMRanj0mGxS9xQK2PVObBD3cf9e9xryKvLKVY70e6Ku773/+vKZ69T09NbI8qtrxvEikvD0x5sM93XqnPGWvqb1DMDA9bK68vQz+xj04i+k8qIKLvXiZo7zdCZU8Ort7PVAOzD3Ei2O9i80PPQfycD0G0Ig8358iPYoJ3Tui5rM9HIyBPXs4p7188+y84AmlPVFwsL3HWqm9pxrwvRElgT1S2gq8x4fMPPRiqz0zctC9mCfKPdqOmj3rugS9IpNluniY6jyBERO5MGCbvWoMgz3MiOk8+lG2POH7Cz1V0xE9/IXwvGEgtzwg9AS9ZA6DvfOjGTyEDL298hAKvRyfg714pBa9tPVkPXWLLr0WTSe9bVDKvY/IkzwosWS78mgrOz8/fj2lGr272zOiPfrah70rzRQ9JWQnvePvzr3yz9y9UP6kvX7NvL21WAW97FOwPM5byj0gw8S8CzTbPA9st700RgQ+N5y+PbnR2rzsh8I9YL/TPdp/07sBQps9XC/TvVgdBrzdYta91VxVPb7s5j338vQ8jRYFPHB97L0EdZi9EdKiPasqrz2b7F+9c3OaPSUG0j3k1AC+CO2KvRkQ9L2TiFC9htPhPcgFmrvfu4u9FWAyPUWZsz1+Qvg9A1Z+Pcdsrr2xPKC8EwOAvQAcrb1FNJE9glRrPBRnBr6LYo49KBp7vdQtkz150TA9tnqSvKLMdD0sZZs9g16qPcTK9LzZjIS9ifWbPThnfT0qRAy8/Tc/vaYzyD1yS+o9BHO3Pdiktb1opnw9RFKWPZWoXT3TyFK90nHOPFI8dT2bSH677X0TvZ9RnL29Fy09o/1oPWuU7ryw7yw8AkZ0vVPxjjzGgmg98D/7uyoVkL2/aHw9NeE6PSsLnb3wW+U8N39APTZogz3EerC9owGbvfjHwD3hFcc9edOUPDwQrLy86iW7oL+PPaP8wL0pcjO8SUurPZx0Ezy/INY8NkzbOlDjoT3xxqO8i3D0PbMjqr0mAok9ZEydPbAKMT1qpbc9JyLGvXBa1j3vxEg8ZDk5PTMSQT3130C98xyyvS2VfbwGOrQ7UwOmvcyoTby7u8o9twXsPd5dPj3LIMq9Ld4EPl90aDy3Et49u+JVvBfYMb2bktW9PibHPS2CsD1FgSI8JuKBvJD4rD3koqY9wPEZPZtFnT14S4o9ht+3vSCUzL3z+O08ru4tvcXtj73PQ429hIB8PWjeqzunQAW+TaWfvWxhhj1be5u8j4NcvdFo3Ty4EjY9IOKVu5pB2D2l/K49fVriPfJH/zyg5TU8nrULvbMlsj2reo0960e5PQgGyrxDK5y9zYZKPFjZzTr97Xm9RcxhPQnwJ7x/0Nu9f5hRvXzItTvTcR89HLfPujaXkb3GYoM9fR6yOwFnITwEq7i9aBckveMyFTxj6RK9QoWqPPektbylVqM9bySevc/ekTy7iHQ9WwU0vNk5LD0oeBm+R6kQPcteur26fxm9SN6iPf04XD3WB7g71o8OvVQ9YjziTwi9pfefvVSeKToasVq7kcgHvvL4IDzPCpC9mNNuvY2QKzzpPuy9KTLMvdxa27y5iZ693lDZO5+b0j0ZcMg9t9NgvQFf97zQTII7JTOpPQIouDy1q7y8eouWPWI2Nbwo7c49i0SzPUuVWb3EqL87do7fvbCUrj0/LpU9cU6vvcDo9D2p2Xk7TtSyvfKorTwrD3K9eaggPKhbBT4ih3M9P6WIPYcJCT6Tng89BzWdvf7Pxb1TU7c9nemsukdmOL2gYfm8F8XavcbvKb3m2YW9mDOyvddzwbyW4je9H17MvQV3qr3XdEO9Gz09PfAChrxTOVW88ov3vSje/juB28o9YlSNPVZFO71rG/K85ypAvdE5NT0agZK9MwmqvRml6T1iWoQ9YGeyPfwi4z1sNK879InivRJPpL1AYKc9O2a4vZ+O9DtG6oc9TCaSPdZBQzxvlh66j9TcvUWOgr21N5C9ChMXvXwsXL1rIlC9msLBvXuCY73vQnm9WsbqPRQEm7wlBSc9JxbJPbzaGL0hzoG9nei0PRDYpDye70u9n7jmPLV1RD1GGK29Y6+zPcLeX72lrr68n7C1PUhp/Lw95aa9fauDPLUder0L/LA9zLHgPVUbGjwrzIK9adenvfPopL0cLuy8q/2lvdiz2z3PJ+89rwwFPeVTGLuAdBI9tBoUvZqfIT3m+5s90S6dPZr8Db3tC609eDkcPSRzaT29deQ7cmJPvdfbl72Fh4u9LRvPPDhsjryz+g49uvaRvKAenj2U1Xs9Gu8avfUHhb1++fk88IoBu6Grwb35aFa9a5CfvWTGoT1c+M49Q2BEvVPRAD6sOaY869zhPdNKOT0dAfk9/9f2PS7Ms72eAjQ9xuu+vesE2L3vQQI+9DqWvdGEYbzOUlw9+heMPcRMAj0YgpG9Gx0BPrZqxDvVZ+g8XRObvS0D47sKC4e91Z5QPAWgwb0uXYw87P2BPfM34z0LHOk8CA+pvQogoj19Kac9gauvvQr4FLwBBMg9YxAqPCXlrb0u2Tw9ZSYdPMb96zxGNgo9tqoqPBkzi73R/Li980PoPLIqQL08Vkw9V+2hPfTOkL09hcQ9DMHOPOIekL1ru+I942zEPVD08TwVxec9N6jWvQzYDj14p5g9l3DXPcQQ7TxLLiK9ylWzPajtQ72tC649P4rePU+jVD1+mCi9UPVJvRmgYbx/Kag8WvsSvKcpi720WrS9rqZjvaU2nr15B2e7URAqPbYCfT1yXao8NLqlu1X3g73wrIi9/pGDPEhaHjxs2ik9JreoPV+bNr2bHss8KNIKvU900j3mRy09bQVnvQG2yTyEmla9BQ+bvMzwMb2Zef09FOqMPYHoaT24wri9KqrIPHrMeD3Nn+88EWsjPadGqj0RMds9f2bdPN+YMrurnWa9MlRGvAPRzTwTj7w9leCKPIHdqz1/QOg90bICvQjq5j0TooI9cWkVPVzhDD47YJA87PNhPYODvjzX15W9ccfzvUtd1zx8HEO8cgw0vTUTWrw7Lo49J/0CPYDBmz16pUo8b5m1vTw4hDtc9Fg9voeyu/cx2T2UaqI70/GoPeO9hj1WUWg8ToqSPc7Lxrz7CG29TMuUvB6lYDpX2aC9BCbHvAc3GT6FjUK7zZPPPZJm2b3Rjyw+SKgGvVY29zyNFt08bgSnPJYEvD0nOOE9wz4Pu5hrBb2CcgS9O9HNvSndOj23L+88wimhvX27DDwvg8K96qCMPYAuyj1BYcq7e0TjvMnWUb3LMbK9A7jHO72f972SWwQ+4bKmPMgaDj5x+fe8DPpqvcBKrb0q/lq8sQ62PCK/Yb17A069OR89PkEYIDvtc9S9xazHvX0U2bz41Rq9OuwKPr11hL2bwN89l8upusQf1TxlzfU9DofUvc6TIzzTnVm8KH06vZ6ksD2rUlu9WPZnvJbA3j2/7qO9ttAZPImqprzNw1i9xUFSvdlNZ7wPAqo96FNGvbOaqr21IXO74ooNPA2kmT2CmPO8WztfPXCDZb2h36q93ZvmPShqCb45mum9Jh6JvYPiIb5hFIm6nP9wvSmaoz16FN042jxqOZKihD3mNK48V+ZvPOnvLL7psvw9ABG4vYn89TxL6Da9aDnmPbHGpbxPZsE9qWSYvBDHPjyX+T69xB6BvJl6ej2/kXI9A3cSuwocsz2MtSK9fLBNvT9y3b3njKE9VKfMvTxABL7v2Hw9oFSavQh1A74Jtik9wDZqvQDzDj7AzMe9FTSgPLVvFj19YzE7xSgHPl+Dyb1GCPq9BgHwPWcujTzImPy9eZr5PcIQFb3qv1K9XMZMva7p/rwUfy89zdvSPIJsjDzcATg8v15uPSug27zlvLI54UX9PVIFB719hEm9iQPlvCVeZz0jkcY9s05ZO7q5Bz4Tz6M98HvgPUm/+7xa0s28/HykPR8VrL379IM9gWVbPOdk/b1d23K9Gkehu/w6fz08BXg85VzVvcVksz246jG8PyPcu0IAFL0Y+XO9xUmyPUu9mj3kzxQ934eGvb+/Xb3L17u80gysudyarj0HXcE90WbrPJvQCb2uauO9kI5wPTr+RLsl1h49RPLNvV3xPj1VOKE9DbwOvQ2vzrzhdr09bf1KvVC5wD39+VQ9vxC4O/aZxT3/69M9Kfl3Pe9QbT2hyqO9ThUuvPgqPb01J9A93y3JPbmN1T0WbrQ9RG0mvazJVT1qo5U9/6qovKECcTz1JXc8gsr3PJ0Gury7XvI9zQjPuq3xqD2JAQQ9MJGDPTkU3z2s5NQ9mWrsu4RpLT3YgAY9A4TYvb7+6j3rcoC9sLbnPQzgvrwN9I4872TvPW9PxL3CiWI9QZo5PXV/47zv3lo98ljFPWCc+bw4yLC90p8nPFiGMb2noOk9hML4PQZHd72VwIS9naoAvPvJ3D0/QJ29DXlfPGUzMz3BfoM9uVzdPGOHxj33BVY9pta+PVBSlD1wYi89opLdPL7o0zziV9U8AF5zvXpkjj2fPZe88CpGPdImmryueH+8dJPjPRP+2j0gK1g8YgyJPKAXrr3LM0W9wW9BvV6htT2cqim9l7DiO79N0T26+Ls9uwi9vPCOEj36sK49ki3ePE08NrwTMZm9R14evZqcibxXsZc9YuPpPatjvz1GYXc8L12fvYB1MD2K9q093QmZPQ5s8TqJWL2901hBvL4awj27GgG9HfPVu7kkA71fJ069fIuWvSivFL26Ps09m2hzvYVT6T016lq9i+TdPS5hjz2KlrC8GXCJvJqrN71IqtA9xrPWPRldsbrwTcA8Z839vAM3HT2j7ca9pg/XvZP1o7390TU8MqK2vSxVFD2lwkY9kz2nPI7/jj0QX7+9vSGmPXiiGj0tGAM8mjyfPGrXojvzwYM9vFg7PXe1wbwxVnG9/2aPu1Lxw7w6jMw9f9stPUaBijyX4Ti9MUmJPSjK3D14au+8Oj6PvQ4DYj1gY3c8Z8/RPWm3ir1foTg8ziHDPd4SN72OpQk96RLhPFqAvL2StIC94pBQPF0oGT1WKQ09qM3tPfAotT1uCF89v1U+PXyFeL1Aux29vB9EvcyJqb1MFJW7vVJBvXxuML2EjZc9C3UnvYz8g71+Ew68OLHEvcd2D7ywpzQ9TY4APunrcDySr8892FuPPcamlLxzHuu8bfP9u2UAHz0KQgo9du7pPLHFor2kcW69xfyoPbE8vD1H2ou9OyDDvdwGqr0jgss9GPCWvUjomj3tqNW8e4d9vaFExb11CbK9v6qCvJgYXj3MLQ28k82ovWbKjjwRSya9wM6PPZyrrLsBOGk9p9vou61AsDwyPAG95MMDvYbkWD2bKWa7vAvDvR46873US9Y9xI2XPQwxf70ivWI9/3VlPV8WAr2VbIQ94caVPZMdPb0PD9Y8ew8lvfnatz3QAiK9o/0HvjT5kryM9/S94/qAPSRbjj0uFIc9Zhz2PIT9tj3w14y9jz7ZvKWQ5D12NHu9ipkFviJNhL2VCQy+KtE7umpwTb27arG9rkNCvf07Pb3ZLlu7K0a5vdlmhj3WkCU8Lrk6PVDsgbuvmMS9RhOlPM9fA75myf04COHmPBr1N71hoWq9tj1vvY7vYT37JYI9Ksahvflm1rwF/Fy9gTnTPUMTC76GCvC8p2GRPUikrz3qTE89OK93PQ7RZz1/1Dg9/GjJPWrAej2Dzfg88c2RvTWK/D2q8Cu8hrssPmy2wLwl8zu8O89UvY6ybT2YRY878R/lvH8JN73h0Pi9MPO2vUTiCb6a/Vu84CYxveH3kz0/z2K9i/uWvcxY5b36wME96IAsPT6fhj0T3sw9mqk9vYLmSb0Bvc+8ODEBvZfCtjwIKky9nAeGvN8B1L0Rr1Y9qz0Evb6VjbhR5H+9le6jvaiOrDsqSwQ+jdyCvRieAT0LF7A7QM4APuZNwjx3GpG99uvGPXRrCb5TrxE9twWqPThYR72oPUO9vnfBvaEajD2a4dG8DSCuvGVLCr17nLW8xhqBPULuCjuwI+E8rKVavTAotT1HsoM8hIP9PZMqwTxZeSE8eRt9vWV+9jyedaA9GgRMu91Yvz0Mnqs8b4DlPDveWb1BAc49cB3pvDUCx72RoAu+RC29PWrcvr1Bd+G8+WlTvVMcuLxwckM9Z72EveAEAL4M5JO94o4LPRwnl7yuMse925aSPW+qWz3jsp495oINva1gcz1A8de91wmZPbuZgj2NfZq8yfGrPZ0z8z2FEwW9yZD1PIU1bD1uXmW9v496Pbfqy7yE+d07KriqOF0LLju+1Pq7TB6XPIqUYT0ttJK9z6AOveBvo73HLYI6suN6vb17MDz1jVu88CHCOdro4z38iEO6JrkDvUpqyr2/sqK8OcT7vImU5b14hoS9h8prvV8Z87zC5oi9OZF8PSbJFD5L8/A7YLTTPC5PjLzliKa959a1vLNYtT2JkUu7niwkO0g1xT1QcU495JWbvR4wAz4JV8u9od82vbNZrz2N60U77nKvvVGrvz3b2aQ99kirPBfrbr2BeJi8/Vc0vYsyi70hm1K9sBWZvFDI2z2nlwA9n+CGvN5p9D3Agbw9Q6OYPeKbD70NmRE9E7UYvbnxxb2yVf67PIcePauckb073EK9c/nHvZKbhjxtLrI9XFiqPVFAvT3Vjee7aoCLvVE6zTwvk829dNTsPMZAljyMPIO9QE8XPSjn2TxmipM9TkHOPWf8UzwCc6O9fzaXvcl5rj2BILE9XY+QvOjGNT2aJ7a95/fKvF091z1+zYK9xCPfvbdLDbw6eZk8mRHAvaO7qb08y0i9vnCSPIX+b71qJ6A8r2uEvVxrdT18sKW9E9FXuhD1Hrz5Nvi9lDFEvFeOkD3wjVU9to6zvfdV17wpoYs9R+eTPU+z+j2Ek6m9usLCvcv8PL1pOp88PQC6vfOu07yf+408SXu6vUK6qr2hz6C9MNd3PaUBjT04YkC92WUWvIMXSL3V6+c9JUCmPRZCh7w8FdO8kaG3PaFUlj2S34Q9X/SevBY9yj0ZQe89mCwyvQWcaT0zjSe9AV2UPQSw5j3Psum8xu2tPP8CzLwwqA89KmcnvfT0Sb3Tmki99oKgvQpIrz0zpWa8uJDEPdcYQz2/7Aq9vFCjvaSeSr1eOkG9TnitvfQP6Ly9pr69ISKGPdeQOb3J8G09lhfeuwZ6uT2HLqo9olWyPfP/0rwY+yY9E844va4+HL0dQ0W98XyIvfKyhr2uDbU9N27YvV7yvDxQJje9EHuYvUkmJr29qWK9q1/hvKz8Zb060o+9YurYvLl+bTyzRCi+lEcuPWQ74zwK8DS9U8ZkPC1hgb0mFAY+IVfPvXrHxD2qtXa9FQ8qvRjL871A5bS9bdD4vUf8nT064ra93HucPdSGwL1HLZ+9Ou3kvMAUMb2JX6E90kpqPOAS7bxvMIG9nFKHPQWt7bwRR889dr6Ovdkds71E2kA97xP8u6qMhT3UKIg9/eaRPeNLrD1kpmS93ulmPXK5ir0XcbG9ICpdPcAcpD3WOsC65ljYPcQ0iT3Ftlc9fGShPRkspjzdfqY9gL11vLTD2L1H4QS9tYLpu7clc70n8sk9VxciPdPMYb0C+sI9sC2LPQqXir0Ko/46AaSXPU4Uzb1j9sk9/lcyPbQ71j0nBLq8ufl3PXHb2T0VHIo9CHLEvfpTBr0IjP48Y6G+vSk0x7zY1co8ttKSvWBFdzwKCZ69R6MIPfYtL72Nt689ePM0vIxLnzxwySU9nOXIvR9EkL3cBnK9DgQkPX+9xz3Hnt09m9tWvW2Shz3afoO9PvS3vTkc1Dqz9h+9e5k2vJlspj3Xn9k8CYkqOytFkT1piYu95JGLvZRVRb3ITDe9KkjKPTqASj207p49md8APkrWxrv1OQA9xqTwPKbkwTx0R3e9+KPwveVOmj23oWW8xgEQPpz1C77DrD69H338OmvHoT2mmFi9IZ0uPdkhk73glLQ9tF+TvWiFrj1vkLM9BdQaPRtgRL1Vzxe9ADwbvDyMmD0s7SA92IXFPGUWAjxBQp+82fflPLJI0r20nkm7KzmZPNWS0L3J05I9kSytPfiqtz3AB/K9hJiBvd5ld7tAROC9AKgMujqK7T2BxwA90L7bPAAp0LyVoK49GyC5vdjyq73etVY9+qv6vXGepL0s/fU8v1FNvNMa/j3PT9c96N5BPSKQkzyZJ4G8yH3HvStS17vmU7W953s8u1svTD2DqgM+ugCrvV+axD1ViDK9nASAvTLx6r01osc9uyfgvWUXx71zuoi9g1cDvitQOLwXAWg9LiK8PfDEyL2WGFO8gsM2vYXY/j1BrYk9VlrAOWV5hb2c2ew8mhagPfHFkz017dc934+Bvcg5LD35rAE9Ja5UPbKWxz02bOY97notvBrtpj3Y8IO9KwWyvIh9rD1Pxtw9JMmkvZkrY7zdcss8/zadOuXv3j1GX5A9AV24vFrkOj0CCkC9sZQnOj4/0Dwm5EM9UUjnPb4thL01pr49UsyOPVhQZT0srYS9FT/FvDCsxT0AkK09E87rPaFlYD3/FbU9elX6PST5/LzuZas9gVtxPQfHhj3XBmq90jLUvYvFlr34bCU7W60NvYVryb0JNJA9xykZPcRnpb2vaFU8f66aPB7o173nKeE92HnlPE6xt71vcC480A2pPXegir1UQMs9oL2cvaTs6bvynAO9XL/3vDSjTL11/DK96JccPRrKrD3UkX69DxdTvM/bhT21POI9dBtEvVsPsr1ASQu9PPV2vEfYZb3pxhW+kdFAvSy7lLz0OYq94C0kvbPOnj2b+Vq9OsRqPS0EzjxCgJk9UetqPHr/hr26eaE8n3y4PbgGvT1Nc+U9dIq1PMXC7727HXm8DxgkO/D4zj3s61C8xa/pu/Ov2D31iXi9+EMCvKReK75+aB+9x8acvalkq715WnW9OShHvUh0JT0kc7O913rCvdmnK7w1s2I9VBxLvb1M6b0rDnw9kyiivc3Foz2aXOU99cTBvZjBezx99om9Ql+PPTMtcb2a98A8UHT2vdpMKDs7dAA+FZiMPP0zyr0dq5w8MmTXvVV4dLyR5gS+GSX/vEoFIL7oDFw92E9bPNa3izzcIKo9A437PI/Z0D3vDLm9t8PhPf6Bcj0oeCa92o3JPX0BhDxYVZ29Wa/KPUmERL2+0Bo8W0uSvRlFnr0rD6G9vZLivClmFz3dG7S8p2Xfu+MSnb0Q/Yy9ytnZvUBeEDwAzKk91+ovvXzLa72HyxG9ifFMvCO0Ab74tSS9/J/ZvXRckrylsbM9ZyGMPXEwJD0ZNaY9OzepvSKthr262hc+zyyuPf6e+LubgQM9lFFRPJ4WHr2SOKs9Qsz9vcSDGj2qHfo9lOZWveKYJT3B9GY9yCADvdB3kb1rcxA9ey9+PCGb5j164ce7J+6BvCe+wL01rOU9AbbbvNY7k7w0YZ49ItN5PJwFqrrEehk9W8fJO7W1BTxBmp0851sdvZdTRjtTRgA+vNjtPEfoETxNQ8G91YXAPbJwhr3wR1C9EhGvPWOcObuffAe97Ju+vMvFgzxnSqU9NXtMvSGMbL3ZPQS+R1nhPcddIr4KCFA9Csn/Pb2/UDwEtJS9YPxsvYiVtL1lReo9lc0mvOtbJz1qaAA+vZWPPVfk3b0gFzA8mTs3PYrPlDzSbJI912NivTZQm72zR5o96efvuz1KLj3PbRA9Iq4TvTQZCjzTDA492Da+vfZCkr0aSQY+0diavVvDm7wJ7Js9e9bJPeXpS72/++E9M3n1vAAoHD3A5oW9OmSSPX9UEDuaRWs934OWPP84sD0KNAs9nr4qPc6SNb3Vkw+9DzvHPZiZhLzrPIa9a4eGu5hpS72EWbC9MFGIvLEcSz2XUUQ9U9NiPdff8DsCqsG9nM6mPN1duLycIlm9lxU4PUWc1r2FgLS9gkvyPZzHHr1VvJU9HCyvPMzPaj3S6Ho9V9DfPZTg773um7O9n0sEPsu5qL3M+mE9OjOfvYnI0D0Vv0K9XewNPA0gKbyx06g9XrfiPfsLbT0ajNC9SxeuPRay7rzh3/89YLByPByj5T2RkC093c1+PWtRbD2CKX89ay7avaNj4r39Xty9WkIyPd/69b020BS+L5rbveo7Cb4RGdw91NUVvSr35jwyT2a8Zh5PvVSPCb7NhzK9nB74vdOJ9j2DO4Y8g/bBvEEHQb0OwPo9c6wiPtlzPj2a2Sq94fYCPhSu8j23g6O952yPPa516704l0C9HPSWvfD2N70mZxk9RmUbvfJ7krrxC5a9ltGBPEO5qb2ZuBI+cAt3vcQ9n7sdxbk9WnK3vULDD76HftU7fURgPfdwOr3vai097nGvPegzSr2MU9Q9ZViXvbKMpz3odwG+Obm0vba5U70eNdk92XLoPEuJBD1G99a9SoOEPJsPIrwiPbI8SYy5PQbxlDt2gpw9d8flPBzU8728cFO9Y+scPV2FFT7AEXE96OMyvMNjsD2HOBQ9xhb+vHjdzT2YkIA8GrqqPTY0aj16lVW8sK4RPmkOOj1G+zq8mNYBPsmwUb1IrNQ9CjmnvAnhCD5VRVY9qzj4u6FBCj33Gf+8TieVPYjwaLwOsLc9Z82NPdO1kT1Fkng8IWJavWLnwbzp95S8YNQcPc/mtb2mLog9aRfMvd2XrbwD8Ws9h+4BPpJnhL2yj1C9iKjGvZbSSjxTnaM7jt8APuvODT1+DqE9e3qxveBzGT2EN5s9I2gyvDJ0wT2q4YG93SBYPfA5Or0rD+M8s4TmPeQo9juAQYK9QWWtvTOeV72LQPK9w7EqPJMmYb2r1s68k6U1PWj5BTwpAVW9mXKbPdSJGjwZNhi9CSLvO7VkNb1/K8q9SCKPPBdT3r0Oznk9LeEMPQrtgT0WEy+9fkmqPBF1lD0TSRc9pi0GPq0lgj0ndbw9oxxbvYVXkTxTIqo9w6e3PMQw3D2nCIq8ho+WPajwCz0Wb2W9MR6BvRLuhr2ae9k6ei8rPaKQ6DmALJO9HRiUPQoqxLztwFY9rWG+PSzJfr2YDok8WAMlPTCkqz1ZJ689aIBBvVPcsT0dfWi5n8klvK9oBL30RZG9SsMOvb+9rjxYqr49mxdqvPabYb2okO67o/Qcu5OglzuI0qo9l16wvVdfhjzbA6q99bgfPW/n3D1jMTU77ujFPSahfj1itIa9Q53LvB/Fm72N6G89Xtt7vTO8z