// Trained NCA weights from rmorenoga/cube3D (3DCubePlatformIO/src/neural_network.h)
// — the exact network the physical ESP32 cubes run. Float32 little-endian, base64.
export const WEIGHTS_MANIFEST = {"percieve_kernel_self": {"shape": [28, 84]}, "percieve_kernel_north": {"shape": [28, 84]}, "percieve_kernel_south": {"shape": [28, 84]}, "percieve_kernel_west": {"shape": [28, 84]}, "percieve_kernel_east": {"shape": [28, 84]}, "percieve_kernel_front": {"shape": [28, 84]}, "percieve_kernel_back": {"shape": [28, 84]}, "percieve_bias": {"shape": [84]}, "dmodel_kernel_1": {"shape": [84, 84]}, "dmodel_bias1": {"shape": [84]}, "dmodel_kernel_2": {"shape": [84, 27]}, "dmodel_bias2": {"shape": [27]}};
export const WEIGHTS_B64 = "41gAveV/Ab1dgNg9IIkCvWQYBj33EoU993JfPLMCD73tgBC9xIoavZrljb178iW9ouaXPIsCW7vpmIQ9DNNWPQRcT7xnyoC88pPJPEu1Qb1K2tI9jQoEvTiC6rj9m7q9aDWhvXw+qj3CpI+9HWjevAvYfbxpuBq9TFx0PS1VTD0cuGU92n2VvZJYg7hULbM8t9boPFkadrzlGJS5005LPVZfk73T/C09dBQevXDgAry7g3O98qMaPCKedD3w6oc8SGqePO4bVT10heQ96149PAeZbT1al3y9QvgQvUQ4ELr7aEs7gZyivGwJ+bwGFTc9gVLvPD6QxL1d9AC9sJhHPQiLZL2wLIS86OcpPRvyxbsu72U8sttGPbdMcj1pZBc9js+lveLpJT18zj69TX6LvK3wSj23txW6J8MSPd3tsbzjXi68ONnlvJzrG70BP609+vCPPSEyoDzRovg6iDqCPPytpDxJBQs92gd8vP1HtzygRim9XdvjPOSGEL0xJ288UxhdPSQ94Lu7QKM8XnpBu3YVmr2uWGc9kaawPKA+2roSX8M8ZH0PvRbtpTvkbiu9Lx0bvVq9XL07yzg99K5rvEKxB72hFvE8fZAHvYWBSLzhZ4I8KJkHPOvglTyauee9wf88vMP2TL0mlnA84RiDPQ/fLb1fUho9rtZZPUehGT05D5670EFNPHdZ1Dznw7k7oIK1POENGL07EAm92iGNPRDBfb1D7j68vvabuin86byCGN68FOjZu88NVD3RWm67hXkUPcOQLD3g1I+9FpY2PflfwTypPTA833Y7vcDuez3dr5g8TDVXvThZVj0WJQQ9co5XvEwIILz7aEW9uyMvO33BAjwpRXK9gAnkvKRDbD1joLA7BuScPF3HQzxvY5491+qZPE0FXT1mAym9wXmDPQ7+dDtcpDk9HyzAvPXmk7y50Vy9LC6GPK+0DD3KGKw8vN3APah5Mzv69de8Ifo2O5pnNrsA66I8p5AyPStiGz1sd9y8oWkyu1XhwrsM1y89IC/WvV3bjD2ysUI9E3OkPHw4Kz2l7QI9KsqHvIOjSzzVZga8aINUveTjrLyUW1W9Jj82vWlXUD3aCGg9oFjaPOLjBD22DCE9gHxjPS1phb2u0lg7Y6WDvI6c1DypZ8c7kB5uvIPnQjzVGFc9xLZlO+DThjz8WgE7ucODvUzaE710s2s60tc/PT6BTDtzs888OSauPQfhHz1tdL67Eee3PbV2nj2FGaq8YlcpPaDqEzwOrYY8EGZsPS5O7zxoGgE9I/2HvenZPL3yAo+8eJ9SPXZIzDs+dTs6C2WhvJ9X8TzW+/s7H9CkPFmZUr3IN6Y7/BWDPc61NzyeS+Q71Up+vEimcjz+okg9EK6BvW3VIL0Lx+6548mFOzgmTrw8S8Y8cp4cOwuovLwg6UM8KgN7PUV0GL2e7e+8PVifO90sSruMWY08nk4KvVLCGbx5hB69WskfvdxTDD1y5D88p2YlPfcdSryshiW8PoKUPB00yTz9PSQ8rJ/wvPAjLb2oQ7m6Xe1bvAZ+KL0Sgnk8+80DPXoAgbvznIY8OgnAuxdh+jyRWB29/KX7PI/h37xaFC686iuRPLTvWj3RwrQ8aTFHPWp6+zqytqE8G3c4vWJFR70SWK67IkkNvK/soDx1MpC8aAgZPaPYtLpLxXe9V0WvPK0/Aj0sHTK9ncGIvebVoz2d/Ro7bomcvHTSvTz2cmw97AojvXQ//ry0nk+9bM0HPU4JRbvIMaM8lggAPUDsHD2F3U690OfzvGRwkDzcwVw8/ttKvdzKMzwRQGc9k/SNvIs5jr23dQg9YbMxvbfUJL04feU8sEI0vZYKMb1wiGW9kkfovJg0N71r1Pc87mfkvBDh4zyhzDq94biFPHq2gbzON3O7j7yMvLDKrbyI4og9QaE7PJ1nfzwODkW9evZOuNOCQrvdIRO9hfvDPOzCxbypkvS8AGG2vDtddbxFoyQ9g428vCqzWL2Z63W80XasPGKGvLuzAA29Cn4hvXW3PD0z1ks8Bl/PvTSP9TwMc4e88m1RvJhJ9Ty8irq8L7AZvIClN7wfWyC9MKApuzqGjLuxWE+9sdXDO5Y3Br3q96k8/SnsvIwKT71YD2k8blgqvTwSCb1rwcu8xuPavNnVfb3N69s856OlvIhUJbwZuNe8TkuFO7FVETw+4/48Q5OAvaVtDLxCfik9H5UVPQfCYb1pBQc9XqLjvJm+ljzuiRE8imP1upleq7oeVyw9YNsXPeOoNT28Vco8VjRTvT46e7rD1aE8qZ8TPEdOK7zkcmY9PjxpPZY8ajweGmS8l8b/PF7onrwQdZY9OF2HPcT8Pb3sO4Y9txxru6glqrxuWSS8gvRAvbhzCD16UO08OyCbPFT/BD0FvjM9POJAPUmoBD01K4i9Nwh9PHoo+TyGoPC8InSJPKn2cbxvMgg8x1q4OyhcabzRaYu80528PPf9kL1k9mK9IjdEvSE2Jr1bp5U8jaAdvI8Wkjy+9S28K3N3PYPT37zGnYo8lBbMvEtkF72smhs9IaqoPGGc77ziSym9Ta9Xu2UOKz1DdHg89vi1PU2RzTzyO5u920wiPJsU0zx9sUq9+exFu45YEr1drTC7im2svdhmvDz6Kya8X6ALPZf8ZD168qq8Kwi7Oo4DwDy/t3q9MHa/O5rNcrwpo3S5ZkZqvXFznrr3qp08Fhe4vICxmbwGKSe9F/LGu0ZH3Dzsbd88ttwyPcR4brvhETs9Jz1gvHPlX71HoeI8jobFvFEtNT05/+e8PuhsvCshxjzrsYC9Syifu0Xp0bvEm0U9EXzTPJDxmbxloC89Hs+GvJgBhzz5m1I8b6A5vcu3LrxSTv678uUvPaI4Yz1gwyw93nQ8PQgh8Twu4mu9FfSsvGdMm7ye38W8ZD7EvMQnDbx0pL08wafqPADEsr3Knz28IBUJPCdUFr331iy955C4vHnaJTynupq79TAVOU3F7jyASRY9lhm9PBp4FD2xr1O9gCbNu89vxDt2rZE84JyrvEJFrTuzM0w8cHK2vOGu5Dzx0DG9p+R7vBmZtr3UZSE9PENnPTpiYj2UVdM8blmyvBBsBL0J9Zg9mrZrPdsY4zxD7Do965LGOxlpNT0Chz29O/mNPGLanbzCZ3i92tabPQloA7wmACw9L0GYvO6nWz2aGXu9psXKOz4U8Tw8Um09rp99PYyYnjwvnom7aM3mOzJnBLy/Bfq7DmwlPTLkgryB2bi7lMOevPy5l7z1vAY9dCoCvZ6mszxKRtE8g5L2PJKHNj1kX928gCFTPJvTnTvcemi8moVGPETjyztwb1c9VWh7O3J3Lzp60KY93M1KPTYwFb0GbW+774JYvOWuoLu/kI08MOQYOg+tvLz/gvU82S1KPfDHiboLEj09oNIZvByFGTxiJ2U9QpQWPf4biLyCuqQ7WBpyPOKrKjygM9Q85PehvJv+Ezx46dC8291QO9wb07vZoGk8FLFSPE/qUDwEBDC86LNuPRJ8MT08a8C80jWjPBmBFT2apY28jZeNu7KHeLuiLoY8ZzRcO79vRL3rb927is67PBPp+DsShxY7FXMhveN9qDwY2V06YXQLPQc+/7znURG7d0RcPRiTzDydspY9s10vPfp6mTzz3i+8SchVvBCTMTxyyMs8u9KZPO8s+TwGAue8sxD9uxAMEryRD0W9WHOxumTNvjwpBGO8xjhMPO3hCjwcPVg9ugeFvGeuej0S5w8868LIvCQgiLx9P76703GFPCl3Ibon+uU8OF/xu5IBCD1NVac7wYMFvRuhlD0NP3K8j1ARvPGgi7zNxWE923k4PVzOYb2Ikyk9p1tvvDCa9buQYAK9xj5rvVNJHb2yePO7gNN3PKWnMTscMTE8hAw6PR7SmzyS3QS8UhYNvWeoCT0QveA8C61jvfBYbrv7GZY8QHXaPI9FxTsNbxe94wSnutdF2L2vZRG9j/CiPPvGc7wnXsC896RzPYoEJDwkYGs8TwqWvOYJCTyIavQ8FDiHOxMs8LyxQQC9H3qGvdO0vrwZg/W8dJDrPIxW2bwU6sG8ZTaqPXH+Kr03FgG7fQz3vNyxurvZz0A9zoimPEkShzsrqyk9HmQ5vXN4+jyJBRo9CYfqvEG3B7zE1XG8Yj5DOws3g7spdQo8NxQCvWlOWr213oK8uAE3PLN8izwyQDk8AQnWvPGgwruzNRK92y9yPf0lUjxaTzc9O3CZO134AjwmXyG9+8FIvLo5nTyHjO276RyGPNgjvDyMnpI8e4gDPdL//TxIAoY8P1bkOwVGHj3e3g07tWnVO43vAD0142U9tdWsPGF50jzHdjQ9VvR0vPZw8zzpktA8nzhQvbYZxjyHhdA7ESQ2O95lOb1RzB09kWU5PMPfGr2Lpu482rthvSTUGjzB4mo9B1aNPcc3E7zNbu48gjRaPVzjETySmFm8NA9rOmk4pbsW1jk9hJQKPfM9STyVFcq8AVafPAIIdDwfz9A6xIPjPDTU0zvzsRm9gIAEvOHJKj2cbUE9+BafPDtGxTtPErk78zAyve+8Hjwtf2Y8dR1nOkItbDxY3nE9LHmBPWu8XD0DBOo8bHx6PBzfSrwWdqS6VqohvCwVMj2j8p09gOsdPWQbLD3wcqY8dqNsvCgKCr1OHzm9rnZnPHaKlb2V8F+7fiMavbK8Ozwsr+q81BKYPOV95rxD3gi9uEc0PamcAL2Fe2Q87LQTvawBGb1GAvO8UhS5O0FiALxCtdc8FLF8PfgmjTy5yLS76jOEPBXU7rwOXAw9PbllPDAFBj2zBYi8NgeYPI5lRT39p5W8+X6NvPRQUz2hKwM83PBgPWRraD2B2ry8Fr0TvAME57w2N4o83IJ6ugKwXDw6ZcW82EeAulJ71ztm3mQ95K6IPTNRoDxRwqw88wdSPYvkXb2Xsi88rU5Lvf8LhzzYDc08h+GavEqP8zvBFoq8V/lJOwsUursLpnC8tMk7PYtiuTxP4p48kFgWvb1W6Dwjt2i9XMNNPfwWv7wwDRC9EmYZPe5BrzyOjhm9yocNPZ5fN71M0VW8vvMcPHC4pL2qriW9R58zPOf8Fj0jrRm9FsMnvNjF4LxLTaa8t2pCPIj2hLz5T8Y8WvacO0xN5jw304Q8h5SHvSsUGL2X7Iq9U8yoPNkuMjx7q0G6VtI8OjaMh7wkJ+s8iQwUu1im3rsZb5q96Z2BvTRrAr3niVK9prFVPXA6PLorDxO6DHjRPIHKPDy3cny9fNVkvVLXDDtS+FG9B5WMOr4hkTwM26C83WgFvCqntrthf6a8dP2svEOEGr1XL4c8QILgPJo2PTwZ6/m85choPaMeI72i2O+8HvMzvRadZT0caKI8yzBXO65ej7zN+LG6E3t/PfZ6JrxKAoM89Igtu7X2OTrHUJu7bAtCvZCizzvqn3G7GwY2PePzAL2B2CA9vY1OPWLNM7yIm/a8oICIPb7NCD3mtp087t5TPSZMkLwnFjM9tR5Tu+22Cz1KDr08bbt7vYv6MDyJ/iS8MYEPPK5wGj2QIF09dxQtPLcNFjz+6kS8r16VuloYnr3WvCG97sWHvCuN3byX50M9GNsTPJ1dhzondDW8v4crPVFrHTuptIu88clIvadRFr1qw7G8bkTFPKYvIT3ZXz08UWqwPUcSi7z33Ym8DIEzPeeXob3t2xO9NLwqOxSACrwge+s7QCItPelqeD1/Jfg8V0MvPYJxoryJ/ga9nl0EPVbgAD1J+D69+7cYPKGdMz3UP9w8Blp7vSy3Ljvvgw49Cl4qPSShuzyHDdC8HEWdPCjsST3QjqW8GQX1OoLgUL1z3Mq7yCSFvLqeir2tTui4D2aHvZxIcryUsdy8A51kPEKM8Lv2OSW9hP+2PNww4zw2+vS8JgEovWt4Mj1PL/48yHWYveCpbb3w1Z29h3wPvBMER7xC57Q88Vo9Pb7+gTzTY7M8bv2AvIKfr7w16Hi8O7EdvbY9Lb24UUy9Z4AbvFo9LTzHjLE8yp0tPSczJT1N2Q49FeM5PCtfPrym0vM831ctPbFRRjwSEl89MHSzvB1z4TwkQVs9J5naPLs/ez0wgHk8vPSHvOAdDr0aAxs9AclcvbVFAzx1SB68Fu73PLEKFjzfBku84lzyvOQ8+ryJfyc9hA4cPa62jLxYc1g9tnJ3vJPS7bwX2j49oVhWvME7JL3zsfy6eOUqu8KOnTxy5mK9zgs1vCltI7wnO408Ndg8vQPWy7wDAXG8DgogPQObybxSV/g84G6hu+aNcT3v+8A7k/U8vHIXHTy43BQ87vtNPTCbhj3XlXK8ZFsau5F3m7w3IbI3WapyPGFx6DwSVzE92yHOvC0URDwtRAW9hrONPYON47wR2PQ83J9evEdq2Dvpn4c9D4dlvP71jjwNOm69sO+uvEOKCL3+MgQ91O4WPVNQ17x8ooE9cJ1Dva022rzNmK882ZJMvc3QCz0d1r68VjckvRG16bzuWb68OIeBPMpRrL3hiQo9nwDEPF7zjrxZ02y9b/kNPQCM/7wXZlw9O6FHvfkZeD3Y6t08Es+vPF3GWLzqswS9oyNTPd5Ldb0SOaG7iFAPPXn+1bl4nUc7P0ebPHxcvjvjtSa9ezv7OQfSIT21DTy9L+OCvH5m7DzSXKm9QdMVPUva+7xmk4U9etYVvaE47Lw0ABe9+gwtPHgxxTweWBE72DVzNs60GD28INi88+lKPWiCuzzrfQY9TW2KPdW5Zr0cxkK9PfGgO+tvVT0Yzjm8ip5svOC6ML076OG71Ha9vAkHgz0irRu91h1jPUR2nbra5pu9GqedPbJOZ7q7d6k8nhx4vC/SzLwwC704pk8avT/qxbvXTBc7mQrbPFLL3TuSLFa84O/VvCjbS7xXqSc9U4h9u3G2yTtYILw8ZZdVva7NqTrHXju8xTLwPCAmaD2d/F08BHI5vQPP8bzgN8q814ykvMdFAj3JGzO7YbjyPIWQFL2K+Eo90d4xO1/VeT3Ft5+7uXUNPccCAr2m1GS8CmcFvfqmxjxKhMu8dAyiPaHZZbyD84s9uzudPZOepDzUV1a8PtMePUoBdj3zKdA8kbONPYU7mT09A0w8gr01vEbMpTyfzRk8wzSzvHl+oDxakt68U6zfO9zgiz3g0Ti9rFMlOpXQlDyurQi9jcjCvAQsurwS6UE8xvLHPAueIr12UI28n+AEvDsCebyv9pS8NyCrPBOixzyVESe9QAH1PPBpmD0/y648vSoLPbJXnjzhUA29j+vAPBOh9rxe8dq8RdF1PEW9tTwB+s68jD1TvHuBzjxgQ+G81l4uvZngpLwdPYs86jC2vGfYzToVlb+8WHLcuijfuruyQ849f6sqvd01hryS1qi7WJsePXJQDz0PmZM9g5V4vUjblzyfKr26Cf3PvP1SIT2WLum8+JNCPOv9pTyas227dIxLPaEm1TxXcaE6pYfRPLp4Lz1/jEM8lNqyOorTdj0TUx69FoIiPfc/5zx+T4k88Y8NO6WotTyDHOW8aClNPY9UUT2QLYU7m4RBOlD3PD12hQQ93dmQPQPZHz2nrnK9nP+APIicY728MTk8+MuwvKtfgj0N5gq91PymvWruz7xR9k490437O+5IujwD5m67e+ofvXI9rTzXnA69gBwDvL5ourzh8ac8qZboPOjto7wnk+g8LtaiPLmwQTxc9hG9okDxPIH6ebwdmqs7kxJCvWWlXD2floi8fomxPLNXmjxiHRu9Yr6hPKIG9LwGpkA8L1EdvTT2uLtAeDi9Tu5ZPbZhuzw3+lw8brs/PV8OXjymYAw9uoKJPcTEV72fqmM8jpSdvCluID1CDiA8aPl3Opxqzjyn/u28XwdDvdxxpLzLSTE9ROv3vNkjpLzbbk+9mxYYvRkG7rvc3m671Tw7vbpaQr3NBFg8AhMWPR52jjyaRp67RkoevbBbIzzAnia9LzOIvSjOZTvB8RG9SVi5PPj75LyFvWQ9MnmHPBWRYL2eHxG90ApdvfIa0DxfhcK8tKmKPQxrnzzXj2I9g/eVu22liL21hRs9mmEnvKGfjTxfpqO7TvqcvJihPrzdwI+9Fcz6u0bCGb2lHw09iiZQu37jubtzCTW6/vW+vB3ZrzzVcrW6IApWOolLFTwwxiq60b4lvaqxwTwG/K+81Tsgu3wpHrxQOsS8zEVkvUm/UrzzYH28AGWQPFTqPjz535k9v3/EO4aIRb1Wqqy71azEPENB8TykP/m8y9EgPaZTljzhD3u8Id1ePb/UiT1oOgq7viuMPBQ+wTwn6j685mLnvG5TWD1J64S9iGZHvXAQgT3T4du7YVU9PTqM6DzJkrw8NBNrvMwJbDx4xoC9xmeKvGSkG72GTh08nkbVPC6BnD0+jzu8VZ8VPBw9Cr3XfXq8yuMVvHW6Ib04f7c82CxAPGFwrTw84ze80QaHvdfrhr2gnL88ywNTvMLrxbyDjy+7imwxu00thD1WoPw8iabuPFP6Z7w9Wri87dgIPUv9nDwHmN87r+9NPOUcqDypAm69mzPMOQJCDjzD3bm8NFWIPaOMhbzXI7+8UjBJvFwmJTzZzPg8Lq9qPfb0Gzy7/qq8wDOmPGx/uDy/qk47t5CkvFBUKr3ouQA9/p13PDryXD293ha5cpPsO9CGEz2QgRY9HDf6vNWowDygv/67zfCxu2+YPD0frcM8whoLvXdmZrxl2M+8y4YgPPHnoDzm81c7kKK4vDkcrbwxF7G8H46mvJT2Tz0nFk+9EUKgPOscWz0cHRo8rwcBve6jRbzhndc7ZB2wvMtEzrz4dg69MWxXvQlcw7zcsIS7jhq8PCXJIj1E+808tsFrPa+MLL1CvQ48wswAPaSklLrDq9U8j4QoPVSxJLxo2hm8og5zPHqB8LzUKEg849EqO+4gdrr8GCa9FkutvBj+NTwnpT091YDwu0zzYj3CUZM8ZdyGPAUBgD3A2NS8afv/PPMsQL1n5WG7kAa5PJExizyQ3XW8+uVFPbxriDyXhdi8+eDDvZfNIr22dyC9QbL1urJroLvWuV+8gRvQu1F/GT16nkG9ZgPHPJilxDz+Q+S8lWu/PBcWSrwn5Q499WVovRZj1jwcFVW9fOgwPXAEobubLBO9oVbDPGD7VLwrHcg8haVgvPgRuLyei1w5dbOAvYuUNjx34sI7XeKyvAm/RL0Rw1c91pkcPZ1gM73DIoE9hbCrvA+i1bztZxm9dNAxPDgqTj3QRdU8iJt7vBedMb0xJ9Q8OAXtPDAu5jzl4+u7Q9flPM3qATwBuxq9pXdjvGgTbDwFZta8O1YLPQTo/Tvd/vS8+0YsO/VpmLvwDTQ8a0vbPOQFDD2eeAI9LGVCvFZxZ7wTsKQ8cKhhvZDOI71U7M68B6FzvUTsmztYASC9a984vYaHmLtFR6+8rFhlvd3siDyHcAM9G60JvUHXy7zGqM88l4IdPTqHQb1W7La8xqgZPSyXCz2ijGQ9bwATPJ4rXjxb1Ns8gngAvF04W71ryNE6vr/9PHg3FjwW2hw8c/0OPee8JDu9w9q7NzxEO/Mo7bxycSq8msoRvV9a2TxTplK8kadiupx3GT3rTCI9xHhPvR2JobwJ+Fu9AMgUPZeBYr27kqQ9F7C/PILBAz3RnLC8NT6gudQ5rLxvqQO8yiTNPNq7hrwmsqa8BRZ1vC8NjDxoDRm95UbHvEC89bxIxAU8ZVuAPN5fNTw83uM8dyYBPZTUt7y72yk8OLgyPV/1+7qYeqO8VekOvUiJO7s3YsI89VSxuvhIJL25UbC8biqSPLknEL2CD928jJs1vYeLsLwHqgs8I3dDvNo9wTyaOfW8CxzkujTgZ7t6yJI8Jll4PVj9ZTy0vG28IuHWPPlglDv3w0W9G90LPRSSdjuLkWW76FOLvKliuTy1l8+8FvDIvGMVRLwv6F29G4oovVjGWj2xOXo8/k3vPEHYWj10qCo9EmKtPDdbAb35goe9bdnoO966MD0hGhE9H6uhOwJSgLzqs+280duHPQW2LL0OHf68wHX0vAvZXT3OhZe8RHzAPKs2sbxAORg98PMWveCwrrw1PqU6EFloPEWnvDxTetw9Wb2GPPhborzuySy5AVmhO3E5ST1zkw+97AAUOxUZB7wGRho98Lp4PbNybjvZeYu9Mn0lPaIfBLtEqc68h1ytuh15Fj24QbM8DMNyu5Il6rx8KpS8WXvxPO2bA71+i6K9pKeWPBtc5TyP4FA8lSe7u6BF9jpZq6886gzMPJQ+WD0D0lG9lFirO4UAmL1Ef5S876dBvdzBPjz9ckE8qXW/vYHjlbyAexm7bQzHuoNYKDuDwsw7+mHdPHllWrwH3Qc9+QBhu22nNr3GJfC8XKW5vAv+krxQcUS73hBfvT2In7xD5hE85UHNu/c5LLwETUC9gtEKvT6tmblCfrc8T1DZPOz1obx0ivM8Bc/wPA2R1rw7Xb05TuaPvKI+7rz9g708GrDlO86jDj0EH4a8E5jdvMPJ4DqLZmW9afybPKbTXLwNztY8eIqbu0KNTzxfXgu9OXH7vNh4aDzsjRq9C5a5u3FlNz2Kqb88DjGUOzHlZb1qjQk9bZz6vOHLbzwaAuG82Gg9vTOaNDulMtq8K/SoPG0RWDw2d2m87XtovL39IT3RJQi9XxoMvFuxAb3QdBI9jfWXPMCssjxZDG68rkQgvPq/Wr1TG0M9cTqOvXrS+ztJdBw8xGBavIH8Vj0tTJ+7esn6PB/0KjoGw5471L/zu24Y6rt8mbi8pghmvU6TvbyZgMS8r8s/ORqgETxxo6G8ZMzwPHvYYz07HhC8miZVvUAyYLzXd/W8SjFnPQNTbrwe2ZU9iyGyuws3ST3Oe8C8hkx+PJ+bLT1ABBE9vhTpvBEPaTzUk4k8avIxvC2bdbxO1ZM8dWFavLRJTL34+Fw5z4vivKYdFj1gbJW8GmixvJeCaTxApQM9y/0fPP1FKzw5dd4765WjPNTDFzx+NAI9fmY3u7SO7bzvtCK8aFo1PehXRT2h1i09rqdZvACaj719xKi8jDcrPZGzfDvqU827GIChvMEakzxfgFk9CA2lPHKNobzI3pi84igrPZsKRbzBXSU9sEG/vNS5hzxZBAG9JPuKPZqYELvMTje8Y6UeO/8+sz2d5Qq92ka/PLOmCL1kjgk9dCHouw+72TxneQQ9sg3hPNErjT23kwQ9y6RPPIGHMz3tS1i8emwDPWDM7rr8ivg8BvyCPAcsSzq7cju8rVdcPG58DL2czzO9LlM8PSuRUTwTph48QmatvNywM72hWx09jMKkvL42SL2OXAy7Qtu3u3CTiDxGXy29Twv+O5t/97wksMy8GVhKvCWpuDwP9KY8xJbkvNEW1Lv22mC8M2MGO97F1rxtvHW85dpGPdTqfbxmZo282W4oPOwABb1cbiO9642xPKO+Vjw8BAq921UNPC8yrzxuXzs8aafpvDoasDwpmFU9+nu6u2SwMDv2G4O85jABOyPCCL2kqC29qk1WvLzUs7zdDBo9cdEauyaFcTx+dzG8nqO0PAvnuzwR3IO9NXswvQAlUb3N2Bu8PVa5vNfc+zyn7Qa9QiwHvUthV70QFYA8Ov1yveaTGT0cxFc9S9kmPed0+Lsqqk89+FQCveKPprwVQvW8unDzPGV63Lx0HDE9USEqvYECpLzWRRC9aPMgvQYEAb3JBzu94PDIO0BIT70nQD29oaF+PWVU8Tw8OTa8gV8aPL833Dz1s2G8vUUnPTv/fT3dpKk8QUNVvLwJBj0dYSS8E1gjPfnqI7xj6yW9he3FvLTy8jyvwEc9RWiuPNcYjDyS3+S81KXau4qcsbzjLPW8tpfcvK3pPTuc6JG7GRIkO05f3DsFVp08niNSvNxWjztOyWe8gQKuPOxdZz2lVfM7ht7WPGyVcDzXeIs8rySEPPipKb3W6ju7/gNZPYRosLuOisG87MOevWc1Gj3gAea8ucuMvAcLbTvBwnc8yP4JvboWErwna8Q8DYbPvE2UhrxIg4K8X+wcvNMbFbviVoc9gk3UOwmPEzwuHFo7K/TFuuVFoDukDYM8uqwjPKHmkD2+0Ao9/baUvApoLr1Hxi08z9o2vN5Yu7wf+P88Ftj4ur3zND1qtaK7x6s0vdPIaD25KjI9u6Y9vfD8JDwEei28kkM5PAZtlzsNnBE9SO84vd7Mxjw7Re88eVA1vfu9vzzN2BY9iirqO3svDbuRZSU9DGP5PPVV0Tx/9Tg7qWgZPNsNh7xFqaW7FUDxOn+5KD0rZ/U8QrCAOws9JbzwY8O8LQZlPe5abDzNKTm9TqEZPfoHzbwChjs9m1BiPJVS6zwu34G95ipku1oCOb1iUoA8SOTQPBWxk70TEDe8FPJbvVVIET3ubca8U29yvduMqTytBlY9ja5yu6DFj73WBZ08z68VPevUkDqopAI8D/y2ukCv5byv1bK7St6QvDbYhTybZP88v9wTvR1UAL3kqPi7jJajvDscjL1RI/08JkaUvPsosbzfcQc91I7avMt5qjsHzr28Z1D/vPE7m7121yS8scsNPKwURb2HWoQ8lnT4PISewzzbgns8wVMivMpn9bxuh349rCa7vLlkA72nfLu86MloPaNbYr1kPzE9L/33vLUoL72qQwg9ik83vU6AqD0SUdW9UgVFvRUyA70+/LQ8A6UjvWTtkrw7m8U9lxY/uzcKpDyV9zm8dNAGvWyWgD0JoYC9+YBiPYzEW70ukY88ApWrPfnRUTwmU5O8wyG3vMAdsLx1vCo9BMmFPNxVqzmMRyM9bJSwvUFNxDv690I9wC4YvKApQzzF1iA8CmYmvRCkCz3iy1m7pIYTvf8sKzw0PMU6PJxAvQ491bscWBu99xf+O/oZdbyIiqE8mYAFOp4VWz0H7og8x7yfu833HL2tSIc9w2TFO+ceuLxL79e9yRnSPMDWGT02UUO8Z4yhPbvJK70vXzw8UYO9OqdABj12OoQ9O1xDPQ1MPL37V/m7vUesuif5mb1+hGy908+JvZYPgT32ZcY8ClKQvbqzpLyV7nI9T4Gouxi4gb2JKK+9sTpnPR8pmTyGRhm8qmQqPeTB/DwATCs7osLFvfMfm72gBJY9yi/5PN+jL7wbtCI9qeNvvVEL3rwXbvk8VQQkPc7Cuz1ml5a9yEVPPT226Lx8bxg9fiBmPS40Dj1XjQy921bMvGjwqDtxljs7B0O7vLg2ND3IbFG9iD8rPchlWL2x4Ku8aMMMvaKO5bpfnYm9paZUPeFfkjyXQAE9CeETvSSQkb2Hfgu9KlFhvck4Br2YopW9MN3suzxHZzzYBjC97FfLvK8pmro+qYQ9r3hbvX+/qT0FUWu8304iveRKG73nYJY80dxTvYB9pjxygXg8BhEQvL8ja72njIW9KAv3Oz4M2D3GFhY8/2ZEvNdvPT36z/68NXZbvX2G8jzsW6A9Rbmeu0Sj7jtjFAk8eDYMPSQqPLy7fOq7+msdvIFGqDyZmvk93lWJvcqzLL2RgU+9AueMPd3etb1foCu9ma+HvAL0Ir0o8Ik8ByAWvjBhhD0PvS68wJ2CvR3Bs73Vwsg8//+bPI4EMbzcfVc9TGzqvFNEdj36hYG7K0qavew1rD082Zq9xg2dPXePXr3U3Pi8SfhIPY+bmzwybgG8NTAfPYJgr7w27hw8wdJkPYxG2TvNhhs81DVpvHHIp7zKgsi7jIjgO16bK7zjeMa8VwWVvRzvETxS9wE9Q0C0vcFazTtTj5K9osWOPFsY+7oyC408zvJevVkskLwfXJ87+PavO4Vccz1pEEC9/5NEvVrbe73+vHc9IWNwvWAAkb237Qe8oEbcPBvLgjxFNgY81Sv5PaCSDDxwLag8RM80PSH0gD1o9Es9L47cujQ0dL15KBO87K9APQx1dL3BL0q8WmnIu2TBvTy7+NI8qZnJvG0zELtyiYM9qYaivNSASj2nPKy86SzYPNaPjrunLW898qKGvI9UGb1nhRU9pD/FvJSMF71sGIc8R4ImPcyHAD2ow9A8Bo1CvQuZLTx+pAc9W9OgPaT/Uj0QESe8vR1qvczEE71tPwi8oopDO96+TT0y4uu8Z5Y4OegSRj2MYui8f+MxPf+PQjwDbhw9OU84vTFhg7wv22S8iCyDvWAZiDy1Kz29aXVLPflHOj3Fawq8mXc8vQbhv73hZh+90m+ePBOU0DxgRoq8gXDDOU/Q0TzipSg9TEokvV1Cnrz+L+283kU5O2ptET27I8y8zru9vHo2FL3rjis8OhE2vJknnTzNOoa8Zcy6PI0inTxHFBY77z5XPGJUXDyQ2is9dVgLPYhtqT2ZlYS61g3+PBkPNb1VL0I973QtPRyKlTpwb6C8bDgdvcunubyNuNa8UCtTPHzprzxvyua9lBTbPClHXTtpCMa709WVOxbQq7yPrzm7mk2GPBpzHLxHDfw8fevNPb6k2Dz6cCK9i3kcPevikj3Iozc9k9qDPShUPjxY/B68fsOHvHVFnbySHoQ9GEiDvCndSL277vk85ADZvDIK6bxgOTu95PKHPQNcWbztieO78DBRPZx5jLsh6CK8BpiivOzXqzzBIqC8mTWMPUXNlz3DH+g7Iw5TPaMcWz3ICGk8joTIPNGCIr3gYN07YcUZPUXUBj13U3Y9R3OhvG6fOLzmue28YXsYPTc+iz3ljLu99BQXPVPtE732Qps90+8oPcKZcz26JCG9jJejvLNeMD39jXs7MaDOO1/887zx/Hg95S2Pve83jr0wRFE8vZtePMXbYryQt/s8281tPIiULr3Xjgi9MZkIvdlliT0b2eM8h4TTOzRBYjx90BA9ZlE+vb4bGr3ZyZ49NdfBu8dpgL1+HS29XsqdPMW6Aj3bxCI9xfQZvaXeR72rwzM9JAL6vUl21DzkZ+M8BDuaPBQDUr0fCZ+8VhhjvIVDiLqe8l49nSYuPDF5eT3PnuC89dKPvaDFnD1Izys93Hq+PIpgNDwMUBs7rkJoPEr+hT3/iyy9fXAQPH0ZRL2tbl48uzifOv1oEzuD1448+rCWvfb2EL0qhYO714uovMO1HT0PFhQ7/exavd15i7sn7jM9qJWqvNJp3LyxtVu8iYQnu2GoXbpSb4Y9K1evPNeRsjw5IES88qpHvXTKJzzCc8W9vv0bvTBMzbytypU9znzGvadrD71+9Za9agi1PRoCuryu6368YPrOPVv1Kr3VFPi8FoO+PIXFjD2G9G09QjwBPKPe/DsMupA9SGMHPb8iVb3dQU493KI4vbAHrTzNes+8rAsMuxAzDj0zsR29m30RvZIH+7z0F489glLOOtun7Lz0E8e8Z8oTvI3NPbw58ce8DHBWPQlILL31SWg8zVmuvF1Igj1jbvi77lbtO7aWrDrGk9O9pWwxuyDUcb1BLJQ9bImFuwaerzmzGAM9FO5TvQZcYT3e8RG9jHkCPdok+DzoUfI77w3APFQRrjy1KYM7GqCCvWLeJL2H7sI8DpFAu5qQHbwo93u7qmC6vAcLILyZPvU8zp2/uwilvTxV+Ic8MTFEPcCDKb3ps6g8zxFXPBvrPT14IJg9wSmMPH9z6zzKn2i8/UzzvLrXQ71cQ68813v1u9Qoprub38i8p3K/O9OxoTsZ4Uw9dw9NvXPzkbt4g+Q8U3vbvP3kZL14Elg83j5+PARQLL3o6NU8jR0ivcgiwDzM15g8AMYEPYfceruvyro84YegvEe2LLzVK2W9HLG5vZJqv7yMtQE+Y3kfvtlGJb5A93C94H7rPIiu7TsCPhQ9ezW/vdBUy70MJV89j04dvscwnzypXzg9uYwevg0a5DwJrr08jJ2BvLKZljqEUYI8GbmbPQuZWT2dhEQ97LXPvLKeIj4by5g77xsvPvJq47yxwgK9eLuTPesPYj37Egg882DqPWI8Rr0QBik9bTK8vI5pHLubhGO8KfiavfzSir1J7r29SlJovYVY+7ycJBw9MIWFvae0lTz1lg+7hHXQvWGIAD1gAvu8eYiUPfjwAT2QVqA9Z3q3PU1ZMDyGstU9vE7OPAykzj1Z7L29wwkHvuZJx70L9cQ90OzvvQjr5bzSKLW9MKAsPd9VRj1+N6G9D2PaPX5Il7zNa2E9+kuOPSdprD3CN5w9JgLOOzvvNL5xBQc9Ya+LvePKJ74OLHi9zcpwPA77QTyOcxa+UGctPQLXADuAMgo96nLjuhzwbL2acia6r9pJPSLFcr2cD288ukfuPDizuTyZXwQ9Q4gLPbYSzbtpiS68I+6QvH02T73OT6A8ATecu82kgDzzXoO88n5uvczSwryqveq8SqQHPXFAyLy4nB+9byrzPL12sjwkQhK9YbVMvMwSJjuBJPg89+zJOjks9zzXpmi9vIlmvXHA4TtpQma8GriZPfYjNbyp3x68d7aPOk6hk7zycAo9wKonvTKRUD1IEps9NZPcu43/hDyNDao8JrKyPfHoGr32KeA8viVZvfGPq7xcUaK8sXFSO4ur1zuRecQ7b6KkPD4cZzza0QU7oh88t+2cTbso01Q95rJAPdMcBD2UX5u7oD4bPXmf9rxW7hW9gR/Duwi+izuDTqM8FG7+vHn7vTv70QW9PtxbvCV/Rr3/2wi8K1uGPFXJwjsI2QK9VOxyPV7tLL1up8K6rh0HvCu5krtNolo9BS4DvQ0STj32r128SoXBvNCrHLu8Qn+9U7E1PYJRDjx63TQ96L1Bu6Gq1TpDKNi8eiotvVdkDDzzT7W9XWatvBycqL1H9Ec7a9kWPXibw7wP+6S8JYIpOwo6gjs+1OY8cb/HvJep9rqe9hM8ZqhgvXzylz0rHWQ7f9Kvuim1rDwNSh89pRIWPTWxLz2mN1K8cG6FPCF6zTwQV7+8winKPDPeOrx1cG+81CqFPL6jELwo4qg8i/FiPRSXxzzcWdU8axUFu37JqTxH+Km6Ks4/va/uWr182MS8CncIPW8wvDyP5jo81zIlPf3DhLxI5am8+dNAvSM4qDxhEps9UBKpvQGgpbxBSoU9q6cpvR2cMbzBIfc7PyP/PN7U0jsNrgI9oKGhPO5K47xY5VG8UenSu29D8zw/+RU9v/eHPU/NRzyjlQI98igLPTFjBby5z0Y9MQ2hvZGhYDyb+Om8PSXMvLXEJL00sQ88SCU4PKEi8jwCFlY8a37kPGnmijxHCrM8iGGivY4jjL1W2CI9+BuDvNG4Oj3rlua87cSbO7UUAj2CdnW8/T4qPNDUr7stcGO9SRRNvFLaPD3KWd28e8/CvF71tDwrWDo87tgevTMVLb34awe7MZaEOg3sQTzkgIw9/+8JvWqTKz1Vo+Q8C822OxVXbjztOJE9Pa/Bu2V5271XTro8RH3Nu55Fdj2pdVO8+hPWvODQpTyHoZG8kCHoO5r5Kz3XJ0y9EfYgvTnIVzz5nv67n5xHu7757TzVHw09g3+nvDQGRDwbSto7wHidPaDVPD2Wage9pcgevbFgGD0x+mq9oIg5Oh9TET3aPSw940BpPbS9fzzqZhS9BW3CvJ8gnrsVFiA9YyVUvLdCTjvND4C8jmrjvKBR4Trr9ju9Fuv2PL27GL0hgdm7KYcavdv3KrxEXDM9Iv5vvc3pVDyGYTa6npIJPfaiWr0oJYu8UyuZvKgEq7ypCAa9k2CSPBqoyjxVJCE9UM8nO90YgDy6BIs6p2o5PSCoTL2Zd0a90XN4PMsRgD3htm48Ev0DPcPYH73ESda7ISNgPCRZKTw4+E+9DkBmuCT9yLwCnhm9BZwJvYrxmLz2Hkg8K8UTPWWylbzIewI817GavD/ToLziBca8iKENvTgV3rxtOdU8NPl7vFHUEL3zLGW9c+r5PNd1zrxoNZe8EpQIvSnzA70zJz88ivFOvfYTEr0tKKs8NVZGPKZhJ70GLgQ94clZPZrVODxgfwI8Nki4uyxCHT2+l5M7t2loPGSrTLx1Zfw73N1TvbapHD2pzvQ89CPwvFP6g7wD5aq7rOoJvXOD3bwIiqE6zCQCvdEm1LsvzgS9Dn1YPGiwkbv/hYm8IMtIvcO2Nb2UV7Y8u9uNvZzPRD36SPS6uYsYPbbE3ztjwom8SZjrO9SvM73ERJE9egQRvW90HbxLcHo8/hk2vDCYrj2BuiU8kbYPPO4JGL3FpDu64l9TPH2MsLzvTgi9jUILPVX1cbywuZY9Xkl8PHCZljtvQ4c99f3XvHOhwrxvSPK8OlYBvQ1XIT3n2YI8FYK7vHhXGjssdT88kt9XvQeWdrz99TM9o5WAvVSn5Txi5yG8slBYvaH9zLstT4G8WuVkvDvacj37gMW8j7gTvVV26LtnyxQ94MSmvJVbFbydXlK9sxZ9PR6J+zzOELA8ZqFuPUNDej0cCzo8WPAUPeIDIryTxYi8MaphPZpfCT0sb1I9iYBIvOYL9rzk7Da8pBYOvfMWZb3LTPi85x/avAic5TwpRru9hzJSPByF07uCzDi933iKvTWohj2YJyg96a4OvOh/0zyCstI8eP/4PGC2QDwqw4o7GFaZuW10pD010uW7BQ9VOcaVND2ZjKe8KKyQuoBgQDxbagM9EaMSu19Bvb2c6p27SvEIvXynFz0Pa+y7LTJOPA3gG71Q9og9M7OJvWMm9TzF2me7nPiVPEVPMD2MbXG8+DObPbRylLv5XAY9c0ovPVWRtLtze0q9bjLavAYohz1SizE7VgVAPaOypD0helG8u7oJPKIL4ryrwge8LhKSPUonNL0kO+o8w4cvPWIA67wpO5Q75yOBPc0XKj1fSVy8MgVyPSATkTwlAAC94esyPDw3Q72q1pc83B6xvOZxYL2CFDY9hUE1vSmb77uBbtG8GlQzvWvEKzxDAVu97hzdO/C0rLyAMvw7G2+eu8WjUT1OVyk9pbrSu4Tl8jxJmAs85z0BPe0Z8zzHN0y8G7b1OVLZVbvVpk88BCQtPTSeIT2lW+U81DVjvX16Q7x00Te8380IPUGri727e8g5ZFxOO3e3AjzgtRI9CyUlvYy8krzUUjy8bOdDvT5uE7wANpA8ePEYvZ1R37yVNFg9gmP+vEqxCD0lF9i74G25vHTawjz+Os08bfEaPWahxT0XecA8w7h5vXmfIr1zF9Q8Ap4/vaUO0j22eV88VYz8PMlV8Lz/lhk9X/WSPa5WL7xbsQm9I4Cpvcma0LzvoY489G9pvaz2Jz26gDg88KYfvKN0H71uYyQ7HI4XvEVx1zv5miq81xF0vanApbxQzA49Ce1zvc6vqjzj46k8BSWFvCokzTwulB68vvDsu42VV7zAB1M6+kt2vHs4mjwnfg89LEjNOzpNsrznMg49ZZpBvfawob0LUYy8rfSUvG+cxzwt4bA8MP9nvYbEfLzVGZu8JciDvHkHw7102zs9t+K4vC2shzzzm5I7DCH5vaZAJD0w7IA7cWYZvVk3Yb0V7zI9XCN7vDH0Mzvrf2Q94EolPVtOED1MCjS8SMTZvXi9VD2+DOA8qCEGPc0tc7z8G/s8MXsHPR5BqDyyGU69zYDevMoAx7txkXg9FoM1PNRPoTwvjMa8h9/3vJw15DwItLq8ZnN8PINKcjydhIO8W6e9PFfsQ738Cb08q+ZXvUpx3byc2PG839iMu0jfs7zG0Ac91AvkvIUss7yUOgY8gL81PEt4LTvh21w91/KqOjB/TLuAWKQ84/WEvWqMmLyrs0G9/0k8PTpU8LtNpSm85x1cPHMZ2TxHZQw91kwgPLw5hz3RQfY716qZvPM7lbyEd0w9cSnTu+ZRmjwjOQu85feovGOzlb2iL7g73L3Eu0jopLwm3k4907nQPB1uQLyPFoi9JEHTPHEsBb1dwRA9Ot9XPO4a77zzKag8kogAvrAZtTwa6eq84dHmvObJlbwod049S0KUvMnaP72u9wI85m+OvAsO6Tzg8ce84BVPOeIM3zwnGhq8Za6aPSEae7xQJM68BQhzvA8FUT19OLm6/99CPIN6p7y0oC48bTwkvanHs7yBnjg9qR6lOY/ehLneEZm99nqBPO5xjb2Pkwm8icdLvapUxzxEcIu8hcEkvet1zDzU1SW9jUW3vEgheLxqjSm9J2qIvarBAb0bCnA7Bh9SPTAplT3e9Jc8OwZHvf+ni7ub4BY9v1TGO7a0+7ui3Ty9IMmNPUNCOjwf9GG9W7q4PeGghz0HXSQ8170GPEDvQz2QHL687Y5bOg1P/DuB2iA8uWq5vKoDYr0kRT67oaFCPQpgir0b9B29y7DRPHGtAb0BK4e9YusQPS25/jzi/so8JFYHvDaFPTz2UQG9U1LdPF4M7LxQi/g8DzbRPHlfLzzxKoU9cgvVPL9LgD00VrU8UJh1PE7/KzsaLbi91mCAO/eCV72UXZY8iVL1PMETAbititu6iYEIPabmk7uobqM7OTJFPJJT47zhUqg8aU8DPetsDD1G2DC97QcPvcI8zTutzX68H2vtPOIGKrgxEMI8QnkCPRoXBL0VHkw86eyEvBP7ED19F887QFwVPb1IY7w6/gO8lYDpvHGGDD01Qk07rJJRPXwdhrz53k6728fZvAibyjqDBeM8Ngm1PFEQAz1QA129VyWZPHdE/zwiwuC8iVTAPHMEBDwpBfo8Tk5uvQ1fVL0vTSI8YcMivXZqibyok2u93CMkvWeAhzvNvny9mSOQt55Agj3p5pS8yRzhPDoZ+TxorFi9huY3vU5NZrxdyYm9w186vJgyWL06BuA7LP9JOwJWBT2dPRw6UxxRPYYs67zvFnC8i4IYO4GcI7z/j8C8NEqluz4XjLxB5hO9C5BQvMixszw2dpK9BWXXPGrZx7ydtts8qlouvJzejjtcZq88jA9SvQ4isDwVesW8ug4JPJjA+7zztb88UoSQvK1iKzxLLak8F7ulvDUfhbzmj3G9mL4WPHYR9bzWqRm9wN31vEHc+Tw43D47c0wwvHnD1zx8Rxm9nEIdPQvoJj1JQYi8yFLJvOucDb01FJI8R0mWvFR0eTxhg9E7I9ytu1coE71OAFE8u2AdvbVHgbpFR2S7K33Yu6IsZj0k8kQ6SDYGvZ8qebyEIPO8sEyfvGhkh732bbu8UrC0OwhCUL2bOiU872uJPIyf9DuaVDO9+EkBvRvNLD0VKQm8jnmgPMiE+jz5uIm8qUJYummaOzxhnYw97zi4ujh56zzBmps8dZl7PY+zQL16Pl88hnAsPY5gvLzLwAG9nUihvfqyLTzd8Qi9KhJrvBtkSL0ANJQ80WAhveXhpzwPdnY9Qd5OO24FKjw7V8e8xWRAu/QYE7vApii9u2fkPHg9bL1eNyG9/wNVvEuKIbwQSAI9DHChvIwYVTzLW1a8e1HEO/leYL0ibew8oluiPFmynTtRCnm9URj1vBETfbzxdJS83dB3vO9jAr2yEo89FtgKvYUb6rwS11G9H88ePcqxl7y/xDe9M0uKvSVwQbtrA9s8G7JDu7k/Ar0NrSE9EvwAvVLkQL2z9we9gi4EveDeuLx8p/082VLtPBpP2DweeSq8uGUkPYAcNTwdow+9b8rVvNuuBD1dpYu9H4B2PF2TlbwXA7o8P3tWPAE297voo0m9KDrZOYXjnLxpGn89HlFLvZ2aFLqtCI49hykzvWyvhr2ccP689oNMPP+BGb3ef2o9SHLmvLVocrzjlJe8qd8Buxx5czy3iJ292kLouz/PzzwJmIU88x+iOx1Y1jz8fYM9vU03PMGZhT11CCc9fVZqPDgi1T3Z2T49JzFpuQFgUTzft1Q8K4rVOvu6Fz2iU5e90zkcuwJokbx/oe46gKcWvOR5HLzJNKw8KpXsuv3kkztzlfo8XQT9PN6xDz37ODk9B9uQPLPLW7wuBqQ7Kc7gOT5u3jwctEO8axl2vVoMwrt/MmY9kRrxvJ671rzJFDI9SVnWOzsoozwSWgQ9bholvUN5sbw32cU9MP2RvXrVlrvGOEe8ZQsLPJgdoTxhwQE8jUIIPTVgXrwZXzU9zf9/vD98WTu4fTo9fsnmvBKytLx38uo8BFuyO212YL1TTcE7O/DbvOFMLD2X7em8wjmCPUCc0LzDGPI82jIQvV+FzTxX7o89yFS3POzmIr0jw2S9FVHivIxjYbtwhhO9sIQgPfEomLs4z8E8m32xPHHEtzt4CBO9cgbhOyRPxDvZdbY8VPfxvMKqhbxAx6w8oETSOxwubjy84BK6x0uDPAhNIL1gq+w6SpsePSO6LDxjHSc9dUjevI4f0zzB3AO8xmocPEVt17vWU3i8bqwzPaDOKTx7wkY9vgWKPBz9FbskTwO6DEGKPKu+PT28jso9aHeAPOP/i72Mu4m8bKOgPBfCgrx8tR69AefXu3fHS7z/NX28+YKKu+KBpjwEF5k7N4IRvJ9burwm3By9c59VPBDN/Dyv2O45TwBBPIlGBD26BUQ9WUAoPZi5u7zkaRA9VAAvvQvO87s+HeK8kymavNYBajz/EjM8TvSEPZRo5zzQXyI8PwoHvRpahbxhb8a7S8klvt0w6LvjA629dTzJO0perL1bc+W9TRIAve8+3ru8AkI9X/gRPTABNjzenJY9VDPVvHSGCzvICHQ9TQuNvcpW07qlvw06SAQkvG4wVr1B37Q7mtlyPe5mnD3FliQ9fn9HPTMgab32pgU9rJ/AvEV4k7vj/0g9FY+tPIK22jymFx69js2+PRnzf73aLjm8RRLoO+mDjD1iYL28jYmUO84UkDzUZK+9gRV5vQfaO7wkew273CcEPc6Bcb1XZSy9tKEAvfy7RjzHH8e9ZOBavTGBJD3H5fI7fW1WPF7Fh7xtU1E96liXO4AyaD1d2AU9/+FUvcpeBT3CBcK6fjxQvHx0wrxUthQ9LyghvVyLuLuqR4G982xvO/lwAr0uDMc8qFyCulwFMTxEKpo875iAPGPo27xcRmM9FdmbvMUGNjsw4T69zUhLPYlISrwXY2C8B+VovF2R6zxP+bg7MdyxvOx+NT3UasI8UHuzPcHycbwh0+W8qYAIPabiKD1JKBg7vX1bPabLbTuPuFc8gmjSPPfrHLzxgsC8aFQgvbNQgbyyQdm8vQDBux4pEL1WGyI9GwXYvMEGb7xKnM68bboavcWvTT2InxC8j6o0vAdHEbyhYqi87xBJOiM/dD3pREq9imhUOygaEDyOrCW9sFwLPfPuij2S+AM9DHAtuyu7aj1FxHO741pKvOresrw3snC7DCY7PCgjRb3CyOq7apFTvcHPZ7167MW6WUuVPAVDeT1hz+u8Vc93PGMGBL05rqm8AZUyO5U3Tj0kO4I8x15oPZU63jwFHQ89T21TvVhvOrwhiIo9kdT1vBrJArw8qb08YTrzO0kLlTsbvu+89u6cPBL2BT3lyhs9V7OGvbLfNzyk6pQ8HqO2PO/qLbv1iRE9w1wauzMMsbwPPog9Zc/zvNQVT733M4i9OG/dOwR6RjyuMDc9xWnSOudKHD2yYH47Yea2vWLoC7y10988Ni0svYYw6jxPXCi9wrkcvSTQXr38TfM8tzicPEBBhj1JJeU8NqOUO58+eroMxLo8lYpVPcMYBr3bDYw8xBLjO5lWwDx9vtC7cOsjvXwcCT2ZxPq8Ofqcu+GivzwFoma9pp1BvVjRT71AtUa8XscxOx0dBL3enFk9+OfSvPqhN70vaxK8pDabO6EsizwvVJi9nN4aukILADydW3O7zi45vW4LCT0xf7+7TaYNvRGo4zoM2JQ8XcgCPKl6jDzf+le87kFZvfRuObujKIU9ulKVPL/BzTu/Yte8GlGAPb1aTz1K7hA9o5FoOnNgfzzbFl07s9Y5vB42mDwOZQ48bGIUPVGqzrvqe8a8Grg3vIknb73MtMm89VNUPE96jjxdrRG9DGPZvBwrKT0OYd07ppMNPfxiAb1eEyq9S1WKPPRIET2ngv08JfBlvMDyW7yQppI9jJ2SvPSiPDw3KRy8LvEbPfEGYD3f9569LT5mvBHqJL2b0ZS8nRMLvJcClb3Pmzo7d3+JvV7AfD2WYsq8dcjOvCnJDj1tr9k86Clzu2pPi7ym/Um9rAizOxUZujtedQi9AE7yvD7jIbxq+7+8IWKOvJo8fz2NfyK9qF87PSp3hDz6e8S8fAIbPevW5jvJ/km9haW2PIw2Rb3g0YU8NZ7YvNC7sD2TMk29aupPPI5RQrv8eo28dl5dPL7hJruR4QC9JnwIPU9Sf7zvXtQ8rY87vb6Qizx2juW883epvR6D9jv0anC8E63PPHD537xEZ+G8jeuWO+EFMT3dDME872HCul2J5rogKXA9n4g7vNiqmrzjDCY9oP1vPBjeMzwZdji8b803vXicIb3tT7E8YBixPWmfTL02kgK9Z+oqPUVRF704dwa7oQcTvWvz7jxf6CM9lHCHO6KsPr1BNOy7qqaTvL31aLyg62K9mekmvQ+rnjpf80Q8gkK1u4Jcf73e1wk9y9qePBRNJLsNxPs8lBIcvLGIVLo6u6w9metku6vir7z1GCe9oltyO31OrzwsBcM7sEiBPRUVPj3ScdU8nYZVvWs32bxgTAS9o3b8PAcyGz1dOuU7kNH3vCeAYDyzFqe7fv9Euzuj9bwZ/6A7UymMPNWct7zfiV897r+2vCNQIDzUVx08AdmYu8jgfzyFwYq7Kj8VvdmRl7xfB6O8LM2IPFpo67xawzo9835mvTxT6jkjbps8JGPTPCVvzbxQ7RQ9hn8BvT1x7jw9brU7cpDLOxB7xjnP3hU9F5YiPWntpztmDNw83lZFPcV7uby02as8Gx0YPUFsMz2Z7ac94og/vfOLOz1Kuw69FLMlPXv7yjzOhDI87I71PfKAAL2KZE+9rixyPF52Pz0r++g8fgdtveoFr7xU7xC9eZssux6/W715UzQ90BH6vAs0TjxOFLK7srRAPVoRy7zmeSC8KWC6POybC7qAmSm9ZvnuvOYGd7x55Ro91b3bPCnOFzq8HY+88xQBvBl4hzyTNls9sI7/u9vpijz4eOC7o5UXPOwGXTwILZQ8qycxOqNjHb0tA1w9CPXBvCbW1bxvB4w7hsJJvJ3XA73SSxK9detGPISL/7weFcm8+POlujATjryWpBu7/wGIPbdfxjzrS0y9XQRtPD1AW72TkmY9M9XhvEkIezykTGy8sU+2vC/RX70DNjm8najDvG+iq7xKSKq9GiCvvErj3bsBmB095vc1PD1RPT1BRhK9LF4lPaloGzz9NDk9cWBbvfeBW72mOyU89YSTPabq0TySOhs9ofCuvGE7br1BjbS70ImsO967ez3ahW49rNkuvSDJez2S8ig9BJN1vGdxOb2MioE9AAhvPZpfpzuRFxe9mNSDvRe19T1sLoO6WSXVPP7dYbwzsUE9L3eHPahoAL1Vg3u9vIUsvaDEOzvIPbi7trCGvV3WK72NJWu7vUxtu+hnczyPMba9pvM4vcVx0Twr/lI9vHZwvdxPeDwpva69mW8bPUgg77xRk5w7dxWrPflFNT3OWFW9nVyzO9uI0LwMHjY9hJFCvSIvYjvecm+96a/MvBNMJLwWYX899x6CPTjpa71M/ME8jy8RPedzSD0s5PE7alOCPQLdczxiI5I8hdVaOy4qg71Gsw876TSKvYspl7375IS99/QzvVxvDL39P4C9S1j2OqLybb17Wra9CiqHPBG2JDwa00q9fSdKvJfeur3zUxu8cxXyvHelkT3LnEq8QgQ7vBEDd7zVrhu8qhuSPZrsFzvUahO8JEiPvDEChT2RTP+8MCYpvNPrxDxZSOm875/RvA3VTTz+lyG9uV+IPWJ82zz2Ipc8wPovPGHEBz09SIG8ff/mvNXUG70vZBA9xiH/PKBYjbyWJJW9pzk8Pek0D71E6F89lRUku25JKL2Gld281m+NPNipRD14uNM8QXPqPA/7Er1wMmq8YW4bvWZm5DsRvjG9RlXcPOzNhjzyEYg7pvS4PGZqMr3ngbw9DtmKPBty17zklSu8yBqUPMzAJL3gSRU9HTwYPerTCr2tvgk8MGVbvVM6uzyvKA69v1R5vDwUIz2xlVE9CpCPPJl8jjroqMY8x+UCvfEiZTtJqRs9aZ0Jve27R7s0uMo83rEXPUHriTpijGg9/e5YPDAccrtIIWY8k5snPacmJL1xT++8L7CXPA5/NL2UWgE8cxoePZ25jLxKlty83GiAPRfHET1OzSg7avTXvOzUkT1bCwI7FUONPXUthDxR+5s6gkjXvELd2Dp0k+Q7jDWIvE7jpT0dzfy8Fqx5PABT1zzOTk69yLHtPBLzwDx/Nps9jaZrPMu0UD3xwpk8kQmSOtK2VbvfciM9LQMJPYErkDy/LK69AKyBOZEt+TwrpVs9D773PCQbmz1csau5HpCEPBi3e70hDeM8YC0HvaZXlz2JJkg9Du9CvdDEubzLiYi7vCpgvBs04Dx9vnO8SyC0PHgntzzWffe7i0NrPei67zzunmM9tmVDPcnsGL1djdq8DU64utpMRz1FRI08WvadPIdi7rx1oBw9oEExvNRlfztqgSq9Q4wBuzSwOjwRxIs9+QccvHrVjrxsWyw7bss+OjJL17zwu0Q9iTclOzvdnLxN58m895BQvdcURD1czfw5TBwyPXbaAz2Amz48p0apPN6Wu7t9gAi9MDBSPMdgezwnBpY8gAqTvfaBR7znnk49QUaMPXhUoDzTb2288BqZvVZmgzy2b5y8o+2cu82fID3wqos8HxSlvbbkNz3sU3e9p1ScPSu9vbwrZBa8gLnxPPhdOTzO7w899/8tvZLLhDx18wW7tGyBPLJQ7Dw8BCY8EIcXvO6aM7yB+Gm9ETMzvGsYjz2UdQ69CzQFPITgejt1Gtk8sjm2vCsaJDzyZQ+7ggyRPDtXCj2V1s67YC0svRU7+DxRHv48jaurO1NldTwEPyC9PVpCu0J43DxTXLk8Uk/DPP9cBLts5ys9l9WDPZarODqvdgY8JetmPOEMNTxDxwg973KxPBayk7rKC2+9wV51vXxT1rw6pUS9KbOtvB0W7rvXtaE8bgQlvVAPi7yL/Be9GDGoPJPhCD0EcE+6jyONOwZWaDx/NKi8wIrcvF+MVz1xjl68vW1DvS5+jbzvVvE8VW4JvXofKD0QqlC8RGM2PRyPdzu4JSM8jtnbvBj13Lwn46e8ndDvOUOLPrybMiu9+9OrvC9fEDxd2Xi97kbSPInoiL2HBGC8g+LGPFOxurvqDKi8bWG/POMVE7yqUDA9o17GPNSOsryH6W+8We5nPJaEPb27LJK7wNajPKYVdjydDN88QOixPJUofr0O9c85LlZsu5/AVDx9gAK9felTPYQflTwgzCQ9aXA3uo5zvTwgyxe7hw3/vJ6/Ob3LJdY8GgtHPUpElb1V+UI925NIPICMFL1MQrQ8U57/POP/Rj0C+SI9c/khvdK3iDyLJIg8xWGcPE2vMbyHdIk8Cw8RPeo6WrzE1dW61uRuPSc+Djx9pjC86WPyul5IGry4/Hk8f6DYOZFUmLsg+la9OAkZPeaA/DwT/mw73/NLPakxhLvgEDw9um8XvW1mBz1/8pa8jfXIPFnJS70jHxo8l9tBPMFn1rxvhlO8OW4XvTpXaD28SIW79NynvFeujDxQy/u8bokkPSi64DzrTT69LkCtvMv7RD1FmiI99XIpvVEjBL38Foo9Ju8FvcTNr7z6g4G8uKFjPIu2Cj3seug8elVdPOgGFT1Anum7KqbWvBz3OL0XkF89p1JovcCL0j0ewnI8Wlj6vJXCF721Eye7RMFUverX2bs8nQG9e249PECETb24YsU7XOYBPWyX9Tv3bUA9Am2YO1bLyLxxVAE95/5IPbUJYD2XNV29RvRfvUulFTzhAcQ8DzgLvVYWEL1FtP075rSLvOyW67wg6qo8W8ehvd0kKrwcxbE8b7tdPB/ikDw8B1m82QQlPTxWhT0TgcI7Vm+6OxGFm7t/vaQ8tU8GvczCuLt2cr28TNdzvYV5FT1Vyzq9CCRWu8oevL34Pzi9T+sTPQ4zAjyjp7I89ymLvEJ0Er3CyWo9uDSTPZcBsL2m2o49s/5AvDQjkjsB0aK8I0FOvY3SS70K6vK8NPTlvCzJaL1aOtC84ICLPRWR3jt0bjW9MQ5APfQzSz1M3pE9ydNpuzDEl7zEdiq83x41PZIRlLwYixI8P0kuPT95U72ZQoI909kvvW51aL3vm1084RuKvEVsRTwkYaS9nT0ivLwB0Lsps948t7SXvO5D3DprgwM5y3AovYcdpj36tMS8EFtLvTWJ1TxHVws96jTFvQx+RDy9S269w1ZCvTiJtT3y6ao8cGBHPWwVdT3S0S89wq91PfolHjykjwU98Xkdvf5sZju+tbU9bw5XPQUQYT2yA6k74fzqPUssjz25wEo9hvrWvbCcaz1LPhe8gM/gPScUwz3XA8E8yHYDPh7KpbvNLsG8v4u/PRhonb34hm27VKVoO9VLDb2tf6I8yk4zvRqUhLyXg748wPUuPdD+0L3xpAa8YrQvOzMhmToRVKY9QzyQOyV2dT2W6yY9ftHkve8ep7z+cFc8lDsNvF1tSj1yKGE8HK/lPNN4J72nhUg8LBJ4PChBjjxezZW9bL5WPZBqd73eQyg9M5z7PCU7Nz2jgaw83HIWvN/wHL0Ohq68/lI4vaZrWDw853I90uR1vN8jiL3Q6tU7s5+RPPkVoD3KKp69CkYwPSHUTj3NNWU9+h7aOp+du7xwrCQ9JPJ+vbVQwLuc8QO8aW4JOtR0RzsFQSi92jiMPPEQEz7imIK8CfLOPANdJT6FGTG9caDWPBcLtT0kEKA9j77ovIdVF7ze1KA8xr2DPJoZtLweExM9OElqvSyPT701EZA88DcOPKE2pDpjaAc8/8NfPQPJoTwsOJy8golBPQh0VTwbfDQ94xpDPIPOZ71x9S+9gUKDPCH9Lb2lH4C8Xqc4PXB8/bwPrp68GO+gPCyPE7238qi8F0uLu4BMbL2vtiO9rGvdvE78E7zpyRA9aPy4vF+J+buf5tk7iCW2vJOTx7pC2Co7ICSlvKxAa7y82Hk8PrYSPX0gMzyLMeY7ZpsAvR5iCr3RaJg7ppU3vVnqXj0CiNc7ZbT8vKkGzLrAjia98ecMvTUyrLu7Brw8z1DwPDpk3ztkV/c8y2GAuy0GUT14u8y8G24YvT5+E732kZg8g/8mPQgAgL1zxqc88xLiu8yn6LyXJVy9QhKqvIgbcDwmvBY8bYAFu87UkbzW1B09ITAfvZYI6zunaFQ8zQqeuxvXrLzDaTS8IY+IOjtcyDzECGu8w8vePHvttDwjmbE8iX/cO5tXvTxV3es7ertIvRnkHDwBQQc9UQKXO4y9mr0bX4E7NYAcPYCWfD31zp68GDvjPAAa5Lubq6k8alKkPEQ6rb1AvzM9DhQGvA2QIT1tGAo9XZNsvIU3rzuit2Q8VIUqvUTReLqtoEC71XOSPTzXADykQ5C9/THUvN4d1Dy4uZY9wDeSPDR2vTxNQZI7zwXsuzCK6TxsiGQ9YZ4iPIkUCTyO1mw9V8NhvEEVF70Bo0U8sFMYOzVFirxJlja9szkkPbb1X72/KJw818WKPOIB+7xiloC7K44BvWLNqLxbzQ89N/CCuAnjKL2kWTY9dT6JveARFrxTMmw8Y0ruPA8CKz28UAw8p4OvPCuALbxmoVq8PB+MPNBoaL3fO4O855hYvJcaUT0Ea1c9HhMCPZNpcb2vnEA9cLGQPD06KL1w8dI8fQUAPUSDkL2sjxi91qDfOzkV6bw0nmo8tnqOO49DybuJkG+75o7svJVMED2/gQ48I2SHvYZwo71Fuge9KHAxPWPEMr0zQqk8kfWJu5Oz7TzeLmo8JSWKPX9ZLbxyLne9QZhxPf0+LDzzQ4G98BrWPBeIJD3eWDs9QtYTvCosEr3Dk348k6+gvVQPx7zeuhe9btFgvOTrjzx/6eA8b1fhOf0YXjyC3pu9SUBJvAObkL3HmSK7F2F+O6l2/j1Dyq882HgCu2uM0Lx2oWO96+12vShR0ryZQvG83hVJOj3DRbzURFU9DNpYPB4QhDtBPgW8R2rJO6vzfj0X3+a83US0PfRZWr1gKec8mgOavKmUtbwzISu9uAiSvFYxeL3hY2C9NYfxPKjGn7rLQ0E5dvcXvcGxe72ZdHC9taPavJHhLT35t9o7CIOPPBqJ+7zzUyA9bKrRPABVt7ugvWY80jQAvWOC7jybI1M8B4eTPQFZJr29Ygu9SlolvVmYprxhmNG8IlqPPc37Jj0SbPI6yGnmvO3cgr1P4+y7z8EWvVRcDL2Tyfo8oidmvNzuhLxJpBC9ZSdAvBGT5rure428Rfd6PfeRzzwdJDu9gX9rPI8qKT0726y8VJLfPIoE4byIwmQ9mHtLPAPp6TzWNNc8BOgDPeWO3LwPGi09sLoCOxHdADyfiJO80Mo8vbxWybuCPxE9PvNHvd5Qn7ywqQe9K7emvD6I/7yCK9A84O10vGzJ1LqPA5e8PqGNuw7aKD2mzrM89cMsvb7M77rQb6m7tjqau9ALFjzQ+ao8BGUhvaSAAD1Iay47chrNvFmnJb2/1Y68cVgmvXB5pzxX52c80qkePHOvMTwT7dk8uqynO++0jLqxquC83MM5ujCh4bxBR4e8aks9vOoYqjwJ87+8D6GtO9Zn9rxCdkc9ynqYvIiRBj1XC4y8t3JTOxkXhT03XZI8s0MjvcCPT73nlpI86fQrPc9cajw74zc8Yn7mvOOU5TvPrKq8dew9PfrL6zweFh08ekT6O/2TAz1QjyE6jqmjvKQ92LtSfr282q+Ku6uI4Lzqkos9puNIvdPigDyp12G5JrRBvKRZ/zxbEa+8PDU/vXgZ7LrNEAK8XHknvSCNiL2t1Jo89/zfPKSgmD36ZWQ8bCFCPITYFztdh4e8yjMOvXTqjLzbPwC8wV8yvbDQqzv52vg8pW5JPbVxEr28TjU9Gb91PUiEWD1w5Ag7FQK8PeOXBr3+Dym9xF+Nu8nNybxNBRs80DM2PJD1Ob02/MW88QaoPEaKp7pAAJM8kfGmPFwO3Lz1FPW8so5fvU/U2rzwaoO8JJ5uvIPkgD0LvQQ9SnqIvcwoQj227Go8iXYJPTPYgTnR6di8yImKvcK+SzgBgpC8LzIWPaOAyb0j4DW9ltgUvCem5bxRhtA8oUYBPRCorTwoEFI8erTevIzN2L3j92u875P5vG6eLb2izo89tTTkvFJPkT3wPLa88ReLvNMRIrywyQ29IyiwPEcOm7yghE+9n2YaPY4vkbzVnne8QYSIPTNe/DvEX269wM3XOjGfHrwfJZg9lfLAvEvQFT0jo148+HgSvJ7ezL1IcZ69h4f/PLRrmLz4S4C6lXhOPOig57zL/dc7XExbPd0jhDvs2JK9MjhdvWW9Jb1ExUK9UJsiOvsLsDsFPEI9p6OavKMWEL2M36I8VYq6PEgxy7tPRRq9RDjXvEKwWz0YgYU7B5kWPa3YnLqE3oM8dqkgPFeHWD11FxE9HosevV/u97ymDl29dZ2IvMOMa7ujWqu9jcK8PQ7+ib10p0w9WRW2PHqy97wBp4o9p/8APV8wf73EwBW9+4GxvRqfhj2AJiu8yw+9u5ClFT2v6YK9Y+8fPQpOPLzClKO7rY/svZevxD1xGAo9wX0DPU8JUz1BL3g70wmUPFcLOb1b9US9+zYmPFAsdbx+toM9pvWsPJetCT0+sjK7/Ii0vdCXzDyEvIS9EmfyvY4jPT0hDYQ9KTVNvfilqb1cu2a9zpg5vcizSzx65wK9Jsw0vZuRRD1o+kI9m+lyPUNinjzCsMW6m9VCvbZpjj0grYa9rydLvSAAN7zmEtI9VYZgPYbVLb3TUY67YVADPfZ+OD0z4G69JQbHPTxDgL0R0788Rx1JPTdAzLyWsY09bxPMPM3W7LxP8Q+9kMzpuoSrBLxlG1g86r4LPID52L23j6q9apshvGmkVzzEkjm8HwGGOyzRtb2AOlS9yrFDPcCIUzhL1IQ91ltWvb/hkzxpK5s9hwaDPanasDtyZdK8r5qRvZVDtz0pl4a8ePd9vC6VSb341UO9iND7PH2rvTwY0ou8lZEgvVZnMz1LONk8CvSDPYacgDw5FCK8BITFPKf7NLwv2QG8zJUmPWj+ArxAQSk9hCPQPK8EMjxw2b09DaguvW3yXjw2Qai9/GDuOpORLL2nJik9z4EtPHowUDzK+Ce9pARGvSxwKrzQ/7u8U3O7vJ0/8z2VWiu7f967PFwdQ73Bspg8w85tveQ0UD2ECcW9mfoHvYkgFjwLZvA845JnPBy/yTy6IrW82glLO1TXNz2AuwC9YIeXPKJ5Abv6XDs96QWjvKZCur0Zpj09thhzvNdx8bypeF29sIVWvaCpGL1vcRU8yooGPdZmmb1Wdga8dV67u5ueB7xgcS69SuF0PPnOsr37WGK8fC+RvG0nST2i8dU8BgR/PHLu9jw9zoo9MdGRPaSiH70UUi097QPmu8bLgj1DSzm8gKjavCy3Tjzd3aE8pwwFPIvDYrzcOsc7IJYlvWZC0blOYVG9xxePvCpgODw08U49xNW0PC/cEz1Fb9q8NqhIPURUjzwFv8S8m9uHPIaWPbp8GKY9cY5RvV2tE7wsz4C8IUl8vGfofDySAUI9raAHvUsQJj2SjU69pFA9u06wJT3cLp+9stacvDVMxD1NjJ08GyETPNo6hDwMHhI9DrQPO9YepD1L6RK8lMrPvNAAKz2C6tc8dD78PAdYRzyY3lS9U6gfPQEUHLvllLK9oICXPfO6BTz2VTQ9rWMlPbp6hL0B0j890+pjPEywMbx9WQG92W7svCYJ5rx/SJI8u8dvOiPfGL0NMJg8l4HHvISaZDuP5yU8a+NzPLagJj1FaP67J0wYvHW4Hj1K7Yy8eUffOxa7pjzZJCa9YtSEvfZyj7zAhvi8oVQsPU1chr3LWOW6fHFGPJEgeLq7jME8tULavJYJVr2Xdva83XkrPJBmjr0PfBi90FpUvckk9ryt73m8TKNWvarl2TwbwLy705DNvOG4JDwJ2gk9ncSvO2AyBz1iMbE7+aGgO1dsR7zaIdA8vhCXu6n3iLv3W588bbWIOVle4bwzz1s9FsvLPFo8sLy8p+8868PRvFNuoL0755I7Sxppvd+ZMT1pbnq9+uu9PO3BIL23Z2s9gLUYPe3QEj1RTsA71yxbPCt0jrw2AYg7+CgMux0NJLxjOLs8YlWTvTFptLxRjxu989jUPOXg/Dz7gyM9YJyHPGXydzzsi/I7OcqLPbW1m7cDzJC7MByuuycx6TydKFO8rzUuvaRXez3ca/M8XHpEPZ8YBz3EMzU9quSGuhT/mrxUUpu7mdnDvNVnabxjWpE7kcbQPFTSxrxuHMm8+KbzPO7om70sC7I8MippPYQmBD2JiBM88TyEPEU+U73Fiw88BO1LPU1Qx70jVNg8qWFrvTvqozyk8CQ9CUJvvUEixDxoHEi9+kGvu/PjATznj/Y8QvL3PEUBNDzacl+9WetXPayvmryxpcY9lNlruzZO7rwOrsg7Opj4ugWc07x/xQk8KpmRPF5SpzyeFZ686GkbPCscwb3XqEK8nyV4O1N6Oj31iCi8AMqPPTVtKL1UjrM8JV28PGyjBz2sH5W8MPdDvdLaFT08uUS8pSbFvN7qAr3/LS49Zva4vYAJVDywvf671w+XvHpDxD3vlRC9Z2knPevCmLv9Jhs9p3xJvNtic7x39S87gpkEPeKgoj0v+z88/0ADvFs2iTxPdiY87g+JvY94bjxPW5U6hK8HPVXcJzyOFo28jjGOvU1jhL3NVTs9oUidO5Q547yzHtW8wTRWvQrTJj0wwu07mz3pvIVKWL0PfIq8i6tMvBdxEr1g2Dy9bsAmvOXRUj2ygx09PttRPW8igTsKtVm8UTjNPDiGrLxdcpC8hPhHvBMBhjyN4RI9YVvsvH7bI71jfVm8dNSHvVyzvjuJBwE91qQgvAVF/DzbfbQ9gBaBu0hBlz0zbdq8e5XfvHUnGDzjM467vV4UvFpo1z0aRCA9c1u7vBO1Hb1sCkS9S5xBvZAveLzELcO8r3cKPOvyljqE29g60awMPdXWhjuGa/w8Qm+ZvGbMiT0kwmu9Xhm1PbVR87u5mww9R3B+PDdXo70Tky08FLxEvLP37TujaQu9Wt1bvYi3j72u6/y8aLGhvEs1hb3Phba7rTJ+PemznrtcNSE9s88EvRnNH70efb27q3tYPURNk7w2bTG9McY5vEHoyDy7Vum8LTxKPcW6tzzr6bC89IRAvEwRwDoU6mi9GrZ6PBUCAb21zFA981bRO50cWj0AZO48uWjEPJrzMDx2sX68+2ESvNbRwzyX+ga7sConPRBM9Dx038A8g8mPvFJ9eD0dKVY9w8QAPDhegjwwuGK8hBENPf5BPj0VL++874Mgu/iIOb2t79+8h3jePARWCz0B/AU9ODYKPd5kRjx+/I09lszcPLKZIrxs9nU8wr2WuRlipbx6nhA8ik07vSGNfbsTp5a8xCU0PXsRkzzzEi68K7KLO8SfG7yC+/y7l+HYPADmprsa40U79KsUPCw4gbygpbM7vW+AOzDuBL1+YYe86jCGvUdQhrwB7LO8LamJPKLDJj1PZ3M8+o3xPHP/oDyGfqu8qmdFPZBS3TwKJ5m6JrOBOwLXKrxY8AE9k9i+vRmwZL0gupS908AZu0p8ejwRPUK9HzyEvCU4bLzXV9C5iXOYPUBC/rr5q0M8FQOlPKJMi7zWwWQ9vpYfvYV3AryqopS8/IFAPZENlbxXfUG9oH8NPZIQkzyTtHm9R4OAPc2YVL32plI88Xk/vQ9wHD0YgAe9t4SfPKShrTtlHqM8fKsZvc7uNLufSrA9SB+CvRH0Kz3OaY07JHmkPJmyuj3vCqc8dvdPPR/yzLyRQb49tiVFPS0GVTx6Wwo950kOOxPyoLyHGpe8I4JnOzy1aDyWo3u7523APDxk5Lxl4s07XfxDPQKnkTxyuwe9XMWzOx+R1LzB9eQ8ZE4VvC1qFTyX/rq8Cn+OvUWWAD1/GT69R1e5vFsfpLzepkO71sQJPWfNEjxb2RC9+3iGvbsbkzx/iPo8AXB3vJwOvD2qj4m8dXtnu0VTi72p9HC9iRWNvC9wgDww1sA9qE7mPPe6fbwD9Qc8SbFmPWFiYbzECvA8A2efPDXL7TuPWfi7YY98PDRYn7ou+PE7i6K5PTNRgT3rSEI9YkUjvWk1vb3aGm883vy6u5MnMTy/hoY919XIvBJmkT1ZEUY8rj3mOopnDr0IMMQ8HhNevb8/ez1y+5E9mQkJvdqLz7sn05W9eMjAvN902rxccxI9AlI7vGL9q7xR5y+9Js8VvWcIfj07WPO9qWtxvZjlRrtrvsA80fUCPQEu2bxpEIM9uWXJPBleKT2lkcg8XLejPE1wpDxEJVk2tNu4vBCBkrwrJI69jODhvIw/7ryARIy9VtYlPQe+mb2Y4wI8OtkjPSc0Z7yvSQS8NpuCvMKpzLsfSSg9hh2VvW8XCr20tq28pjr9PGWEnLsczIW9I6vKPDGYHj2KmTk9woBMvO1u6TwIWwy8RoFKvF7rzDwK3FW9ztrUPBBcXD1AtbU8mwU+PIfhnjzSd9q60683PQBzfb2dswe9jyQGvGAHgD2RgYK8YoKLvGE08zuRLtE6zOwDPcI2x7st0tM8E7xxvSau+Lw5Laa8g5qAvJpRsDywH6M7ILLXOw/tgr2iphM9CwtnPeloorxcHCO9a5dXvQOowTuoH049OVmMPE0uTrx1dfq8jJZhPfD/qjzx3As9Zjt8PYByxbv0BAa9pJK3O9aNm73MS4I9MreDPM0Ekj3CjDm9FmwtvJVDWr0TOa485LoTvXeXVz2tDxG9cHwCvekWZLy9w/w60t6pvJNxXrudLXc9/KYcunUn7TygL4Y8TE9APZfLID11MwQ91ryKvNTDZjwQam07eIpaPRJkpjtFLQu7UEtgPN9Fnzx1bbI82Or6vFddsrwvEjM8ZsjEu8CqWr13zBa9XyDCuzB/7LwRijc87mGivG4MA7z8+jI8uGiWu0ZnQL21eeM8a1O7vNkrxjx8g648uy2KPHDjX7xbnQm9LzQ7vdUH/LyyPYo8zgUWPfo3CD1T1vA8tj0iugicdz2/0S+9F5nGPBd2AD2G5/A88xeBvASNG7sPLQC93WuXPCkDpjyH80i7SxLuvJUQZL3XdQM79pLzPKIESLuWEkA9J+cGPJaQiDg0qQ+9v9kTvXK3BzuRhzO9qRZFvel73D20ZJs8G3wLPTfQTjsE39Y8L5e5PF79izyjja+8RYzjvAiIjjyc74A8j/p2PXl8hTwoNDa809QOugCvlT2qNri8+ubAPPx99DvOrUI8b6sZvaxRhzxwqjo9NH7ovPvt/LyrUhM7Z7obvUmcH72Xojo9eeTQvOKemjpU84o6fWO8vL+dpbxHVhu8wECVvEVoB73LBjG9MDKkPBbjvTwIqaC8SNGVvMc9wLzNLnU82GPgOof7/7u0tRa8ppRjPFRz0LzD1VI8yMBoPexk2Ts0whO93RQkPfw+jzxneiw8jYqEvbN2pLxRCxG75lxqvM/6eT2OVZo8AA1evcMF9Ty/A9s7Fy4bPDk+TjswYQ69GkI4PRUJiTzTlWo8FMMHPR6WrDzgXoS8d1IAPeqvLLw8nEQ8qROzu/yywDxrLuK8/qAqvFieubzC6Ie9h8qLvPHq+zp7/jg9e4D7vJXMsD34weM8L+R5PUe2pjwoC9K8Y1lBvStCFTwtaVM71cRHPFRwNbxTIWa840PFPMBwIb0x0nq81WnMvPnnJT1LL489OOeoPVZ49jsB/5w8r0wKPcW+hjxFLNS86RGOvL7l+bsd7Uw9HNHgvC4WKjhd8EW9lR9OvOqvhTyyuXg8yAPlPMHx4LyoPQ69JopCvIk8gDp3GA49n77dvKSZdbx8p5+8GJJPvANVyzzQvee8HpmBvGIIVLxzJfa8RBgSO9PWDD02D6o8yq2bu6eHnjySxxQ9c9SsvGv5frrMzDI9wtkGvSprYz2JTV27CVguvcE2Ezx2alI8FkvNvAON/7zjUx69SsSZvDCaaryqElw8ui8mPUShtLz0yMQ8zOwAPc+/FT3Fr7Y8PBKFvB1IGTzVMd08ohmRO7YOMj3LwkC8UL+5vDQmkzwb+XS8FpEYPaDpi7vLVvs8qaOWPNOUKLxPzSE97eL5PIthpjwp5Km8kJsrvQIBDL3vtuK8OpJuvISYtDxK5iS9LoqMvUQnuTyyOPK7mnmCvGiQMT0c2wm8IgoCPBiATrtJmMU8i2nmPJnViL2dwYA8CQ3AvBceXTumMUg92h+ZPchex7z1Oqk9e4YgPFKPPz2jCW86ZUlPvZSONrxlcys8r8uBPcc2hTsr9Y69+JKTvY4Iqzyzlgy9cicmPYvam73titw8WtS9uxDrPjsayuo86h8FvWLHSbtn25O82+b6vLTDajwHmwG9MGQMPZ94hr2ongq86S/2u1dTazuPvlq9zWOfvEwQ97y2QIm8mN6EvLDv3bx4AG69r3D7vEBAyrxOalk8PcK8PASuMj3pFqm99XzqvAgeFL3tV4M9Il6DPfFWuL1mwbg9ulpzPPr/771DoWe8lRWnvK+YPLwg/+W9uP5QPf2DEb0Eqqk8ICJ4PQa9Dz2j/nu9/Mc5uzs6Nj2CXhk8rTsGvUZDQ7009Y08YsBJvcu85zvfYI68Jga9veXN/TzGgBE8G+S/vIdeAr1QBgu9vY2UPZW0hjzJS2y9VDxEu1qmszwNo3q8Y2UwPURIKr1/wwu8xyFjvB8arjwt2Ro9gmnOvLQlNbsmLBO9DUfhvJvI6rwM/Uc8bpXbPB7vVT0HGTw9HPLzO3kACr1LZWW8UsgdPPRCBb21Qo49arWEPCNHn7v56iy8g02mvcT187pno8e8EnVDPcBadjwfLhS9OotKO3GwuzvM0to8Wz7hvJBuIzy2Vdy8yEypvHkth71H5Qg9RJSYvOJYRL1fw9Q88KkMPfKFgbytues7lCMYPRsHDbyT5xI9Z+iMPKTXhL3CMkE9TU/dvHheLz3o+A69eEHCvIgEMj1KjqG8FFBrvLz957veojK8Sb07PcoY5LsEVKo8dpcRPQV8ZjuyLz89hN8SvdIFbD2f7xo9LH08PS7tJT3X+F69DOQrvU22CbzMgEs9IaGMPCDwgjxa7oO9BxgLPR+8nDxQ5ko6xy43u7g3q7k4L5+8rkfrvX6Wjjwg6lO6zw5CvWvN/LyrDgy+0PIYvWGAiDvBb2+7fxYjvSA0Qb2q2DI9TvAfvPkBoLwWPTc9cGS2vVpXoD31E349WPjSO+z4tjuS+TK9aCIhvVCreD2uC9o8RKdZPG8lBD0ni248H44kPXomDb1E4JC9zDVEPa/Iwb0QUcM7M5FAPTbhGz0OCWU84becvcT5HL0aaq+9SSBLPSZUeb1QYv66/w+hvY90NzzCuIg9CNyNPEkbnL0pLDq9xwp8vcPl37xRKRi+pUmuPGXa8DwfzmC88exRPNtleDy2UQa9a9sIvQwqAj6DWHi7kttIvYewM73KyUo9a7guvfJrbL1dbF89Mm4Tva2/YToNQjq9IIEQPFxsVj39J4U75tXCPUsECL2Rl509aKy3u2Awm71anyQ9omiTOx1PhL12O1s7q+qCu2jVX7usPl+9oPYwvT2yIb08rq08muXeOwaIx72evWy9woIDvRAwBbxOpZy79ssNvUxQXbv2rX09r3gNvYQ+Wr1jdws9dM5/PJwBBL14ILq7Rb5dPSulDTs6g4i9RY0dPQw2jjwi41s95nINvNeN+D2MKim9ngrFPWMO+zwex2S9QgbMuxG+gjylWSo98TRJPC8jVj0ZgVs90S8PvaqwNLzo3qQ7Ro1wPdGBMr2UnYa8YpaJvYEazjtMx1g9Ws15u/EnDT48c/Y8Zidevdt9a7yrQcW9F18evRKHUD1DNv+8V0MwPS2VXj2Ryee8TasHPAg7ST0T+QS+Sz7hvYX+vbyDaEg9MWY1vYduj7xs3MM9N/wbPDqiRr1Dsn69FApSPMcFzz2TyYk9btaFPb2o6DrDPtA6KP4UPa8Tgb1IlzM9qkC8O6d3P73PB5U9YmI3PaVAGT3Ew1I81B/dvKvOubyNjEC8qTRlvLxoF72H7Bg8M3M4PDLeP70kvxq9PurVPEj7PL32eEe8cnTMPA7dFj3yn5w8lQsGPHpZEjz+tqg8S3NcuwqVh7xmSWi7EAY+vU7LED1axyo8V+RqvddCpDx2fiW8G/cuvS2+Oz34T/y8gp5TPaGfyrwovzy94o6APQuPTT3EH9O8R/LtuyZuO72AvJS7w4/KubZZ8rxlOUe9bfrsPOqOxryOuBW992WZPLSKRDwIgvs79h5JvXGiNr0ksik8/NmCPQt8oj0o+Xa9OHAFPbuf7LyZM3a9yA04vHRPpT10z3C8o3ynuzg5MTsUxxM9P5MHvLMuUDszRQy83G3eupc7/TsiS6u9LGkWPd1FeD2BbRW8+NkVPLVZJ71F9Eo9o0cxPX3fLr2BrRK9C512vCnzFL122hq9vwg8vUBNg7yWR1w7w9yFPXETJzyoaQ299lSBPbhAhD1A9lg9F4eIO5goqD0BhNs8GCQxvYTRqzwYuMI87vXiu9nJKz0VgRO9TX7CurHyD71Sf+a73p9Pvc/boDwuG1M7sJKnPNYKCL0UXEO8cpS2vLpvS71/VQA9hfL1PDJ06bxpDSc9TrmLPUhkcbwH/SQ83fsfPHgyi7xgncw7kHKKPO6j0bz6mYo8HsKIPLEtgzvK5Vs9j9G1PKu5HT29VCa81rWQuhKr0b10hu+8wyUhPWXdoTwYNAs9JL4xPKan6Lx4BZw71q0evYJ5db2DlSW9FyYpPTdZ+boW+K89pBgHvLhKPzxCA/i8ZIQPPN9ygLyylRq8kfVrvUPdSj3Cat079UMEvEhlmr2Q6AK9gtkEPfdk37zZK8+8WJ1CvJz+zjzBRg29l429vOtgVLxWGzi9nCNyvaAfMz2H4687RiGqu6ZMjbuR3iU7JJF/PDnR0jykAVS8Jiq3vWvIhr0+qsG8kU9VPKq7WjyKlNa7oiRxvbxQZD1UHCs9yLfLuy0kjzvshFI8/xyMPY4Lnz1ojg08GaFfvY8qxDpVZYg7363kvXW7sjyDXgy7sufPvNaNhDzk+Em97Ne/PCtjAr3J0/08NjQePYlQ3jyi97u8808TPRTUsjulQto7sRSou/0t17wePj89AoMZPDHS+jwsFZq6VyyvPB59/j38k4089TQRO75sBD0G/cs9FOsOPCRm87v8wjS9cQY1u0Wcdjyb1zW9E1EOPaQ5qju1NMi958EMvd5WqLzKTwQ8sFsdusxXnbupFqO8/1JtPZVjgj0a4yC8Wi2sPKhtCz0wj+68x/u3u56ZFD3vEgs9hIyMvDbxV7zGJqs8a4Hpue5oxTzwvCg9hsf2ug8ljLsuHHI8Kl3LPVoS0Dwusxk9lGsivL2gsz3gBwk+1adcvNI/6jy3Yfa8k/D6PG/CObt2VK68fNt8veY+WDzh95U8rmmsPX68tr3vv4O9Jm4ePQbrNLxkqdo8uNpwOxuJPL01cbq8xZuevXhNyb2GDrw7/kOBvbtJ0DugX2c9zn58PcEnjjxN2YQ84p9Lve8Yyjyx0YS8exaJPYU+jjqTaLw8Hle4vD0+IDtM6Q8+9j1yPeJwFDyRwXC8s4E1vDmd3LyFt7k9QYsJPbaGKr21J5k92IxrPTaWh7x1h4c9mQN2vQbddjxEiiI8WEtsPdEM7bykYXA9pp2EPdBSET0GVcS8ODeMPUWPST06Gfu8I7sLvSxMYTuQp5E71C6JvUd5vr0fD9K9XlYPvXPF4zx4S4O9GKwYPHgpcT081oC9lDyGvYrd4DxV0848uvuMvStsTTwX3G09kis9PYAAirwiqjM9LY/rvAEHub2Vi9M8KcgrvQvwlT16Tp27YcONvHj4Krx385G7pBdpPKRTQT09VOe8lXK9vDZwrr2wXcA8dChXPWY3VjwAm5I9B6FuvXbeB73tqgk9VcILuoWQED2fEJo8ObQQvMJ8WD0oR2+86/X0uzRWFjsvRhW8IlLgPC3HQ7276CS9UguPPXOWLLxEbBQ8aVigvPszbL0ugtQ8MnjYPBvRNDxabUW99Wf1OzKJJD39Wi09ENiOvH5iA7wuGZ28kI5FPXDRhb21qlE9BvYSvbPPAz04NxY9jH0TPE2Pjzx4J7O8yV//PAT9GT15NOG83a8jvSzCTzxV9AE8KivmPHMEg7wlULe69LYvPRveE71s8sK7n0c+Paj6Rz1MfqE8vK7+POnkMLvvOCW8xhkAvRXU1718DRK9HjPXPHSJ5zy7Kxk9M6YhPDaAkbzSgtw8XK0MPZaKGr3x6sQ83lNfvLyZ8bwOGAm8OsXAuy5KrbxMvTm8ptEzvVuYbb0G/0e942CoPY/JszyfiJM8tUg3PJGaE72Wdj09/pmOPYZh2jycHPK7sjUCPFVlab3NGgo6/bVQve9RnzzP/Aa9erFHvdCpEL0kNoc8j0aLvAtW0bwLR2Q5oB4FPRlairz06G+9FU9AveMSxbvzDyY95UMpPKUd+bwqvAu8bAZnvX+HBz5Zt4o7YQYsvDXh+jxGqeY8XNMrPQtHaTzAZnc764JYvFSo9rzWmoA9IkWOPPluZL0clMQ7m5WAu4sFc73guVU8LBQ3PWW6Ib1Zlze9aDeXPaAoXb0Rrku8ZGj8PGuNUzxBzoQ8X2/Ou3rMMT11Hky9ugEwPeLDM7yMYSM96+bwPMrSlTwu7bS8GR7vvAoEDz0CF6A9hgfKPL4Sdr0RsZM8+o3gPFdbDj2ZlGc9DZtVPZa+s7smCzO9GxsjvTyPtTwS34G9gh4QvQ+5Hrst12g9o/geu7v0gL1L82W9aXg3OsNpYbxsxoG8JWakPM/Gnb1zChS9jG2VvL53trvTGZq7ue6eOyEeHDuVig89NMwdPa7aUT33oPy7KBREvfOzr7wKOXU82fiBO9WRfLwJbAY9Gck0vfhikjxbw+S8MyFYPQxe2zzAQ9A8MFw0PG7TYrzvCYA8vpqZPAaUgTzaf/A9hj+oPTvLpL3XdhS8L57MvcP/W7s6E1a8Fw8OvbTNxL2nSqG8V3l8PYjycL1ZSZq8MUG/uzTm5DupFBa9vmBQvFfvS7wv9po9FRK/vJl53TmxsKO9taQJvXsWpjr2QVm92vYavZdFgLzU1+67WLWJPFn5bDyqmUa9fldovbuQF71Z7H+77AhbPQvT07wWGim7PpulPPtmDbzZgM48LEe5u3eOEr1faZC9D35Nuxc9qDwfFyq92XBKvaI0E732/SK9Vn5GPeBBxLxZsHQ68loJuvmxOr2xFoS8LLvjvLpUpbvjHZk7tLGGvHYICD1xyam8nbTWvGrEzzyBPL48x4onu8d7Nz35Jnu9nxYDPfUoHDwNr4c8idVavcO5Er0g1cY9TNqdPE83TTtcCAK9vsIAPWD0SLuJCyc9cKcRvZjjijykiWi8U9OrPKaot719Utc8uwU/vYlpuzx6i3I8pXDtPCJHj71joqW9A8F8vSHyR70IWLG8RH6mPCoAAr07Q8C85KRivNZUjjzAdPy6c7X7OygKiz1K0I872uApPIgczD1+IL+9KOegOxeBH73QYjy9jwCHPPvb+LxP//C8AqdqO4R09zuqeaM7Uy7su54TEb0iFZG85e61PCTgFLw89Sa8SePEvDuLbr0ByIA5mr0Wva7ieLuV6w89GqilvOnBeDtZDko9xZFovZFBDL38DIe9NmgKPVlzrzybWWM7HSEFPPg/97xICXa9D7tZPZ9X/Dz3UXQ8FXUuvfa02btsFC+9yU08uqaZbbyAtQE8d/KKPdel5ryE5+I8fMI+PbhsLbpUcQ09rKl3PJ1kx7xLsy29NMwmvZHQ4byiMpc9r9CbvIlRiTxfOGA9+2JHPN+hzLwyuyY8FOouvSSvl7ztnIW9U2/wPH83oLyWcx49v6gCvXfJozzaN0Q97kYVvPCwhzyj9JA83/HfvAI87LxEJiU9004dvGu7p7yP95s8u7I+PaUBI7wtJsi84vVzPfjsWjyP5E692dkUvRBljT0J2B69GeAkPYPp7rzQo788IYyevTY5uzwSjwk9SxYXvWmomjze1aM8MuL4vNpAB7uA1688MpMXvFzRmLyUtM28ekS/OyeWbjwRVQU7TPuBuuDQsDqS4iO8zESkvK45rrxxMZa8zm2kPA1h+bu3GHU9pguevNPOED1k0zE7UDYQPQoIMbzHmo48Zf2XvJizgT01NEU9NlWgui1enTyDA5C7TlEWvQjXhTs54ts7J9NdvLY13DwdRGY9M/9rPOTq2DwBQj494Aj5PIpC3LwfhsO7+lgfuwRVFb3D4iI9DbzKPJtoxD2kEsa7czVdvCfZY71/HW67mtSFvYktjz19Its8sGwQPc6xDTwZx+K9useTPHMFGLwETP+9dzsUvSdq+DxU2lw8QA7hPBeKDb0SgiU8XjjDO3bpY7vl9aY7uZFTPbY07ju8P2u81aYhPKWc1jvw3xK8bWEbPYABP7zqm847d92QPdftHj1XAwm8R3ONPXBCATuKuj293+iOPIlnPjtDmA691NqhvFBNZT2z+J07cwGlvKNM9buv1O48y7iMvb79U70k1ge9VKNNPaFDxbyJWdg6+njWvL4LoTu/Jga9BQrCve52JryRTWg9ypV1PP8ENj3ENxO9dj+zPS3li7yieS+9jgxzvYCXzrw7kca7TKsDPbhp7DwoCye8tCqJvbRMFLxd1HY8qUmePJuew7xf13a7NUPHvF7dCr0WtvY7mf6TPVYPybsOek691GL8vN4u+rzaSaa8jw00u2JFtT1lDL49uVSLPRizP73drIC9lT8+vSfOO728e389q6+fvCuwzjyuEfM9XScMPa8zpDvV4BW9PYnKPE2r+DyDEWW9uW6kvfO94btNywk9YTMvvSnrNDqw62s9SJjUvUYUBD122Sm8rypVvAtghDy8ZXI8FoHEPLtAaDy9C628bYn5vJ3abDzLaF29kW2ePY/2zDsuf1e9k+4PPU3d7T0FIAY9D5+UPWxEMT02xuc7CA19PTYDRT1HeKq84cWpPOcGKjzR/wu8f0CHPWXJ8Txu+XG5x694O/yqfTyd90061kKdvBpAQD0fqhI8El/OvRcJlzs1IlE9LJbEvB6ZgrtUowc98FhnPD2Chb3kIHW55FcRO+vlnj1TTNI6VLsEvZXg+z2cEkG9/MKUtqgsHTsejAW9520lPLmbUj2Qj4E8z2J2Pb1M2b2vSeE7yCpGPdC0dbpPBZE7FWKPvMgNRDzoc687fMq5PO44SD3Juqm81Ttxuq7aP7zGM/Q8DhpKvfZULj2EYlY8JgiYPRZ0cztFPhC8GS6NvcEBKT2885I86/4ivUYzq7sGMLq9iqmBPYycGL1imuI7bSR0Pf8MmT308dc8ClOCvTBhBz0xEC89GtRovT84WL3ZgDk9G79avWY5KLo3rpW8gMuSvM9lmbzcgFW9TJA9vN8rmLtYTEo99ET4PMr8aj11AfQ6OCjGPM8Rn7xdC6o8bWdTvZ9pGT3+0KQ90hcIvUs6w7ttH5e92GhPPe0tsD2jnLS7XT5fPQWPrT0D5zk9C6yFPbtRCjyzWQ290V45PMGbgr1PBZw8imgHPV9dpTwjOZg8mk3xu81aEDzdRVu9vfpxPFMShjyrguK8ZiQDu5W5WzzuF/w7IHKaPdNk+jyXqhC9ePlSvJuF47ztCdC9+DdSvViLCT1pc9U8KxPdPQOWuriduC69Iy8UvWz9WT05dNe8wsPHvXXyHT1yRCM95YpAvc2UDL25iWc9BJvSO/S5ozy/Ap+9s8MoPUOyiDwtaH89ZVm7PRYT+zvCpXo9fkmaPbW7CT3GfrU9rjI/PRdN47vwH+Y8JWvFPeFPFj06J8Q89reSveAA/LoylFK8NCiAvBz3Zb2q7eW97iBKPIPCiz0OUVA93rCSO/KiMD1N4Ag9Jd86PDRJRr2SLim9foWZvPOUWT1AxLI9RoncvNPY07yxm5W809ugPBt9/j3goAA9wwjHO1xIrzwPRyG9UcBFPUQgrLwR2Yy9bTQZvVKHA71Lrgm9Q3VdPW5SgjwSLjI91VW9PPR+CT0mLPy7wdTmPBiEHb1Ga4s73UpCvYBn9Lw+1mU9HC4Mvfg5LD2rMR+9+EWKvQwO17vhgOO9VDYdu7Piiz0kWiS9vviSPXrvl7wbxGs8sxkbvdB7Xz0tJ/q8kB23vSHCm7w7+XA8wn8xvaRghL03fbg95GSWPRh24Dtgo8O9waLaPIHEUD3KqHk9jMHaPJOoBT07lRg9ii+RPRDlRbyxhbU8tLyGO7ZJgbx234E3iHGYPClZEL3pBWm8qy0aPXF3rzwo4ho9ogRFPdYrCL2XrrS7mx6svFO+EDx+WAQ8TUdqvREOijwqTwW9I1LevE5mqTyHGMw8xq01ve7XTLy8At489FK2vHo3S72YqAO9EC/kvC9wqzzuGi08VnFpvS3oB72oWi29jCo2vGzPKzxSmB48UYmyPHPyxbsqe2877QOPOw2YRrtpGn28cIe/u9FeVjzE12+9bYQRvXUAvDz4d7k9l77NvJ9whLyaPvO8hlLUPHC/7zmxplc8zMU3vaSdZryYx6s8giaFvF1VwbxlF1G9DRamOm4nr7w8Hcg8PHMbvb1PMr3A84Q90noTPUL2fLzVKkS8p6i/vJlvJrvV94U8qrJwvOuMg70xngq8ptXrPN4rUr1b+he9Ex6luzPzxruqKaK8sqDsvASFBT0Rztc8aoAivbeqWrymODq9tYGIvRjzFLqhHlO90dM5PQyQAb0hgBE8iFbbvNnOaj0MYU49eCM2vVaggjznELs8ZDPDPNhl2DwNBQy9c7eKvO0kEbyb1re8qG4ivdgdMryH5Uq9cUkLvBrQnruI53q78cWsPDtFKDvuncq86xiWvEPQybwI9ya9EmJavROzeTyntjU9rFNePIhb8byEzPq80Q0/vKlhhr39lxa9qizhu9s8N71C6LW8+2QYvS3jiLqRDuo9RfoZu759xrt1Ffy6RHcTu0tdlr2Prls98FeiPPHgFDzQrxW8+5IpOyp7O7yHY848ozWpvOAr+bxCKnM9hwzRvEg09rzFXyc9Mzy9PE7FE71Fpuq8UgSrvOopEbwK0Ii8OiOBvKCJFr01f/i6J0lsvAte/rySkS693weYvcA9Mj1hF129c8+JvTtlDD2enW88/1SmvEAU/DxT01K9fGeCuSlbabyTL/88rqPGvEthYj3/W7Y8vi/hO8yBADy00TE7M8IOvW3g6Dxy3eK8LrakPGFMS738fZ88SY9NvUqsAL2HY2q9HjwNOv5nhTwzKmk93q6rvHSOt7yAZIS9mTgoPdHN2Dz+4qk8WOLmO2PoZj01mg88mKNcPft6a7y/Grk8ouemtt3bCjzFIIU8tdg2vSeYgzyzq8A8MJ7LvOAgy7yJhYy9PCbnvG1R87yYuFE9ji50vVAvUr0tzjs9MiGAvbKT3j3Nbf46bcoXvYX+krwS0+C8OjJrO4FUkjxcRQC9a/MOOusxdb3rNUg9chGCvY7QAT3m0cm8AKuuPOG4mbxJtjI9moIPPScxDT0TDuQ7JPYxPY5Nkrw4XmW8zAtSPS1Ulzy8vl88EChDvRmuRb0FKom8QoGPPSgrlrsgvig9ahajvJKzXzr5lgu93xIdPClMSLxhJc48ZEVVPS2FSzwCAs47mbbqO+OWBb27tzq9Jv6DvXi0hbvsZBO9AFkUvKfMNz2DtCE9WVNXPRSXBj0vl4y8rXnGuxYOPjxgrdo64kGvvIqM47ycFAq9+aoMvaq/Nb1fCKE7mmCtPLWNMT3ARqY89I6TO+tY2bz37z08+iIjPV3AIj3gKag8o4MAPeIUq7u7vYk9mLjDPNOI9DszOe67XPwNvWBLET37xFa9pIJuvHgoBT0TYNS8amIFvKTL2zyu+QW9mvZFPRkUDb3ChMK8tNyTvWx8Hz3V+BU9A18BPUbTGT2QF2K9XWm+OzdlJj3CY/K8kxiePFl/Q7zXQrK8obNJvWdjpLuS9IW88uFdPAJlDj3cUsy7a/2IPeogdD3FvNc7+4wKPaum9zxjtYw8WVC5uz7z8DxFkD+9QjzMPEWn+7wJ6b+8yfpCPAqs+Lyo1Ng8taM8PfJuXTyF70U9fkatvAMhPD1LRjs8nMYLvZ0M6DwsJAy9AAmpvC62E71++am8FTYLOyEdhrxuSaQ8qsurPV+qh70RRLY7kcSQvbsKHzuXBgc8Hbv8PFLPxLzY2l48MJtrvRoSJToOaom9CQXLuQQg1bxXfIc8yRKhPJdFO7z+r5085iMNvb8o+zzMk6S80t5UO3ZP4buGvwo9XBM6vDlWU7wp1rU9JTw9PbBryLpoROu8Y6w3vc6Vyz0i6UI8H+WRvKsaDzykAAE+3gGLPFVD9rz+4AI9yPw7PFKvxrztlt88OP06PCopor1oO5E77rJWPdysS7xRwre9Tk76O6BQYzxWsaM8hyykPb8LIT1uyi89FSwBPQmVvTvHeXu9oiazvMK8GT2iZYG9qaHOu+4vkrxOpsW8jjKYPV3qszrSiiM8K7guvOxIST2mfCo90zOmvc+lk7ww7xO8kI4uPTtEXr0pHdy9pZiGO54iejyivcI9AziXvSB0s7zUR4o9vlv6vCJgnD3cM9Y8p6s6vQNYnD2WsIc9VOzDPOVzkTyssPW84HOEPAK42j1RhSw9BpWrPZzhPD0yaAg9H/+TPX2MMDzLVDq94ZZJu4mQvbvsmLS9BhhZPGJqqL2Xm1w8+yODvTzFALoql4q9e0s9PexSd7uhvUq96TRbvawmPL1zxLQ9wrFHvLqGpr1cFGS8BuM1vY48tjwsexa+PX3TPAbKjjzJ9GO9mxGMPW5H0bwbnEM9k1L1PGWs0z3e9U28N4pdvSR0Qj09PHM9TG93vcLDnjsgbpg8sJ0uvF0BKry+i3S9y595PLA9Or3t+o49dc4KPUgaJbyv1o89LrfuvHy7fL0QQYA9LHzsO+3NKr0rjfU8AhqAPJgP0DzbkMS9o7VTvPOzwDuFB+c8SFs3vHJcxD0srkE8xl8hvdLpJL23jwm9Re0TvVfCGr0NlZ88ojD4O3J9hDyU+XI9K9wsPDGxTrx+EuG81SxPPZlGwjwKiUM9rfuAvZNKjb2dG808M0VfvAiaar3kie68hg2AO+374jws5Ta3+mzGO1d6MzwxNhO8xs8VvWbxN70QYsU8P8YXvXglprzjNgi9uok0vWQXjzwyKKs9OPmku1gtKD1Ed2e8v2+3POTofL1CgTw94DdFPAdzU7zOdnE9YlsCPaYRQ72/s7I7SzS+vVJwiT3Aaki9UpJHPbvgEr2KVpk8ZGc3PUPj9bsDqwG9d5xZO1cNfTyOCei8Qc62vZ4AtjsZ3mo9v8AHPTOphL0OcsS9yDc1vW4vJjxx0Ty97YdtvOui87xi5R295o+2vZi64bwE0Q69kiTGvXeyQj2iDd48ij/OO/GcLD0Ogyk8oiS5PBoUSLzlCEq9epRQvUjDRLyWRqg8K1OJPNTVvztzojQ8VqfoO4SuBb1K/Ha9xZ3evB6gyLxZ2PK8LizEPFTT+zoSYBA7Y+u6vDGCHTzkxZU8VXoyPBbmNjy1zD68BC7APGbYDD3aDTa9KRsevNdUhb3vNw476ZfGvP4/Ab3xKCG9fHqRvcu+pTykD8K8E2UBPVjF2LylDZE8H8oNvfJ+Lr073Wg9G1yIPBTixjyOvCC8rOu5uz7NxTwKXYW9y2ujPClEtz0BtYe7Z1tJPH4WejysSi49lb1nvJJzFD0hvCC9rPi6ubpKDzwbdyE8S635vB38uzymqFs9OaDvO6mO97z62LG9lxgLPeg6tbybCzw8aawnPQMZOr1MMBG89NPMPELna7xU0Y48vTPWvAR3KL2vduC7sYLCPLr4trzw2Y28mU0fPYVkmjsVDMq8jZgAPakUKjq7IE08jYJ1PKKHujzjohk8VCQxvJ6Vl7yqD7o8i3AgPSa4jz39WQU93Dzhu4Ekwzwf4JW95NNMPYkgdzyEqDa998PLPHjM1Dtt4wA8E5kQveneZr271QQ8r6uGvBEEGLqFPjK8G9mJPCk4U73wJS28UnmhvM+TJTzw2Pi8oUyBPJFUKz3VelG8Z1zHu7lLzbz+QBu8HXMqvFF0cbwkIgG7mTXwvML8rL3Fqgc99lBevNXdEz2Wvna7cA19PD3oGb0LZkU9BzdWvNJGrj3g6f06cvuXvF+tG7184Qk8jImHvIeGVjxQvNm8xuN1PMORIj0HTzM9ydxSvYFlBbykKQe9YrL1OyBTxb0+Tim97x8Cve6CBL1tcCc9B6Z9vf+8CL18gBS8bjeHvax+L7uaNDw9unZAvQY6Ar3eVui83y7gPLxNwTzejy89GVMDvWgqbr3zWJ+8GlHEPP7blDwrYEY9DaeQPGYwqrwuaSG9mEFOvOGVpTwH/DQ71SlJvLSPuLmMn4C9+IqmvAXCQD2sKJq9XQppPV5B/Tyoqno98Y2FPH0kE71zrgQ9tMH+uHftNb1K03C9N5y5uylw2jvV+Pm80tljvWjVBzxoLEy9bipOvGZXGLzT/La92++huyMxAr2JXek8CMGTvRNlWLwfopA8ZaPlPEXPcL2fNp67EpTEunUOSz31WOq8EkQBu9iyB7yEBMo8+I7svJvbvTzyJDk9Gq8uvRbkNr0bVs47/5NUOz5EGDzKlwe9g+3wOoLd57yKg4270cpRO28Etbwac7e82/9/vfUWxbz7+0M8PofzvBvnUj36WtO81XAVvTI/Lzvo3JK8wouNvTzq4bw8b0S8KDCGu/noED1/xR68oWjQPE+YRjzvlAq9yfCZuwwR5T0VeXo9OO1KvQW3fLw++/G7apVPPWuJkjyurzy98O/5vIa3N727kyG90GSuPYRvwr1/6NC8TTddvTfQ/7wKjGw9Z0dMvQd6w71N9oU8SUfpu5i4ETuXwJS8Y+w7PBVT47yATD89CJmkPNE5PT3SnEG9AiCtvM5XgD3U8Um9aCnSu1FqDr3aO8o9QuCDvQ2bAj2feYU96o7BPOHpibzZS6i9O+1VvVxMM7vgyqU8yLD+PNHcb71fVxc+yZ/VPErLmLyJv5A8yV2svUogJz1dE6e9vRxDvXbJ0r3mW/o8Or53PTxEAD11VYW9/qoFPdTVt7zheae931uAPDES8zzOcEs9G92POqOK2by/ft+9D7f+vCtqtTztX4K8J2VkvWvw8TrdM/i8z/1jvV+2Lz3Rfwa9RC7Wu60AbT3KIII9r1vWvOW6GjwZVwo9B4wKveXXZT1+O4s9IrbSvBGDpDxhdVO9piP6PDsQSb1hfyc8Pamyu0MzuLp/FV49Zy0HPOpk3jwR65K9CiOIvSyvD701I0Y9vwZYvCiYhr3lTDC9X+4LvKBbIz24hJS9KQMxvfMb5jxi/GC9gXRMPWKhQz2kUhC8qKzqvOFNgTxCXW09X096vahaUr2F4z29coA3PYlUO70iiGI9qluqvAsshT1KIeA8Mn2UPMC587zyU5M8lGMlPbeNNb3yHIQ9+0MVvSVjNjwMXGG9+h09vY/pDD2UITi8m7AcvVRLMDzEMMY8uh9APaP8NL2gpcA8Bh3Suz1KJr3C3tc80aE1vXddubrPohI9ZDsrPTLbSb2nn4a91I9QPP53hD2GtR69eFG7vKtbnjzsUmg8rfwuPZyck7wszlq92p+dvbNrIr0VRZg7iYG7vB65Lj0rZ/U8mVZaPO++8TyzTv68xtPaOxrLrLwkdfQ7LMMCvOvLmz28wac8aJuivO5zjTxsJ6Q8QqNtPCPeK7r05ro7GNCzvBIVDbzqfXS9vQbHPa2WYL1iaF68y1bNPLd5X71R7Bw9wYJuvWUJxz3gIY67BrhQvT0uEj0hipo8VTjCu2aFBb1JbxU9NSsuvEQUcT3Jmos8jT4jvdJvTD1fyWS9vUoePVA2lT0QhqQ7fki3PV+80Tx7k3e9IfIxPVlkZLyJ6Xy9NF4Rvb4yBjyAQK48o8X5PO7utz2WnNC8iakCPf7esLzLeC28Om1+vLCNibxpohe9N2rFPOzKEzzMlku8nqdYPc1uDb3hpUw867WTPdzkMDyCJKC8nmxKPZL3FL2xxre8rpx4PCfRnDzgVFI9NJjMvQtIZj0OTD49pskhPcPLRz1di1w9WbE9PSSlgL2BXUY9EGtmvGFFhzkLDdI887TNPI9Kjb3S/6q8u7AvPQJiSbxIdO07fpCkPE8rlD240N87e2M/vVK5Br38vdG9BAQNPQRy8Tz+WaA9FyNovYdKtr3fo2499w0dvdLRhTxgqRi7Rm29u8+bPj3Osxc80r0NPYQaQT300xo9zjFSPOgjCbo4FAu9qVlRPMSpMT3FGxU9e+npu5AMGDr1ybQ8W1MevVfJ0jxAxQG9UXoVPf/qlDxvVYw8pJxCPQvjJb2iRLC8HvfPu+t7/7wCvAO86CaMvRV9bj0lW9i9BFL+vPIWgby8F4+97Lk9PU/PKz1+1Zc8NqbwO+gKyzsQ9va72sUMvYj5uTy7usc95kTEu/oHgTz2eeq9e8Oiu4kEED1RJJW8FYtavO9przyaCy29zoglvV/BKTzsB+w7GIOePKmbH7yHjDw9iZ0RvI+2ZD3Hios4bfrvvGxLRz1KNik9RAi7urswPj3RMdq81WOWPep0Ez2vSyG9w56iPO4wCTzZgKI9GswDPF0CpTxofjC8tL2KvehikjwlOtG9CGP6PXIA1bsE2dS8H6BMvWBarLwmK/U8cyeMvFUZZz17W1s9yDvRvWCbHj0usMK84bi+O0x5UL2LurE9++qYO0Ah5DxBkBS9NpGCvU+rmLzcZbA8knujPAnfSz1oYNA8s4+9PMsQd7xhR7m8T0ZNvAsPS73LuE+8SQdyO2uwfD3msZQ75PiyO1PhiT3ghIk8IfPIPPHKxbyEZJa80rqPvaPkljsz4FY8awY5PAGOar13PiM9r3EDvTakabxTeqM9fRXWPLgeFL0eXzK87pYvu/YWTz14sYU8OO4bvAl8/Tx9+/c8rh53vVl+lT2EuSM8VOsePd/luz1QCvw8+7DbPHlclTuhZ2a9Jz4mvMguAT3sOU+8UJJDvWzeWD1jqqm8/rPGPLJxAz1lJS49tT+cPLklO7vhEIW9CsWaPc/Pbr0vqUQ9l5OpPDFaLz116S+60iNgvdfLgzxRmQk9EJAhPbyGmL2ycIy8NBIyvdr3pjy9mqO7KTjRvBuxsb3ARoI9GTFHvaUYDLyyBHQ84i2KvJ+qp7u5eh69P5MAPGgqzbyIum+9uxIuPeWeL734Eug7ylG+vZL90z1ekyA9Ope1O/PfDL0RgIc9G9l0vRbbj73TvSC9KtuyPYrPRLzXgK07hXwJPeUbtbyZE1k9CE18vHYKvzvNN+q8TfBoPZgX8rwUGjM9TJs2u/1hM7040yg7L6/cPPgCRbzLvg69tmkOvJ74aj2Mh029aPrLvB3TFTydwI+8Kyw7PYf39TwvJOY7R42APejNi7uH1nM8vUivvPduC7wF55g9dnLWPIWUDT1sCa083zt5vc7UiTu4RSy8vikEvdI04rzce4G8eE9zPdh5Az3QXkK8wf/yvN6k3DxXCr+9FDOBPF3RUjzePUA9DT+DPYvxAL0qKJs8GhV8vfpqWj3UKh67lo8zPXmKw7uzNCO8bylRPYbCSD13WPY71C0tPWMG+rzNr+k8yg/iu3LUsbyez/k8lhH+PO/Zrb0hCqM9lNYhvYG9eT3rJBE97Vd7u+Z1bL3AJQU9kUsyPU4xlL2fJfO7HaBmvaLXVz2tXE88CuB9O0kfuj3xuoS9pKydvQgYYr3XwY+9rbMWPKN09Tyj0Ow8pYdmvd53FL3kT6W8VpHrvY3RTD0ysWM9O/CsO/YHib3ADNG9uTWHPFx++Dxz0gi9uspyvbG+vDtyL3a7OEcLPajh0Lw5D2q7mNu6vUQeNr0o/dk87SB+vZ33g73MU4C8h70tPKTmCrz68c+8bR/Au2j3ALxXD7U8S1BaPAI3eLy5E7A8++Nkuwh6C72sRFK9FITwvLu1Lz16HSW9fSUxPaf+JL0pyzW99ZaMu0Ch0bzi/Da821RCu6erFL2eA688iebNvFr357rvyp68VqXDPDc1xbx/4029/5hAPWGbVT01Txy9Szm/OlYnEr1qVFe9p7JKPYPbHzwUXDI9AeFOvfLTcTy3IDg9GlISvJigIb0eMBE9TSoXve2S67xZ0y07pQTzu26mlrw2Tu88JcjBuzdzjbzQke28R+Afva8Vt7yKutG7G1ZcvaS57byZEUg9HXkCvVXC0bxC2AG9wdKAvF4z7DxDRq68MIiAO5tgFr0Qn3Y7X+YLvRXGrrwD6Xg97IEsPTyUCr1shgQ9Y3/fPB6uITx5QtO8LTFTO2/QED1gbwq8s5agvVJjOj0GpUE7rEKjPFwXhL0tFcq8mWVevdo2PT1Phg09S4OJvQrj6jzqAZs9jHOJumz4JryBLZu9WKPrPK9lbz3iKFC9ZazIPIVjnL0/pwy8UH2FPIoB+jwhzG490C1pPUUwKb1jJO88qDePO/DLjj0i1nU9WaoRPa+aoz3gw4G9sgdpuw05GLyDiY08KT6VPNK1f7xJESG8lvhvPUQGjb11Qeo8LAxPPdAqPD0Uimc8iIyyvMjuYr2IDrQ8sNKCvcUjpzxLkuy9NJdZvR5MhjybG408eGGPPQ4Dr7tgEAA99SbTPI0BJzumxqy9DVDzvBbH4Tzbc428YBRNvVTZATuMeeu8tYymvFXDOj3kYyW9hv9Mu7VfZL32OCQ9MrqpPfZe4z3jSx89l9UrPeCiBjxFarw9lA5YPcGFbb1OveG7rEuMPTDeWT29YxA8ynRIPGx/Yr3lxHe8Sq9VvO24Xb1c7Y28LAoFOmgMQrzg1Nw7gmCEvS73k712bVY9IhJNPaglC72uqlq91pw/vcZzqrxcPfm8eqvBvA3odL3+Yr09rRlFPIJrtDzPrFS9jQcavYXrZD0pjDm9bzZVPV1wNL1Tf1C8e3UCPns04zxftXG8uyQsvI19lD3p49G88w8Ru3B5fb3FgaI9RXDOPHti1TufyCM83s48vcTiUL2WQmw8u3nTvHGiA72/c6U9d3A5vQKHB710hlu9K5jLPNnpyTwHgES9IHucvWz7OL1+Dt48rqLtOyt8YD3tySi8j4uePMOMQrzKBZu8MnsVvAzDBj0ccwE8wSmzvSUvej190G69jprOPLETljufgD29opPEPN7yT7yjML88oxABvM8Airw+PuM6OMOyPMxSAb7rp1O9OTAAvKl7Vbxtz568ge4xPE06FDxDHIy9eOQTPDvtVjvGyLi7BhlHPGs5wjxKimC92rMIvXrZhbrhPpo8NO1yu9p+jLurBIQ9d9wIvWL1h7w0Y7s9l9RpPaaDvbzZFFW8vSVLvcMFi7xwWd48X5vLPJvM67tItpm8VzS2PNBBlDzLG607hpBHPGmprb3J4Bm9gysKvNRpWD0DiYa9y+WCPO4suzu3tfo7Wfo4PSPce7xZ4tA8PTcyO+N3Bb4vaUG9xqA+vZlIpD2hV5u86hhHvdbMqrzSaOg8FCN1PRf1jL22k6Y9cLynPWvdPLxwWAM8RyDIu4A9aru0joU9kOxDPCNbw7wnG0e9lUU7vLr9qzzX08S65xrcPJTV9ryOCH69JnnBvZi+XD1qcD09b41fPSsIjL3fUVG7LAVou8h9EjwXSJ06qnVhPOLisjwPaxq9LugaPJWFsLzO/a279e1BPVcyA77/mZI9Bh50PNp2yTsjJcG8t0lavINjC73SIQ08hodIPQAxB71igzg8lg2uOr1vtbzAIG48/8JzvWwOcD1wdQ29P1javJSBf7zIhFw9+T4JPDe5YDwjKYG9VCGfPPUhJjw5tWq9+igCPeoWI72RL7I7NG51PEB3RD3PYF29Hd+Du5mkyzorJAi84LWlvZ3qqr2qdCW4jrkFPaFdtzxN28Y9QqsgvXz+Mz2+cCU9louIPDe1Dr6p/L28ZEm1Pb2Q0L3U6LI9F7MRPQ6fLD3tKva83yhVvVRtJz17U1K8M63AvRQEXLzWFKg82EGlvA66Cj2ugHg9ZpgHvYzoirykalY98fHwvLxa3TzaKXQ9cDFuOwzb871QScK9A/oCvNGlhb0znl88+Q9LvGeMmLzbaLO9DT00OwqWHb1cHbI8q/jRvdAvcLymPOu8kBd2vE1lOzxzW8S8sZPVPOk4QTu5zTw8KADBO0A7x7y7JRW9LKOcPErDJTvkq308NCkavVU0Fz1EWAq8PP0UvUaPP73yHxG9b0NxPcW+jDxsYeY838gAvFLSAzz5hPI85kglvYeUPL1gzSS9IKQgPTS8WTx+wju97vVmPaljVz3Nvam8zSCAPGlr9rycT4y7IcSMPEJ68ruRsnI9B3IGvO8AJz2wR9M74O0LvfyGn7y0Txs9K84WvcV8Oj1WI846K4kJvVFYPDxNmIm9Fy6QvRQOTrhcfes8Xn8RPPMA4rxQjvq7ro0WvXJcFr0xjdK8eOoPPFdeBTzkk3Y95pSlPK2xJr0h14u84zXcvM0/NT0Frnq8hYaZPArXELw17go9vlkePe3robz+SUY94pdPPJdH8TxwdT29CS6Quw7KLDxDfMO8R6dCvRz9Sj3HpxY9t4bkuxMfib1L3h48tw7YPM77NT1Jv/U8U4+CPVZPp7x8/i29ZNiivEEhuTy6+cm7QILZOmqPp7yeLY+72RvfvBJIlzwFPaS9iSGCvNCbQTzyIMM7K6ArPC6g07yyrGi89EqAvcu4eD0M2Bm8ONxFPC35Brw0fAi9YGGTtR0Rpj06ELa8NF+SuvA9H72yHqg8w80MvGf2Lb2abGo8CJYxOx337TtgcK08x2P9O/XJiz37/pE6giJQPb6mub3JM+08/xoCPUG9t72eMGk9UpaSvGwrpTwm3wa8oFeCvQ2IuT28L5C87713OgbEcjw3Pr+7OS23PDVY9jyApqQ8qtN+ukPICbx/Pvs8Nrf9vDQFhj3JpoE9Rf4RPRXtnb2ePeS9+DUTvSWMvjxuJUU8w3edvI+trrxIHBa9SKB5ugEZgbxKCK+82OavvQUFYDvrPAq7w6htvDNDmj1VIyk8kHMnvKf7HL1EU6i8KJg3vf73iD0gHtU8KEExPfKCCD09ELG8x/NZvTQkkbztbY28TlPoPPfZwDvgFps9bbtOvR3ysjzk22i9eO1mO8vKgj0BV5c8wCb4u9fzbr1LaAS77eSZPAxWBj2j+ry8yKUgvCo3LL3OrGY9MfynvDAd4DyZbBK9JlDwPPKy4Dy4tpO8sOGfPMY9ET0A6+i8Sk0UvGhC/Lv7gHK9NXsbuQGeFT2pkwS9sp6lvHCxrD29G/g8T0AzPYFBh73sLLu8LxV9PYw6aL3dII49pTyjPHXnLD12Duo8bG44PP23xTxMJIe9bNEHu2AJ1zsIjyk96JSNPQqLTr3BcZ+7iSnuPH4rETyEkKc93qGAPe2mtjw/+9K81Q42vKqCpLwfbjA9fOh+Pe4HVz3z8OI7mQiWPWrCwLyLeWE8TQUavfuoiL1vtyE8iMHcvArkNTyVlS290IUVPcIgY734ma48H3s3vYo1KL0EXZG9U8hCPAxvfDwNLNa83e2MvUV97jyaZW69JZwcvRCQYLzLTT88OWPoPTcNIj22QCm8XE2EvQl0Dj39HfG8oSw7OizzE71Pdwu8kdeFvbMrvz05MF47MKzMPHqjdLw9MqI900qOveISiLx0oZS9bPO/O5LSuDwijFE9CJquvckwBT76koY9P+ERPX5fNb2LjWa9JYOsPcjulTwer2y9xk6tuxjIQj272YC8hhkKvaa4QTy516o9IJegvbSMYL11w5I6K0NQvUUS87yJ1hY9MAudOzcTmbyVHng889kdvfSLLj2LT0u8xlKiPfmoQr0rQS69THeNvXfsjLvo75M8ayJcvHyeIzzdP0K9Rsg4vRsTY73txGs9I9cgvbKK1bs3DMQ7+2wCPMfjBb1b2U48Rc27PA01prx59tA8HIpxPEQknb2EkGY8eqmfvP+C57ypVgG9edQrvc4Cpz1f6e48qOGnvG+63DxT9r29WhUXvOl/AzzcJoi6/V7BPOCduLzyAlu9mRz9vIkrjrzRvTW9neAuvZLj5LuwKVI8P4KuuqQrfT1m0Ls8FbI6vCPJMb2cJiI8b7ZlPej3kLtoVk094QGAvQgAiT1if0o9Kh2rvDRR/jyvPg48/s0VO/ug1LyL4w09YWbHPFo5ST1afIK8XjUBPXwwaD1QYzk85t5nvZWUtDvagG899xU0u95ikLzPoPO7RgwHvbv6Sryw3aa8Y3OrO4PB2jz9koq94yWRvXyUkj1Hy4Y9wWaNPdqXeL0str278AVEvZYx+Lwip/U8AOwIPbjLnry8wU69X4gSO9TnXb194JI7b/iCvVPD+jwFMk88CTb9vHfCDrwuPYM96LsJvBGENjtxJc+8TU+DvOCKtTxVr/Y8p3ASvYJIlDxii6Q80yAqvKm4XLdCTje9EaS4PFWYpDzvlLC8GrPYvAbMnjtMs2097SJKuxJdCLxnL8K83Lm8PGve8zwEG4m7pQgbPZRB9rxXg5E9B12WOztGqD36zZI9WZ4zvbpQhr0zKWC8LaEmPH17Drxxaq483bRRvOwbJLyqQBU9GJ12vLyGWTtVKvG8t08ovHBfHL0FaDY9Xf2OPP4AkT2+cCe9ZIlqPYeGfT0NtFO9ZQz7vDZhKr2vhEk88qykvHGgfDzmStK87D/zPIakJrwfRAo9bi/EOjz8HbygmEa94yeWPBPZhDt/pCm8qAkDPGBCgr18sW08xkK6vI0QL7zC3W48MSMUPTZaPbxeHVq8cRKSveiNF73yBga8N87tvCw2ozy6n986BnJIO0FYIr3/eGG92r9gu2Usdzzd+Dc9VZo4PI4Zkj0iGNk8Wm8/PIAWRj1zCSM93CcCvEV7wbwxrUu9vzSOPAivEDsb9pg9nQxZPaOfRzyrjIe9VbdFvf+LNz3ayTw9nls3vIwEgb2bWGI8d90dvZRJXbzRJAG9MmiQvH63or1L3ss80CrZvOdK4zs+cUi96W48Pd+ZkjxQyha8bQR5vSnE/Tw2Fx29WeWhPPT8erw/b+i8MvCNvIS0FT6i4H280r3BvPpd+zzdc0i9r7HCvGmUB73mAdk8nwMyu5AzeDzPVyY9cZPauzkuHjz7CYI7tjAlvSzEmbxq4+G7GX8HPXvoKj1QYss2S2+SPbCcbL16i808dV4gvIMTsD1DI468yHWiu1Yyrbvwug49p4wbvOAoHzpuCy+8tXVhPGxfOj18FVq87W5lPfhtxTzxgrK8Hk0avYg8g7xGv9S85SmCvCs35js3Ps67Yo1HvA4WSz1pxWM8joDTPDZrm7woRoY8ZG0fvU+MxDs9BRE8SsBAu6fpUb2zkWA9rlOGPPDWl7y5gwW8fvX3vEHqJj1eyAA9xMujPQmAwztJoKi8h8hivJR/xDsSUFW9o4MgPIJfqzwAyzU9WCN1u+Btz7oFY8u8Vf1EvHicjTotrmi8iwLivDM1SL0M5F+8rXVbO5cUar1NZXK8xpttPCmmfz1+zsS8T1s3vTtSQz0kTU29aWhdvG1fTL0KqZ07RdkzPIiKS72fBrY7rtu/u/YMkzwvS5+8AGC7OgSr8jxpR6U8Hx5DveaKDLxR2lm92DEOvTh4QLyeVh68221ZveK0Tj0QjLE8nAwHPIqIoTxa+f06LV8SPZhU+jw3Sek8T3qrO/5vfTzWEZU8ugCMPQCnhT2+Lsk8/R6GuwmXgb1W/pI9XeCoO3+tAL07m1Q8cK7MO0jddryhuyQ8UJ2cve2ia71i9Lq6xgi0PDxEBz2ojyk7g70/u587Az3Jzwy7Bx4UPYRRL70Bh9M82iA1PEU9gjx35Q46FU6dvEBdYj0VQEG82ZaXPfVZg71V+kE9qMyrPUdqZD0HdIQ8zuJLPT0gtzuaN6Q8MZy+PAWoqrwpE7Q9Ito2PeLRwLuU07Y8jhH2vD7zJz0BkGQ8XJ3LPPI3tbya5a08h6Exvbp/4rwaC329Y8EZPUTQAT3aCPm83DKivGq4C715zt27sF1FvZFWXT1xYOE88M7TPONwCL2k5BE96j8YvXmIlTz8Fs28xgbrvB8aSj0XjzK9j952ugcgwDpY8eO8h0cXvcHG9Lvh6WY9saJevVIIEzqKlhe9QGWFvXNBy7zIop08RE+IPPxDCT08dU097tFPvJpGMjtK4yI9GX13PDu4lTsCs/M8Eg59vcO68zyaMHG8CdBzve6WEzwmGcg7HtKNvMS2zzzpJIm9mjnePBZPojxzQT28gg3nvKxnDb1+Row9wjIHvbBllLt/4PG7lBtFPBCWiTyCcN682sT/POSkAD3bjwW9YzGBPOstoDthWyk53dWxPBQ88by4egg90JTxvKNSGD1z0yi9YQTiPD2Cyr26e508XG8xvOLDkLwpK6q8vDYyvQbugL3dtKq8zq7Ju+Z2lLwmlJU9VqP8vCMZKLwfkig9fXMRPEA1LbyfcHu8VI/XvEFwG72JPDW6pEekuktehjzRVF884EFYvAueS7u1mFI8EB5nvZ7oKzzpH8a7ThNoPYJowDwpAK48KvJoPUj5Jz3V+Ws8YFDDvKIr37xUc5A8/MFCPcoMQL1KFWi8HRtDPBR3mjy+qKE88MgFPSDptLxfc2895bYNPUS99Dwkb1A9yMgTvC6QLr1f5so8OmYzvfl1PrxuWwI9JGNbPfF3nLxjN9W8ngJPvTKLtzwgn3c8Fux5u1m9Ujx2dqs9Y8oAvaSjcTw3I488U3UwvU9WUT0IFYS9BYPGPCgvort9aHu9apl+PUcgMryOsdO8tyRCPTN3sz2KVkW9/rDTu7/hCb1pZGw9YON1PTen0ztPIFw9S01RuxMNrDt1FUS8Jt8GPUl1hr0NExA9DUrHvCzlgL1ds7Q948YcvP6YUbzq5Jo7mAypvZXnBbwE+V+9klo6ve4/uToxKr68BuAPPetaLzzYJOG8vK19PGYSDj1M6RG857wZvQVyGTzrx9w8xXkqPQ6jYL0D7Ua8WeaCvevNdr1apx49lg+BPf/plLzOg4K8F4yHPTHr171asti77zqIu3vHZb0VFLe8GceavRyW1z288Hs8sHt7Pfyb8braqXa9cKGDPU0goDxFoNo8wE2WPMCobbpfUww8TOqRvYRSVjxlHwa9+CZUPaMNuryOi9O8iXlmPSieOzw4nr+7HSHFPThAYj0IszS8mJj6PIyP9r0wMn09voGWvCtrsj2gr5w9uYGTvR5ujj03c4Y9bx0OPBk/2L1Typo98mPRO7N5kD2YX8U7ZVnUvOfHJD2nRxi9FCgKPRV4pj3QpVQ7CRjOvN8xJTtQWOA8cuqXvKtGwj1XpM+91W+GO0msMr13FGi9JArZPEaOHbxz/Ho9uYHSPaiIB7wsKjE8NvGxOm2Eij03JFS98Hn6u/wlnLwr9rG9GT3NvKYaPrvQz+O8d/7IPAH8l7xezvQ8+fYcPSKbiT2ggn69oQYXvUNLhj10K8s9WaiWvUsjmDv5D049iJCtPI83Wj08hx48Ul2tvM0XD72mcxq9mKvtPFFEFz3giik8TRGhPeeGAD1KYjg8GmkXPTFaaDviZmu8kY2aPCKL7TwoFwE8HUEUvbiuGr0qwxO9cshnPIYfrrsZthC9B6nxvAtt57up/mQ8E4raPJo2ib2yHTU9+YlWO4kVkj0d8M28wVwgvZJ007zNx/48Oe/kuzkpFz3ybB49pTLgPAtuVbzGnx09INKmvaiADLz0DVa8lrt4PMJgBT0mqqA77qeevIIXmz1fwvC87aBhPepUCTyQ8YS9XjkjvVPN2Ttnpyc9rBjPu/n8oD21Q487OEL/Okuckjrt/iK9XdBIO3r0XjyVXjE9p4rXvF53FLzerjc9zJAOPT78mLqna7Y8Ianyu/pmrTw4S0a9SKMXPIIMkTx6mGY7M3ZZPEPgsbwJQl48bwKdvOuYors3iOW7a6z/PM8qD7yT28i8qMFMOxLVLj2vqwE91+lCPMrUnrrQeYm89tYEvTzYeb029xy8PJtmvdSRLT34e1o9TEkGOR9UOj2c6C08v+JwPOV2BbyUPFa9fXcBvJ56KD3hj/Y8u1BoPYQfYjxqPL48ibmBPXvEDb2FZOq7BiKKvF2rWryt2TQ9PtAZPZeiKz1s4309KcV1PMiWbr31Dn64chj3PHK87Dyf9tQ8dGTWPNWzqTsqSNe7MSfgPCf+oz2RXHA9lwdCPWUrELzKesW8wYu9vFOJPbpw8Yy8w14xPWZ8vz36ySk8irEFvMFLkDssTi08zFigvADv7rz2aRi90E39vHyFtbwi53S85FJUPPkRNbzZrmu9vWhnvGbAazzzeB+9XYOJPTcAIr0eAuY8xLspPcWzEL2l29M8jfZFvaku/rzXOyA93//ZvOFThbn5UpE97J6NO4akk7w3C7o8ABqHvDEGZD1siGa9pqWru/GWkTwc2e88qaNuO9Q8fzyjOiU9D+QxvaxJfzt/HiM9+78sPJh6wDxGAPI7S2dyPPWTnrxRYJW7wNW0PF/Y9zqeq/m8lfscvV7/urzbmDc8uWwKPSWr1bvM9q09fiZcvTuaBT3JX1k7ROujOQS3mjoqck+7BMr7u0/wW7zU3wo8UKYevGZ0xTzqdJ+8/hulvWROYj1zAi69NBmAvJvLDzyV6++7JQvIPA8roT2AeJy8GpQEPEGgHDx6TrC8YSA3O5yKYDzGNIc9u7ILPVRCRT03LRk9eIGBPbUpC70iQVQ7k05Du2z9Iz0+0Tc90F2TvDjLJz0n1iO9XidnPXNl5bsHGtC8SWmVvVApiT2VPYY7G9oWPbeH8rrNEdo7hkrRu2d8OT0azIC8s0JevVh817xC0r48HXtJPdIVp7yrTIo8oLZ7vO3hRz0HuUS9zNuMvIV1/7xw6ZU86e3+O18PKL2MZNI8X/Tju5VXoDzdh/m8pBzBvNN0IT3uiva7PBkIve1l+bpolzI9LONPPTUCkzvabQc8SrVSvdpLGLwJRP+8rEa1PJzylbq4Dqw88cQwPANaujzKii28sWmxPHgvM7xKyCw9AvwmOzeI2Ty9/Ga9zSppPcnLCT2oZoA9GyEivbLYBD2dVWa95hPzPC1NcL0PGx28uF/pOyolZj3u3QW9J9Q6vcmKHz0KQqK8ICKKPAHJ/7wWaUK8zfrJO2gTQbwGQ1g87plcPYFsnzwqnhQ9EaXNvLcLpjuQujW9UWxbvQAhTbxjsTW9iVrVPHjTmbyYjqQ8zdv7u0/zwT0vi5E9b9RouznGqLxFaZS8FI5qPJhi0rxFbI68bIVqvK8JDbzUuVc9H0uaPOgmL7uLG/i8RUK4PTRReL1JLhq98M4svUl+MTx0b489yBUKvVhvRD2qRaK8HwZsPQAtHj148Bk6fcZrvEkByLx+lYY88qoTPfjG2rtpqoC8fiD2vOyg+bxFILO8e54kvXl8QL25aIa8+V43vIXcGLwH8wY98ViOPAeLpTw57ou98dlRPOmYmr0OkIM8NXoFPWb5hz0sPd07tUN9vXGAXb3gdRW9PrIwPESeHDwZ7De6Xe0JvWh/SjuSugK9SECMPGKmDrugtuQ8cTwfPcZz8r2pJ4U9RNJfvXcSh72jLrQ8MTsyOooPojyTlUO9HJGwvHSZijxXNIk8sLffvNmVTry0iye8PdCDPPC0tbxESJw9BR94PMVBE7313/a8fpwZvILvjTxRYeO9yajAu9cghr1m7X89xQ7EO9BJBjwIpge9AnyIPdbp1zwuYuq8EAT+PGCIcL1Sq0W9hWiVPPgACj2d+hY8vpNKvcvstbwRATi9pu9JvGsCND1VyCi6sBcmvX0HnzzvfpG7Edl5u+X0z7ycpcG9kTVrPOApNrxwLWK9MGAhPbFrhzyNE0+7qFVQPHtPij2fg/E80eFDvSkBsD22qzo7QemOvD0Qprzm0+68xhe+O7T3zTzguos9uAq1O4x6dLxmYvo7expYPA5wCz3edgG8bE3qPPU/FD1mnoW9HJuLPYbL5zsdDEk9Fd8avb/ZTL2MKNY8YbUBPemycD3520O9YDwCvhvJuLwpEIi8viI4PH8OH70eZuo8geRDPZzqeL2HomM9Hfi9PO27KzqSU0S93bXAPCX4EL3V7DK9jrU4PUqAF7ook6k8pDnhPKS6l7xdCbQ8QFgevW7NnzwdWkm9JeZrvJOaTT0aiT49gil6vS/UhD2/xGw9kS0KvX8sdDyeID48cmXevTIBNTsNVBk93Z0mvX4Cd70BznO9kay0vLaMiT2GiyI97nDiu5oAo7zDVZc83Wmzu22ptDtWay89gbuYO7Ya3j3ThdA8ygnMPGIIE7w+Lv686BnzPL1Nxz3/XNe8H4GXO+p+lj1MRIE9P9wqvH62mTweT7k8k6dpvfYIEr0qc0Y9RHQFPVNytbxLE0S9dgGCuv5sUrzsGx6930VVvDVdwrzVzJc7YcNEvAOLh7wXTQo9DGkpPcE/rbz9cLo8uRTUPAFvcT2WVhu+4M3APOmkAbxpSoI8tXknvdqJ6bsBt7U8pKrwPHhO8TwxY+Y8NNSSvHWHn7wsTEw96DsovJnj9DxkfsY7XM7xvFyXOj1+u4C84/MCvQzLFr1/fI89kqt9PVJZP73frZ48xhSzvetK6Dxa6ok9x8IOvdx88DuDa7G7s2cKvaqOc71jVHk88mgfPC7C/Dy9gpQ8bEKRvZpZXL3EwAe93zk+PIdU37x7icc8iEG4PDCld73tuPw8ovFBvKtAbz1n1Wu9Thz2PIKPnTwPFQo8itrHPNCE1jyFFE09M4krvbpLhT1qKw28LdrZOxCcVz2dRC28cnZtPTLDGLwlVoE942ZLPK6ANL0l0xg9Z6Xwud/wCbzu5n69v02JvbikCjzL13E9dXtTPeTUwLyIyJ29OpcuPdpATL2heey7bUATvW58kz3oqQ672x8IPH54sz3SEJC9aguPPDXBjbz1tbG8GfZgvNds/Lx+KQK9NkPQPKWt4DzcsAI9jHziPNqDJr2gAow7N3MNPGIFjTzqkK69GKrYOxhSLrysZdy9B+xivdjlsTxeeuE9H/ScPA9AzDyBJpK8rCiGvZX6vDyw8MA8srrVPAAlAj34JUa9iZZWPdhLiL3zEJg8MVYBPAIdaz0UlVM8mcz2vNPD3jywMh09zGS/u77HfT18rQ+9k9kQOu5RDD1QXzu8yiqtu7KoSz2FpGu9k5MKvYRd+DzYQLQ8J9rbOtGjjDyQAHK8MMPHvPP0VrzGvR891LXPvYxaETyrVgo9CATuvHxicjx5UDg8Qq9QvbrgyTtku8a8Jt7auxaNQzzyqCW9++N0uyNwxjzjq7k9vG+HvQ1NoT0gkyC9Zkj0OyxiY7zK6LI8HsvPPE3sCr6F0cq6UvJBPRgh/TuksoC9LnBsvFV1obzrBig9SISLvHSG47wAAzK9t/KlPImNRD3FKwU9Z8d+vKr+r7xgC7i8VhssPS12lLsxBAW96M3YPIYLlz2iZ4u7hq6TOPUW3jyPQVM99TSXvKlT9zw34UQ8OHskPGSR/jzGhIO8CUjHvICNmDtc4Fk9akoivKBZ1bwYTAm9iifZvChFt7zyKDq9HpNgPJppwDwLmkS8WXqtPLbWgTsuWKw8zWgKPcXj9DzxKqW8fpnBPBCZUL0ZmyI9Gf4KvR3wNzzUhHw8KvGqPMYMLD2UYMC9aLK7PQ6WRL1oCU09JXdWvJp3Ir259zm9Hrh1vR2JKTwZ6/q8VI8IPROQxzy+p0E7XCgCvbe8zjomJZI7MRJMvAZAnTw89gy9kVxbvd3BXLwIdwi8p1okPBBqh7zji0+9saQHvVfCoL0b6T+8ro0mPTyG/DzK0BK9ikSAPEhoUjs8F6G8K0qSPBcDyTwRTwK9r6gjPFhbejtc9Ru9dEMlvC7xmbxhJO+83vlDvdHafr3IIkE9Ai2TvCI4p72EKhk9JNdsu/SOZr0DLJg8c0y8PTxFyLst+XI9GP3WPLtGIrkmkiC97POHPGsz9Twljdy7kkoGu59xdb2NxPQ8WwasPVlcVb0Mnfc82qkOvETBYz1ZIws9jttJvHlND71H5fy9TB/EvArIgryzn8y8vUNqPdywHj2fFWq9OeELPQ/jlL2Y8zi89gTXvJWTQrxqCbE8/gJBu+ooi71LTeO8TA6/PR5dq7uZGaw8CCS2u1ArjzzChFK9CEDAvO9dXT3bG0O8Kd5tvQJPMDxBE/G7TFQSvSj1tzsP1QQ+WOxuvTozQTxli5W9YRcXPcVnzrzI+Yy6z4zIOf9G+T1xhhq9Yy0NPQkdm71W0d49or+yPIAXIDwPX3m9FUOPvNTQ+rvxHxG9/3BfPRWKNr15JCA9rVF9PRWjc73SJYs80R+DPEdq0T31TsY7X4YDve+hmz1G3rG8kC8QvC0eDz2bBMe8zkHBPNHYfz3K93a8Hi2HPEa/pDzCN688e2FkvQ14rbx2hYg8yG4XPdsOW7ykD0s9rFbHPGCXBL21eca8iI2mOTAXjTvG/PQ9ekyWvCw2ETwCcPa8EqsfvLoQcLuvTe28AYCNPBT9Lb3AHjs9gZ8PPP0GlbxaHeM8sbu9PEkRxDwPnVG9ITiOuxdSx73OTLm8v+6jPItruL3hTqA8gzklvI7RhDzHirI8uGQ/vX/ygryiOTS9P55RvRpqDTzB40u9YUAMPNKoHLwgK9S8d02PuyC2CDk1SUg9TKiTt3UL9jz8fAY9KUiEvJjkWz0S1CO9hdsmPUpgMr0vjpI85HKVPSi2lrzFHxq9zCO/vCcK+zwn6Xy8LcxkvbDO/LxF0YI7obFautFGMTz4Q2K94EaCOqre8jwZzFO8MiEAvSf2qTwq9ac6cRdtvYrgAjwzxoG92E3Zu16bdz2BM6G8ytBlPUdEHj2Oti6918JzPa9lLL0xm1u9ldUXvVfupDwW0X68+TsHvQX1+jt2hYA99fDKvDUA6ryFKRi9PHx+OzvIibzMolC8054hPCOqnzz60JW8g3nYO8TUuDwYieu8qVGBvSiPpj1Rusm8se/ru7OkHDvngP67N6fGOgK8YT3D3Kw8bguUuxn2L7y0Cpg9ajXKPMByMzzr6SE9D68hPZbskbsOrRO9cEiCPBXKfjxgs9e8knwzvfpYRDzyL3+95pelPQZZBb1TS5m9WwyjPOzQiryQEEG78UjRPOE/VT03mPc6FKWVPIlubj0pvh29T++ivc0iXz2KTOo8RfmjvYLdYbwIKT09OBoMvRIP+jyf4888/sYWPCkNsryebI89fCcGPfwMILp/hhQ9B6HHO8i4QrzgYVG9noSCPaY0QrvRYlc92opwPTQ4RD0p3KY8Thw1vdkNlbxFsRG9sQttva5jnL2BZ5E8aAbRvboIA71F7ks9Ies+PZDRJb2k0MQ6LQmfvN/5pryDHFM8UaXjPDk7Tr2R3xK9ObtTPSWWzTskCDA9XPM7PGNZ9bz1Aqy8SKznu0QmnLydWcg7b5qOvGhVnzsoMlu7QqfQPOAXwruxeS699hG5O4FOkryFjSe8CtBFvIXherxYk3o8fNTcO5+OW7wIZcW53o1cvTcbCr0PB5m8y8kMvIB+K718xOw7/BlkvW76u7wNlYc9EZFhO0CnAbzmnyM9SRXTvDBNPj6O9yq7Wj0kPc8faLzJaR89mcHOPZ80QDyG5jQ71oVbPBb9jDxK0Ee9UVELvXoN7burnfi81jbcPGs9ebwifJ48O8YMPPBlDb0lHBc83XQrvb+35jyOjou6+XOovFfyJj0Bs2C9s++KvFEKTz1jkGy98GucPKqxjL3HcQG85nqHPe1RlrzdwWi8YbkEvRHd87zVqUW8yeEAPmAxT73vweM8AuSCPP6QVbrtPUE9iqpTPMv+brzdgIG964LmPEwr2ryU9Nk8f3I2PTqesr3l43E9ePURPB9SuL2S/p278G+HvdkIkL0C2k89sHF5vbSzvr0G5bO9oJ6WvFhRv7yH2Qm9HSgiPA4ssbv39y69RItGvSG6pj1Ssli8tPNlvTx74z0+ILa9cWIJvXP1L70Z8II8jFWYvfDQUz0HTV49C2nsPSJh8Dx2GiS9JaZAvL0LxjzWxfy79HDuu+o5Hr5C/wY+4Xk9Pa0cLL0JJbC9BU0FvZIRy7uTqpQ8sR2fvQU4W71gTPQ8zUahPFrC2TnIw9a9NQILvFz9bz0Klb+7zmEjvdZeqrzeuIg9+/6hPYakNz01+Q69LoOvveprB71HXIy9fYecO52sA725+8m9P/JuvMTSpLy8j6C9ymt1PTXYmz0LBLO8+//WPbp/DDzv3gq9ktiIu9g6pz3TsAY97SPWvPcbOr0VyzK9pf2ZPCTh0jx0OCm94u8yPWrF4Dz9bwy9ofTbPYQyV707K+e8umsWvZfWWDtHZFU9k8ghvUQF072mQHO7uAoMPPhoL7zVY2C9QWAsPaDV4LsViIq9l5GzvfYTGzuiQCA8Ki2PvYXvQj1eLJi8U/KxvdByib1i9+E9I0+wvBjrczxEKMc9z5vEu2gFJj0rhYM8V99FvHvNGz3S8fe6zrpJPX4kur1Gcu08JT5iPOproTmubr69jj5GPdfxujw2jAG9Lz4cvW3e3jtHvMu8GccSvYfsa73buKe8Y/yCPcI+6TyGNtg8Ad8OvHzqGz1nMdQ8PLq+PG1Pljy47ze9jcUnPJbc+juz+Sa91SW7PDHVFD3MDgY73cODPRPV5jvB19k7w6/2PLD80jyc6/Q7JXcSPKl0TbxI+bG83CzIvHzNvLzvG1K8m08qO9dzgbzBM0+7A5AmO7mDajstgMI87uALvNzSBzyavX+84VrvvHHzvLx4EBi8rhc2vWlmtTyF6Va9hSdiPRELU730QSm81XpxPFDpar0eEaw8gNMdveRCTrvbvCI6p4UwvBRrWr3Lkco8Dnb5vEnZCz2jQxC8O/rTvDwO8jxgUQe9kvekPF0aL72zrQc9/m5jvMb72zxgiim8K/QOvRPRE7zddtK8wIlNPRC5V7yN+aq8tLM9PQsyTb38SJ48sT0FPCDvhrwQFRi9rZhwPKafOL3j9j+9/Q4avYj5KbycdWC5Uy8ku5BO7zwyBmM8dXHtujit6bwZKDq937qAvU+T27yzc0S90N0dPT3NDj1LlPw8nvE3PfPQoDwmMd48jTy7vHqj8zwCFo28Rj6Dup2PIjtEA/c7/DZCPd9QLb1GPQC8xA27PFBFXD07Aj+8b8M1vYu9srxdJy27kGfZvEEYjjzWLBw7ltfFvBwGMj0t0UW9dXpCPedWF73K8O48HLqhOv8s8jzNk5M8Yp60vGcbdb2uWSa8I9QPPcu+vLxoyiQ8zZeiPNH3PDt6eG29G7o4vbeNW7zK2389+3tgvIX+Aj0wyUY9koTAvErupDyHIlQ9u4Xqu3fmkT2d0KW9mmE3vDaopzrWvRS8B6W7vH+1az36JSe9nUGAObhhyrxe68y7zjmnPeh5GTwCmHW9LSfEPBte0zuJ+1m9m/wlu7DElLyUzRI8z8AmPUbqszve9ae7Qd6CPJc0Wz08nJe9dySBPBVKXD12yek8jqBfvDkllrxN7G88HZfzPHMCPD2pA+a8I+UWPcJ1Fj0iAaM8465wPX3Y/zutCsA8gyWrPZ9TF7190vI8ampevSv70bofEsm7RYHgPNVsWb31+uk7qLvKPJBQP7wuwSu8Pk5wOvQV6TuDSIs8CvxePOBJn7xySge92CqQvBVYJb0fO7q8xCOavGT957s7X567HLAJvXfvOz2uMoy9ALAju0ZjTzvzExU9wV4ZvXDipr2EEn47uDmDPWLyi7yVC8y8o1TNOgvNRz3ub7k854RbPWFt/bwis5q97yYjPfvzhDzsCLq8b7a4PLfoLT376Am8lgqhPRdeuL0sNwA7XHkUvHsSoLzA75o9aLYtvVYXiDzomyY9PxSQvNqpHD22ddk8/jhAvRWMR71MS0S8ej5ZvTTUCzxqU4C8xEEava/GZjvqYlg9vLKoPJ73ob0AC1c9y59lPJxvKL2scxQ9QhievKhJwTzoXI68LNpPOabWoDt5HNs73BwBvGC5KL1I/ji9QOPavTxPQj0j2gg9sYBfvRZsWjznRtY56tCYvX4YnzykBDo9lRTCO1KYUDxICVq90PNjPTQDy7xXJ1U8eFPePHrtUTwfKZ+8NPBuvOQjsr0Y3ee7plZkuwk0RD14VJ08nCNdvQwAODmKgWE9amIQvL0JHrx4FMW8m+udu+5KebttFJm8Hx2IvGQRGb2inKs9FY8EPUIqH7182CQ9mCwfPaTRDbrhHxo9CJk4vNnNUbz1new6YOe5vT2aSTwE2G48BdC9vWs35Lx7UFW9CowiO/QHFrxlG/q8AZb1PF3u1DyUE8E9vEHGuu5187ybPg+9YmgmPSAeUj29gKU8lwrvPNCYQb2rncM95tchPWKovzyUy2W8HPFgPc09nT0RvZY8mK8HO9PmWb2l+k29CPsrvN7tqrrWkg09z39mvbk/9Lz6/M+7lnGBvSP9kTyKlYw8QGXyPLYMn71Py/06GvWcvRA3CL0esFa9TLzOvQ13ibzShda9cXOVvL/JYTwT2Ec9hsITPXlIjr0kM5S8GDyHvfXcBD0+BCG9m7Q+PWx6RDyL4AE9fzj3PIxVMDyNyNS8OWMLPczlBj1ava08Uxr9vCOmnj0GEjQ8InAFPeKYAD2VOnw9ri4BPeeAMb3/Ni89+zj/vOKSnr18O0A9kqwKPUct37pcqmc8JEqxPGfH87y7FTg9sVLHvBjuv7ztdfm84OQQOz3qGj1hxQe9DjwjPFHyjz3wh7O8t9XkPBhjibztEQc9rDY7O/3KjL3O+ck8oTpjPDJ9kz2XmAU9BYQ4PWAcwjypf1Q92JsiPWAWlztVP9O9CzrnvOuHDj1MeHO9df+HPIElTbrlHBg9nL5aPel+3rwJJ6u87sppvG60Tzy2Ywq9V1vNO2uZ6LsVnQy9DhiHPf1Wir00RcS8vD5VvS18p7zeo++7gZ27vYekjzt4F5S9vh2XO2PjTz2v18k90ZzmvO/ZQr25P/08Tl0mO8fkkz2ir/S8zj+8ugwisj1S/hG9Iv7DOu/wJb0KEHK7eva2PWu77z09lH48dCmnvPI8GD0vVYa8l28WPVvIij3dt0M9ycuIvMTxtr313GU8j3k8Pd0/nb1SSKw9cn+UO5CGwLxYpWW85voQPajFPjyjjnY9r4kgvHWis72Alsk8dw+LPPfWZbx39WA8Ixf2OHXKnz3D6Ma927govGF5jj2d4YM9eHCHvTDrV71FIzQ95l3CPBkvPD0FDdi6JEOjvMzTejw9HjU85BLpPC/pxTyrbDy9f3jiPDSDAjuIMWu9lq6zvD3cGjzTF2s9JGGbO887zzyq/Ma8lJQqvVf41ry2QBE9yfXDvPMBkbyesoe9P6lPvIX2qry8Dc08iYFYPQx6FryFpku8sq4MPB1BA73OawE7N9IcPGfUJ71cuwY8cANTPZvdFT15QAy9USkTvaeVmDyKy+k8oz03Pf3oxroFGBq871DgOwq/Az3EFA69Lo+bPFlUNDxe2i49O+Z6vL9iML081388vYpYvM4TRj19Jyy7dRGZPEwAyzyZxNC8SX9wvRKqgTwVwrc7e29YvdCrFL2SRU69qqWbvVnHCr2c8Kw9uMoVPemRIL0LXvI56Hr9vOf92bxkZtS8/WKOvLTmK70QDxo9JZxpPSKTrjzlnCq9ddrPPBlLx7ztop28FO0iu5dibL1mKYG9H5oDvSrcxjol9pI7ya3evBNpoLwkvx4959gFvPKoRLpBiRY9Xw7XvATUCLwgoGq9O7Q8PDStWT0Z3go9QwTYPFWSKb1wImy8vvtrPeKjDj0c+La8gHI1Pfyf/Tx0cE69lVFUPKAvjrqKYkO7U+ZkPWaY3LwHHIw977XOO4Hn4rxt0n09gQMfvYaNPj3a6g+9wR1mO4S4lzyQ72I9ZXApPBtO+LweZJ284DbtvDHiITwUM1W8cKbBvICgH73KLY27zxbPvK3PBbz3FWy9uUseOplDD7wefaW7zaMHPYedHr1GPIO9Hg6uvAe1Zj3LOYE87e0fvAM7pDyGTZK8NSjjvIYrDLyz8gE96Y8LvWngFDwiVZ08V/ckPSzQUL3gzci8vT8VPC5rGr3mCng9DSPgPBKFsryzC7G9CiqHPJ6USz03j0A6RNwRO6hNRL1reoy7FLuyPIWLYj0HRvi8k/m1PDUQZ70WDHo9wIswvLjP7TrW8z08ewmXPMbqwrxHU1+9VrTBvI9Htzw3Bay8pxwOPT/qNr0K6I48gZXpPLwDrrz880698n8PvazCoTs45es8ipA3PcKrQ71qe8q8Lk3fvPSmzztrWwa9TnWCPBioFL2PfZ474oIoOHdRP70CVGg7erJTvWz5yzqnuF48I//yvMJWU73m8co8qYpMvJom8LyjM2E9sZGfO5lOwDyVNrC8PAIlPPbChjwMs+28+pOvvLdmy7uLyZa74VVovJatFDr2/ik9euJBvXMPp7ypke08WnPlvNxFwzzEvse8JQx8PFoHIb1/16c9hL4svdDUH70uaWO8tx/FPPVQFT7Fpwg9X/YBvbrogbufFry8dXi0Pc8tDDuZY4w7UHKbvEO2Ub3VfjM9xIoVvXCqHz2iPZq8QbKlPO/SJz06R4Y8/1gXvJREUzyCBF66Rfs+PBGnCb2C41e9ErhzvQgqEL3ZdI+8U8gdvA0bDj1hnNo8yLtYPcZAK71HSIs8mxzrPBrJXz1KX0W9jFZhPJ4/uLve1kM9OvTHvEUNOj2MeQU9ujUrvQt2Er3F9j6985jXvKHhtLwgeQQ9QqIrvcSXn7z2klU8Z5OMvToWq7xiR1k8PjgCPJmOdz1quTW8/jBMPfZYxTwNTNA3ZSo7PSRsnj3Jb2o9QSAuvDWI2zzM0DO8BL8sPbFGYDyJNgA8omULPZ4/OTvq4ns8UF+8PQHuXLy+4gS8/WwvPemJALw7SZi85ZJUPU2u9rylOq29t07bukVOND0Q9S499oK2vLJqUb2OraU8mhHHvMFlPj3en+O8UpGevcSDST3KdBA9+PJwPB9qdLynt8G8KaEDPSXKWj1XGzw91fvEPJsvA7sfdo08wefBvOSgMzwFGjC7L2+8PDeRCT1qUok83nf5vJIwEL0uT+k884yiPeE31LwdtXs8O/tTvdK4gzz88yc9IOeuvEn7WL095qk8JrCNPBC3iTyW5Oa8SaTEPcmMdrzTlIY7RDJMPWz1tTt6ZSc9bhcXPR57Gb3SDZK7WfCOPbiktby4XM485LmwvCyfNTuv1wy8TjsuPMQGKL31DHq8wtp0vafvK70iQC49WWOIO1H4OzsYbEK997AMPTlMLL3yb0G9AWihOzaEHT21c/y8tLQFvV6rzzvvWRg9vpJyvQk9jjs7Zgk8+9x/O/1eOr14D2e8u4f6vL7xijqEb8g9gOrTPMSpkDzrIb08v/MUPJLJET5+WiU9qShWvB7MurtvhUM9rGqxPJqKD7wjF5W9R264PMSx4Ts2UVS9jJ2AvT/oYryCGTu92CoavYQ8sTuX7pK9m+vxPBL2Fj3ry4e8wD1uu0WTSL3BGxs9UvoYPfuPJj3KRQy9Gzq7vI3QKz2UaG67bkCYPWh6g71FDIA7DFvgPbusYz0ZHSE85iocPYaZlztzCqi6sTMNvtzNCT3UnIu9B0K7vcK/pbwIGYC9MUyUvNu0szy+OV09Zl9vvQAOgbxveBM8VZZUvUnHKz20U4g9bPOWvXDDEz6HYDM5syiJPOIn17v3KHq9TKCTPFfazj04aZI9yr6EPHNWUT3AyA48nCkMPbdKCD0PiY89zsYFPVAzeb0LyV29fQHLPTKCjLztQpA9IJGwvBcVAz2yQl+9qGAkveOUCz15ZH68DaBevGXlkL0RD7A9+9gEPYJxtrxEsTi9nyeTvCliZz2jVAm+5/DVvNCPNT32N8Y8qhucvQb1ETynSri7R0ZPPTK0dz2PS8Q8j1XFvBznaDtgZYo9vLwIvOexY72Bih89IkWLvQRv1Dv+MoG988SavTF5jr37XY09a9SBPaII/Ds1QTI8KMx2O7dwTL1ffS09Loo4vbrWwrz9Dk+9N+NGvXMbMr1HI0W8EkJvPYFhEj03M5u4J99DPW4jPzzR4Sg9Yex4PGn9BzvO9dm8f09rPb9DSD07KBg9nJelvKJicb2q13U9C/tdPf94xrzQGDw8WSKvPItZ3Dzg34O94BSnPKKtEb2wRr88qJ4UvToxgLyzlAO8JpXvPJpU2TzM6/+8NlMsPW5hBjzXCTW9asIlPV99L73l0SO9jYylPOOJlrzqGFm832cSvRyAJDxYasU87kX2vAaWnj2esx+9zvGbPCTxWrr04dw89ItUvNY+Hb2Gow69vP4kPT8Y6Ly9wUy8XIjCPDFvyDqCrA298+3OPFx7Bb3zVbq8UGYHPUx6F7yE9FK9LL7EvKWHiDwtBZE9O6FHvboZyLzscyw96P5YvCrsFTueZKc7sPYOvZwGdT0Au4I982grPKOiKD06xnU82ILxO5erArzE3ye8Zp2ePGRyZL0OrEy9X7Y6vYQPUz16zGO8WbeNvW76Ab0p1968tu5DvZJAPr2iHT69otYcParj2Lu8FVA9UVkqO1tCgj1MR3A8tlpgvQASSbx11Ve8BtKaPGwrVrz9F8M87ISBPZSjLrwQljy9J0EgPdrwJ71GJqE8DwgLu+UZGD3hKTo9IC6HvTodB7sNNNA8PDxwvLyLJL17eQI90u8pvUZ6Fj2JAQC8c/g8PZgUC73rDB+8zUhtOuJhI73qOZ49MSX8OkPSwbwOCyk8LpTcPFa0KD06jYm9pCpBu1tQyzxG5bY8Lej2vJNDqryqshM9idcMPWxpXzzUDJG8+EGcvIq/jrzQpeI8zNsaPfLFuruTzAC9YLXHvG8AXz1iyo+88hQmvdYD6DyDg4g8D6MivEDWUryquAa9TuK0vP6vCLtI0Kg91fEDvKQ1Q7wjg2O91QaoO4nuuLxzCJW8KTV1vddCBj3rCD+9mjhDvbUQdTyc8sO8hyDsPKXPrbxWjJG7h7jkO9x2AT1ayxU8en8sPczxijxWbJs9X6qVvJWuhT1+TfC8BpddOiLDnj3Us8y92fqIPUbFjDx35cA9rZSkvYzInr2pEgK9dos0vRNoDT0QmFs9gVluPfxM9LwFX407JelpPX9cE71I5wa94zJTPW//cD2g/hw76c+AveoaCjyG1B89IlGgvLEYDT3USpo8nZcBvB/F07xhLjM8p8viPG0i+rs0ANG9pVKZPd5Vr7wuVKU8iwFyvQHhcj3zsce8CAARPaP5vzuyJPE7c7JZvTKMdzznthy9TuIEvT1/FjwIRB08RBI1vZklBz0RXzm9d0DdvDHSKTxbpju8UbOWPUs5BbxLPKk9wtMGPQmyIbxN+8K86J9nvcXNBD3wXB89lDoevBXss73E0FO9pIxxO7EmHT16jNu60+1TvPbl27yku1Y88pidPEiqwDwrhJg99r0IPPi0Zr0o3we99L+wu0trTbx5QzU9wxSAPGZA6LzTXV29vNfJvLLqCL037RC9RpxOPBG7YzwQgBO9ehIQvX0Ahbxx3Bc8ahmOvFXhz7v8ZAQ9xoiRPDfELL3qpIW8iSLevE2xJDvpjjS9Fh6lvMO8dDwJJMK9CN4MPZorsDsu8f27s/VpvH+cer2c98U8VfcevBvbVz3bY0c8l6quOzK/gzw2+x68Fka6PdFO27wEUSe8yJgCvEbY+jysXMM9Y1vlvBaZ0jykkFm9q8InvZMtaT3L6x48Luc4vSWJj7ymzjI7B5WAPHTClbztGHq98Tc/vYPCNLtur3C8/rUYvZ5BCT20azo8URi8PCxEwzz6RDK9avMSPWXCzTzVb5a9L8f5PBjdJrtM4QI78FjNPd4XZr3SduO8zkSePHEgjDwbiH49HqGzPFWfR7ysvjk8nJQqPBLDFjwpYVG96AkEPeeK9Tvq23c8oVf/PDJo7L2zgaO8kOomvR+RVD1iGPg7DXw2vQ+jw72hshU9JqOZvbi/xb2mZRY8qjuzPHuzMLy7iwq9ggmfvREuvD2ukxQ9z+25vBM2QDyLcY28qg20PI1Z8TvhH+M8q9aAvGZkb7wBhKI74arSPAFMlT3jKHu9Q2DJvMxyqbw3E/u8q0pbvBiWU711p6s9c+OKvASncbwRLae8z1gfPeOKWz3z6Ze9dwr7u9UQvb2HqAk9nqUePCbIAL31IFW9nIi8PAnksTz11wE8QdFoPPGZhL0c9rI9XoQTPWEmsDrhagS9nqwivWavT7truli9jSkSvP0ubD3D0Tu9+/u6PNrGWDxlv5O7BfIKPRBpkDypyM68fK9DO9xwqbwNzaC94+ulvEyMp7yUCzs8I8CzvY6YWz2Kf3u8n+2Au2eteL2aHam9qZSnPH01r71vMKM8UOBwPTDksjzXFdG7skXWuGvcJL1MR0I9b9y8PKD8Jz3oRkI77B2VvTfSvbvl0Jq9GZp7vSQ4azxC9lY9RP+avV2UoTxlFHM9EMRSvR/jjjwmD2696x5ePeHssDwphoG8EjPTPEVhPr12+7S84tFFPPas3rwGDA89HRoDvZZZjzwLmzw9754KvbgG2TxsDhs9eAwEPXFbgb0qRJ68McyCPHH/IT1NOts8JZP7vNpBQLzyYWa8JzoRvXzs5jxUe5K92kSOvJJavTvAhNQ81HgnvR9wQb3PdJk9Df7uvZd/Bb3Kqv88sivevIBlNrwWI+K8vQ5Fvd/hVb0r/6M8OzkuvHCzYzwhW6s8r+yvu7Ppiz0iuIo9EcXXvbNRTD1L+fq7FsDpPNMZrryClRM9dUCbPGDjhj2JIgY8jqe1PMmigjyurVU8CbjZvBwU9bxTisI9oy9WPHtpYj1F8uC8ioAgPd7O6TywQJK8j/ajO7RG4T3uMri8b2+BPcBu2L1UE489jpcSPB8LYz0b9uO63F4nvc9U8j3Wx909fy/8vLZNaruGmm69oE2IPPqtJD3Gw9+8mOMZva6rSjyRfaY6EL/APVUILj09Lqo9NCAMvdv1gzyX79A8WZMIvAWoRzyDPJO99gy3PIapnbylqHC8kXfRPPrP3zwHHJU9LC8cvTuQlTx7coS8WkCHu+cZMT3WSqs9NPcvO/tJgzxxLyo9EUtdPbtcmr0/MEg9mB32PHMdILpW66w9BpLhOwtH+rrzyUQ9rypgPF++E70LnKc9sigLvTeVvzzwx+A9P3Y4PQ3CjD1HtvA8o8WavQ5417yGPgi9R9vdO0XnRb16diK9JGX5vM4cHr3u7ds8fpMvvbFg2rxjKh+9U3BwPAv+t7yc1cI9J9d4vTG9Ob21v6S9ZJsEva4h5Tyd8by7rmsyvPhwoz3O23M9YRk+vKmAmTyM8R097t1FOl7M5TtMiiy9IG5vvYNbeT1w56g8qDTHvIF3Bj6Dg4g9+H1FPTTSaDxPGfC7Og4DvOPjBz1+ifu86AMpPVKxfzwcg8s96+rJOTJoi7y56ag85WgUvVUFarwFtSW9Kcj+vAOgfj33vyK9SwIAPZIxCj04H8q7fIqcvYQCjLwRQX29dykrvdDsX73Kr0Y91XmDvTqNYrsy8IE91NPsvAa4O737kQs8WT+JvIl6cz06QlE8gNbVvOq76Typ5QQ7alU2PTQqjL0VLrw9MfUqPOtezbyWbyw+I5mWvZGztjwK1TO94taaPAK3cb3HOUq7/jYjvTZED70I6SI7GMK9vFz4nzzBMAk88ye6PHcUKD3fdBa93GLZO8Fx/brxJG09K4KzvPFWkTs+rz48kP05vS0PeD0KDH+9YtTKvOyDlT2ekCA9eQFEveezJL1GFv674G+1PHqqXLzaZU+8AFakvDjKhD2AZUg9iwCVvIgrFztr/ha83fo8PZh1ET19PFC9nb+vO/BD/T3Ol6k7UTmmPRHqJb2WVT490ClKPWROA70/Z4U9XDEfOoDvPTwvrr67+rxrvQOcJT1HOiS9BPutuXpILbxb3kY7XFiqvHHG5bz6qhK+TzHAvXB4H72Pd+Q8q5xHvcAvRruU/QY9qFErPfma4bxwGGA9DmE3vX6zJrzpB7Y7nJNwu1UKg7xZtM68uax0PXgjILuvK749XHZvvRuA3TyhOt49fa+mvHU3fryas+68wP+SPVFyBb0zQHk9OZT/vFEwojyysQK8/Vg2PX5Pw7xJHSE8+mMPPbOudLxNsxU9CDnJvL2PRj3r6++9butnPDIrOb1FHEO8JYRAvXAYRb2VHqk9tcWku4J8w73/Eo44Bpo1u9vwQz1CMCq9+cOoPbuHyr3uyQO8mIfcPfVsb73v9jC+nKaTPfNUqr3LxYE9ENYivYGHazz9V6s94QG1PKC5yzw/lUM9M3CTvQ02Err5ZLa8KlF3vfw/ILws61y9PblUvIAUdbwJayY99Mz/vEIpIr0kiA08i24PvX2habvzpZC9I0k1vChYOzyxn+Y9GvyTPei6JL186768JlsyPY8ydDz8rde89scWvRmBFj37YAA7wU2kPeahUzxa22298MnZvPEPKT3CvkM8QYvHvGZsHzzD7Nm9OKwnPUnGlTvAKwK+4ZqLvFQwhL1Py/G8SiScvXS+qTzM7le8Eiiju+XtZL0QxVo6VB2HvYH9Ez2MWoA950wwPO/ikDzC50y9m+ANPZlLbr0ICPU9DmJEverjNTxxdWG8IN+ePL6ccT1m4Ia9QJwNPK3VKT277YQ9t/9XvZ8jZT0DQ4G94OgZvcOvbT0cHxC8IUzcvSlv2zxbBmQ9RueiPPYmjz17hiW9Y1qAPVDVtD0MfqW9jGRtO4R8TT2JHxo9sXcePf8eI71/xjE98mcNPSpD2rxGP4K8K/WdvTMRYjy62um8yskbvHEll7y7AL07EsvsvF+gQz0GUuA9FH8dvfdsIz2wcYO9TmI2vdI4fztpnNA8ZzuIvKKgj72gnUo8LsDOvPbFwrxST0g9CT/fvSS0Zr2j7Hc8iJbnvLiN0zzCigA8Vh2kvGLl+bxhLPs9d+uaPPt0wTw/ahM+3Rx9PKaZLT3pn0C9LY2YvLuLFD28NII9FVRyvddrRj14cyk9VtjiPD9VCr1fZFm9qnuxvNn3bTwot0+9MQaXPLLnBDw8Suy9X8YhvRcsDj0uZQC9Y0ZbPddXXLtsTrM8eBSkvKsCwLw5UAk92rCJO2ewBTzy1l09K6btPLp33Ly4rL48JlknPdwr5b37hMy9uFCVPJvv37zCcsq8B2bzvEkQDD0xxwI8nxMRO20bxry8Cyq90QrmvCXAHb3/AKy86it9POU6fT1W+Io8hBOhvCjvdzyrdoC9yiwFvOCxV72a1fI8sGpZvRPfUjwzwyG9VMa5vDStCrt7qB+5DrsJuwVucjoEPEU9nWzJPKXMEr3oYta8XE1TvLbxMbvW2aO87ngAPXYrEr1slDs84RxuvHVvL730etA8cauJvEK4ezyYiou9Xgu9O8rOdjtebFu9rsbrPCbzx719TQo9zYcXPTbRCb3+VBa9qJk7PRb21TyUmrU8H6+4vUmMCzwqf848geAivS8aEb1hKRs8r/lGO7WKjbwsX5c9AzEgPZsUvb3Eipy768xevNMWAb0sKyG8UflMPasg7jxTr6G8MyJ8PJTB1bwuVwk9EYVpvQ3prbxKVp08vrWZu3uklD0O2E27bT5UPKR/mzrlZhG9JS9zPDfm2zzkAvc8C36BvVaK5ryRgyI9pjKWPYWDKb1WwSy9LQEePWJgOj2vlMg8/7uTvFsSU7tSs5M7756XPJGeA7yCRw09VONSPU87mzypBBs9EGxfPXMlW7xkwpe8jqTGPCYv3LyX7iG74OGqvPX3Gj0MOiI9bd0QvGJWMrzXAg08UAhvPS9SIL2JDQS8UTIRPOybhrzHY+m6U3iivBxcw7xAugU9DqGIvXLHUb2h3xk9GVYVPdG7Ljx+Ju27kiLtu1BACz24KIU9KyffvHsX/TxI4VG9tnS9POrIxTx1ICS9g+ysN2hnqrxSbSQ71PM2PTBapDvfTSi9KoTBvOGEZz30L+Q7QeDbuy30Tb0TP9c8/iwzPakeMb1zw3K9sqFLvSQqnT3UiD09FD1UPYULILwCK2M8g0RRPBbIyzy0Toq9yMW0ux0B1TsudmA7cXAWvThMzTyCjvK8s1anvNeIJD0ZPoO8ztgoveD+JD2C0AE8dMidPGqo9Tu7AQQ9EU24PJZb3bwNfNm8XhkWPRfaJD180ZA8FZEivTV2mzznOjm9zR+mvE7svbpgNgc8YcC3O5PHrzzyXGU9lqMSvRMYfL14k4k8k7EFvQaEbj3YAG294XSuPTqJCz2nnQk7RmfWvOIeSD3sjeo6NS/WPFdvIj3Zlk299uH2vKAXrrxxgKg7twn8PNX/Nr0FvJo7CAHiPML05DzEMms8UN1avTB277ySo+E6+67NPNgbLzy1Rju9ED89vBYmSzxUR6+7OK54vbloKD3QYYm9X8QwPXB2iD3rk/c8vY8PPfD6Hz2ichs8XwvKvK6dVrxOc5G8ey7YvGmTqT3FEgU81PqDvPdBNj3b3sC8nIjGPM//J719de274I2WPPqf3L2etVm94lMEO/Y8xTyudDM9M7CaPXcuV70aStu4LEF+vaOpBj0OV5S89QZUvQnGTj3mJ+I8xUwMvOScML0MZZw8vL4/PUNhc7xRzDc7ZGlkPfRlMb2F6xy9218YPaG9EzxYr+Y74VoQPUgXZb1EkVC7P7MbPU1+cL2NgwW9W6T4O9g3SL1xwhe8GFHZPD/vTLwCJ428AwRUPWeFrrzldac9rT0wvSfWjbyE0o69RTsPPTOJEbz8UX28DmMNPc0ohb0sR1K8wh+MvDxFeL0UK2E9rNHVvb/5Kz0OPcW8zcIwPWjCDjwSeLS8JoA0PVapS7w+wz+9foHHOu5qIb1yy3E9U1cNvILTVT0UDty8IWYtvD3H+jzWDZY8ro7sPGgry7sfdZc8sudnvVlNaD3Mp9S7gAixvEt8vjvenWe9iDuTuwRhGL06t7m7JJn5PE6VkD25qca8XMnJPMY3mT0Fbbu9nDcXPdDuhDweDIY9+CKfu9voaTtQbkM9vQioPWM4wLzZwaG8pgapPGebUL3N5Ca9h9bkvFz+hjz050M66mS3vMdFMT2X42s8MJSlvMgfhj1cYsa8pJOcveiS5zth9Km75MCfvVr2Hr18ve08zFqJvc1liz1zsUo8pDalvQLMOzwVkBk8jE6lPJ1LibxybqS8obLXO7uKqzwC2o09AdtoPSa7Mb28YR09YVebvcgt0rpapFw72iAavdpWODwUke08kCiPvJqXtbyksnw7uDKEumsIBD3jo26893jLu/ebGr362D092KehPPGdwzyt6RE9mStTvY5TSbwWDnG81nZWOxpctztGiTy8LALdO5lIaLwo1I+8BTvNvNQb4zzCB8w7b/yHPLey5zvs+5a8vaSVPZ8PJr2zcAu9ZsMXPI47gLup/589LO1BvWu/iDz44lc8Aa8WvEUPgLwrbRk8/m2KvfdZBT3PFTo9xkexPAuR0rp+cEy98sgMPK3OEjydAXO7NXqkO7NfUT3WUpi83x28PMI9x7wBCqQ8NifIvKv/bj3UJG89Sn43O+JGAz1HzyM+1Su9vAiuUbz2NM+80xrmuo46Gr1J5pS9yyo/PY5bDbuVmGe9J4wnPeP7qzx+30Y98owLPcKOVbxAdWy9+C1lPFc0Dr1e1jq9oJzBvHr0Njw4VLE8wWoNOxECXr2Ugea8Yb2Wvda1H73QOVW8BtQXPPwIYbydXgc9zTLGOyg+WzxDwri8D14AvVgF/rq8RJI9bzDQvGKax7xJAW29bDJPvRcqCbxRoVC7EZSDvLLY2zzWxY482HADvSIGhD2gYY29xx5iPCXSvzyIsA49O/dtvBCTlDyu3Bi9cAY5Pcgv6D09mFk8rYyjPYsVOT2iJYQ802pHPPzorD0/mrk8XCdZPfTpHryBXRS8WBycPWYUiL1qZuQ76IqLvI3RW70ZO+E7TgvXvHM/8Dt4xl08VeyZvRh5SryWnxk8ObyFvdgqCLzUZym96HRJvZtDMj3CRDg9cWYAvSL3xL2lcqg6jUuZvY3yw7rdb0M9DxTRvXrWYT0rYJs9cHwJPXidorwuy4i8ftQEPKtGO725JMU9cbODPEmjhbxZLh497bWkvexi2Lw68RC7z6nkPDKnYDzr3Yk8dr9suvNUbz0n+ik9fTS1u8G0PrwSUSw87r+GPSiC4TxbOO48dD/5PBClVz2HxCe94HqcPcuAFr1TMnY93xKwPAzMhL2E/YU9gOGGvDe/C7zA2iQ85iXIvHadDDyS0I+8oq/PO3LbpLujFTo9CThzPKfCiLtYM5g8gDIrPFBZ671W+9K7y4eRvehdX73xpIg9MdZHPajErL2NRI29xNEPvUXPpjyCO+285sSBvNifDDyXO/48+4xPPe3GJDzu57w9wb2nulFrWL2aTO88dow4Pagqh7zHR4e81mSLPV7qTzxIE9k8iLmbPZVEEL1du6G9/i28PQt9kz0tC1y9bhzbPC+Z+bsWbVi8jEqWO85u97z0A7S822jOPI9Zgbnp1D+9QhG8u0FpkD0HLtq9EgmhPTRSkTwArcm9deuBPeyGxTz+36G8Ptc8vZLQkL05FT+8/f+bvW89bT1lu2C9OMaUPDXwFz3bCuE8OluWPYOIuTxwDtW96GEWvYYnbrwz7as4I4D1vUG0TzzBIJS8QkCaPCrZlz061ou9+zt4PX5kuTzbCca88S6qvNIuwjwNv1Y8ptdjO7+CKD3dX3W9szzrPECxob3JJxY98Qy8vAHp3T13u5w9ZLVcPSuHmj3iQca9ZNNSvABswD3jj6k81hnFvDJ84zxTkLk9572CPZQ/jL2ZMMo7ZLxOvWwcNb0MA2W9vcKPvSzWAj39Nii8uhWdvRgdkz1p0Yw9vmAyvSxAorxln8i83xvgvUhFrDwMz7I9cD/YvfGuuL01/JM9b+savUGSgTqKfhk8GF65vI/9ob1/eOc67LBbPSPKrr3dyIs9kw4GvRTjlTzCKTo9a/C+vbygcryT/I49EMTnvHuMdD0IXYK9xWrHu9YytLzebTe9g0r7uzR+zryTcAO97k6pu4xjGL1Mu0k775sRvZBERz3kMSm99iBAPdTzAb1QeBU+TwjQvdGf8byqU9G8Y9cLvShtM7yrhBG7qQDBPd9hvz226F69pqPsPN1qJ7o39JC8F5cMvQ13Tz396129hBc/Oj36oz1bqow8/u8ePf9qSj5wUrg9QHXQO5RWhD2w21q95GAcvGY49j3jf/E8mI8BPeA7Lz3538A9o/mWPdvSqbyY9gQ9CkGNvBiaWb35kNW9tSkkPSd+jD1LkjK91tZOvZ+UEDyE1ps9EDzdvAlb7TxtJQy+FNDEvYeCPrzEqys+o158vQfNNroezKs9AhFmvUMxfrtCjAM9pYFtPQwmtbvI8KM6/2UzvJWs2jxhZ5e8NFqaPFwabbw6KQE+YUHmvKP9hL0cgXs9Phh6vdMDTT1v8qe9/SFhvcZUJ71UNwo9i+FsPMMBRb1ruaq9S9z0PP1A2ryeVZA9YW6SPMoMUz048J+7bchXPDn/gLsrXy4+e187vbyLDL2p6Be8QKuHvUoV87y5CY+7Ds1lPcO+Mz32jLk8jjKzO+V8kL2z9la7v4s3vbWUwDxrBh49bXYbO0+WjD1yk0Q91W7zPJHZnz1Q6IQ9Is8wOyGaDT229R889cGgvZcKkTzyXTI8tdiTPDJ5tTuGmW89x6kJPBwzDr3+cXc9yWVtPERWw7zwk369ItdaPbgeED7HTUq97J2hPIZjMLyOW1Q9LEVLPB7rxzopLVm9L+MpvWrYAL2yers9goCmvEvXRbwbpLe8B89NvLzJLTtIp4G9siNqPGZtkzxbRdW7j8lJPRiDKD2MsTC8o81RPA4YRb1CSXo9ga2AuwHoMzwpEQ479rtevWn/zj3Xgzy9RyoXPdR6STxrsos9mbvdu/1YVzufnwU9VB2xPE3ej7wC65m8OJOiPLiACT0aU4k6JYZrvHrCcz1v1uO9PMjOPCW3DT0csII9pvNbPZUHcrzC5q48oijsvCs+YjyMy487bS8PPccvA7vN0MY71HUPvGR0lLwPDsC80RnLPEtxEbzb21S9UzOePWF1lb3D6GQ9+lYivXxEBr1O9S89P38hvcvoQbzviv28moR4vb5AAz3VhyC7dRZyvL5cUj0jclG9FlunPHU3Nr1SyEG9smjsvHyZZD3X9dM8RvaAPCO1L71tLE69hZTTPCAljjui6PY8VgTQPH0YCTx+PnM8Kq3dO3rAozzJjIC6S6+nOwSKLDteYRc8SLpxPcf4ET0rrRE7vd4tPAktWj3AJs68vNrNPAtodT3k0a+9YgJtu7+5Kz04wJu90ImkPCIIRr0bKju9ScQRvZSYjD3f6Ik9rQy1ui4jjzzpLBE9ewgXPaV6fbvEapg83RpvvHIPgrydmkA8F+xYPInmFj3Sk4u90udRPELCyrzzYr081KINvApTujyqCBA8+ORDu1r/37zQ4SO985V6vSfPibyMoAQ90HDGvO5PU71pOiw9fUnTPbGier1A6IS9y/4VPLSzyL3hamq9eRuVvDKBN71PdRk9GgToPIuqJ7xrXVK9iWyWvR0cg7ytbGu932W4vN7A3T1iAZ08YqXxvGSIyry8/JS8Rp7PvNAowLw0iQg8LDPEPKsxEb3oD4c8LzYwPckiND0iMXE9SoOsPRPiATzL27U64UqDPW5g9DwXU629taCNPSGuHzyNpg88gJwCPU6bTLyU9ea7YJoTvSs4Ob155Ra9NGWZvbI9bz2lLkS8BIPavKm70rxa4Ju9c4HQOxOtL702OMi8tYMmvYJ7bzym4B+8KwlavRi7XryoN0w8UGAePe1qvjxE1t+72JvNvG0L8DyRw4E9qOwjvQzUD7wap4s9gEj3uxFmdT3gAJ+8MXWpPPfHCb1xprk8ASXdu4gTcjxmAwu9GPwrvUjGCT3G6Dm9BWT3vKFg+zsPJiw9YzEaPAU0UD3gHyO9dSVUPe2WPT2Ilb898gqTOyqnKL2VWUi9ajeFvJey9zwcTWC7UEmWvCtxBL2pAh89eijmPJ99izzal4s856eruseWI7yh5ty8yfCjvO7Q8j2RGg+9G32HPHKoizzceCq803FRvb4osjzsGzA7bX04vMG1lTwHixU+iVvHvPsVBb3SgQO7rDyqPAy+mLzycOy8aWLvPfb6rT2UWSo8OaUWve015jxTEdG8szJ2vIhtUT2f5xY8/qu2un5TVr2Zcnu8FPEHvVvRSLyH5Dq8KZwgPbfdA730Ypa9RmKoPZUrvjxDWSw9aiSqvMkKvjxBmao89jcePdbfB7zq6Yk8kOx9ux78C7y7GI+8iEGxO8kWbb3NQPw8sGcZPV61iLxRCg89WtcjPce1Jjw8Sny8o52VvKqBir0zDAm9AsKPvSuzqDz/6IW881mDvCQ8MDxtNJI8bl6AvFHJuTziw4e9FKsIPRwh/jxPXIK8RpkavYzHM70L1jE9K7IJPXoEKT0VhU487L0XPRbKb70z7dK8v2YaPWPpAzwfz109nJn+PKmgnL0bsBS8/ykqvRQVGT3qRYm7J389O/BA8LsKrd+6sTKpvMYl7zxwGO29Yk76vLDF2zyb6Ts9Pks4PBp7/LwlnS89upFwvZQi+DwYsJI7Zr7FvBo6GryVY4O9UNITvQWZW7uUPxO9VpG6u77PXTyAKoc8CHQxPM16tDtdgxW9DxiBPG5f8LyxZqA9TBlaPA/8C73ozb+8NKDGvGxGkjzu81q9VF7bPKGxHL03Qtk8/bKSPHX82zzITsk8iESFu7Ssc7v5aC+9W8ooPHiE9rxuVQg9JFD9PEvPqbyi5pO7W/xnvSKd1D11PAQ8e++JPJ4Clr3tK9C8xmqKPeyLLbymGXa9xhZ0PZQZSj2eP8s7/t08vQc9JTwNibc8hPiRPV6/H72Xerm8KqSjvW2yIjsy2bi8vPRFPV5Ofzyekjq9WX3TPLNchb3RtOQ8Y4wsvf0ESz3ONkM9mygTOu3pLr0aOT+9AwGhvCiz2rwG1uc82Bqou0dSTL3qRMM85w2pPMASa7ygqdm8tDYjvcA7sDvlj+a78Po1PYF3vj2ihPC6Bf00vLlDlj2Nv8k71iwaveTqYj3a9ie9TONsPTF56zsK6AO9JXIuOOg7q7yd8Hg8adSpveCA57vHvWa9ruZ8PWId2zxsWxu81J0bvafDTr1Powg9F7luOhmfh7wP8m48+SQ1PRWIjj1AV4U9dAM6vO6Mkr2byEo8cI5Kvbp0Gb29P6w70Jl+PESHRD2AwhO8OHk5PYDuvL27I9k7HD8nvRA0GD2aVrS8jJIWvZ34wz2Ndx+8HvCyPPcg9Tz7rdE8QkFRvTzN7LyMp0S9RHjMvY3RKz1In0g8f360PWIwDbtfCQi8LRRxPDH/ZL0PmLY94U4fPSyhaD1lj3294j/3PMuBQj1ciYm9FIphvH98cT1LgC89jEgRvE6amjye0oC9X4bPPMw/gj2UeSE9b+jlvHp+Vz2r2ZW8A3EuPKG90DsjQbe8qLKMPZnunTsWCT89T9B3uuU0pjzskSa9yg3BO9vt+zs5kaE8Y2qMvWWCgrxEqQa97iSiPB4OLT3QLVa9ny/EPWN9JD015Zw9+WVGvVQFnDyAHZW8CxgCPUeJprx53QO8hipGvG6h77w3qfS77FznPLAu7rtk1Om9fCcavW3JTTzna1c95m97Pe1xkTznAJw6jeiKvAzE/LvQoCi9pxO6u88WEjwKJt48S5C0Pc4qv7s85Nq8PZuIPHEV5byLC8u9lCBVPBPER70DXKE9X+LjPOhYsLvYQQ48G0FiuCd0DL3X5VY8Fx9bvSc8bDzt4es7r1g1PBYeSbxs53693JxYPUtTgbv7NZU8F/3Fvfabv7vWsFU8ei5CvVe1fLx+NoS9Qwf5PAydLD2KJ4k9pDgQPGE0mjzkQMI9uO11vGn4nDyb5YC9I222PCYtezttSyG9M72JPGkrs7x7eFw8tVO5O3aFDj0qmy89F2SvPNrSeT1Ogym9VgkrOzi8Yj3FwzM8rS8DPTJwzr1yWjm9vQGcvR8Eez3DojG9jJwKPDPDtb2MMSw7XZJyPH5Tcj0AUlk9BJlVvIYGlj1jD5A6orkDvXjkGr2TCAg+huJBPasgwrwuNxE9dOWzO5SONz0bk1S9BiXxvCh2vT0WMiE9YuaBPMlRtTub/js7RI4GOc07gD1aKOm70TjvvBbAh7wcswE9CZxzvU3cRz2+KKa9lAd7PYxakDvgSie9zMLoPMXt/TxXzli9vrQ3PQAIjryty7M9O4UwvKo0D70HpnM6H21dPFEwVj0YngO9uA0IPBZCsT1r0je9UsPYO09Azbx8GJw9z9QFPe/r6rzBU6C8Q1Wrva3CATyAwzM9cWUavcu8OzshxGo9Q409PGLEFbyMfBI9tKiGvM9cTT1EjV89sh4nPQ2/Djzz07i7G+1OvICVB7t0Iw0+4tUWvUV4a71Dn8U9/WWRvebDEzrx3Zi8cPnlu0F9brxol1c9agczvcSxFjwnVos8PXRYvLDjFT1PhE280eglvTRZFbvhN588UuaQu23rOryTvK29tm4evQRnOj3EJ4E9G8/jOfuLvDwxOi08sSVWPPyOJr0m6Be9w/5kPLZJzbzLdog83huJPeo8SD2bc668XylLPQl9gTwZYZ67mV32PNeWC73LMIK7eiETvcELHzwUkzE9N/GAvU/7o7veW9q88GWEvVynJD1FXx09x9W4vd4SODxE/Sw9+TOePA0cyryeOZi9SLCOvUSRnLwNgps9jtwTvDUsBT0izA69DxpMvE6XHDyldiQ9P3TJO4jz5rzDEOY9JmjtucfeobyUdYS9Viuou0UbJr1tUVa9dUS7Pfzb7ryqmK+8RzEWPfs7nLzYKyU9DE8Gve9LxDznOuq89S+9PCCGTb1dYFW97I2sO3mdTb0v93C9xnJ3vVT/NT1GQ0W8sCIEvO0AZ72alQU9i4diu9PC9Txwpam8CQNmvHANAj0Hdfs74n1OPVklWD2z2Su9rCYNPXQQH7wRocC89QfRvGlUOD0qy/A8d396Pbm1g7yS7Fg8idxtO9KXOLx6uRq8iYoJPVwobjwzyPk8zfAKPZAQ5Tx9W5k9kJAqPf0pKbyA1Fo934ozPJ6zJb1kLHO6FQz8u9DINDyv1YK9WNn4vK8R4jyKYgQ9SYeivTAu57t9FAm9S84VPVSTobuVZDA8mqnrvPGDCro5aR09Ko+nPBEtvDsbDj89BA6HPRZw8TyhKdC7vhnhPM2N/LzDYJ89CwOPOwJLcj01KCW9lIoJOweFprxdKD29FBrQPQiMHbyGxRu7QMozvAmN8TtF5ZK71wANvVKbSTwEBZw8nE1VvaPxtTpLQte8z9ogPCfMSbzWw5A7g56RPUHkP7zFvve8ba+SPIgQhT1EhI09we8vPBj3/bwDhy47w+qLPXyVFDxJiEG9SvFgPFeV57xGkLu9WBdSPcNMAb0ycxS9iDOYvDABTr1gu688AfxNvR4Bm7169Vu85XKFugJ3gzzzAQw9t54QvOZVZb1ftoc8KYBXvbq/A77Ixbq8uVzrO1JPu7t3Fli9L9AjPVlsM7155449JNSNPaCwfr0W/dS8VyJMvQ5La71UVJG9c7LTOzhYRj0itaG9TSx+vFgS/bwoi5E9JWXjvIzoZb22RkU9iSKGO801w7xh3US90HgKvbsXEjzlJ4o9vtyEPQugPrtNpQO+1rDsPMQWjTtezCI9irQrPRuJzjuLlrc8al0bviyybzv9q0E96DqtvchiTr2DveW7VlkbOc4zJr3EbLC91ippvDaGFD3syUW9415CPVmWkr32hyk9HRwBvU8byLmzHJW9UjcMPaUJvzfVAVe95/ZDPcr2ID3k/9892W5sPeeo2T3016o9zyp3POOTFD2Vfnq9yry9PKIFTT1nB489ZrU6PW8e4j2lVMi8t7YuPVWoZD3GlxI+J4P8PRfhIbz3Beo91/xrPREmlD0xgnA9VPkCvUM8Ir1xkSO9Dw3yPd87sTz3QFY91+syPckF5D2p1RG9qUK5vGmu2z3xGpy9SvCOPPBC/TvtdsI8F32ePeyV+LwnaLQ8EPO4u1pZQz3fKpC9rD33vB30PL2CgGk9Us+2PSG4N7zxfCU8j8CkPWaDFj1ZLkq9pdkIveLsGT74p0U9S2e6vIygVT1hDS89wpQsPe2+uL233b+8FLpVvO+Pcrz2sV89DzX4Pbqv7buD2Qo+kR2iPTbSxTzC04w97lQ5PRtpkj0Tnrc9ra6jPS4PZD0+LoW8KfmhvWvXJL54klm6s6AOvnLdWz3I4Pq8kJYPvlMLmbzR1Se+GuSGPNhEjb1E+xw+s7BcvSsFjL2t3Rw+wYyEPSGs572/WeQ8YxbLOtGBEb1rTvO8XcUOvj+gwj2R3v86ggmdO5mPLT21CQy+tTi6veNSeD0nOoq8mgLEPbYzvj1byou9YnEAvpgaU7y67hK+krUOPUSZkT3UoKU9GpyOvEQehj2HRus9w30KPtHbKr7c/Bm+RHglvokMHz4Ett89xWsjPkAStb3oka89oEHWvQ57pz2xKxy9DDcaPvxMrTz3+vm9evoKvpL5DT6wZgc+BOo5vbNLEz2aaRY+Q4lBvs1Apb1aJUK87MAxvi+IIL4/bdS9f4OCvGShor5qDsY8j4QjvXWaD75XMDa+hHRgvT8xcL4UOrm9S4xfPXVunb0rCe691gj6Pd5aWr6nLQW+Tkg1POh2vLw8zcU89R4hvtIXAr7BxTE8oui5PRDbsLvA9Pq8bvaDvUJ5ab5FViK8rd35Pe0BfTtpae29u/XMvXvzOr1i74q9C+pbvbsDLz4D8yW++lMSPe4VVb40jjs+4cbMvL1Pjr1dAz08JCA3Pfg9jr3Gf8S8UNN6PTHGM76wjE66Y9WsPN2IHr774Vc93cgtvrfEFz4b5XC+/ppGvsCiPb43LdU9xwGVPeN+gz2An/w9B/gQvkGmjj2adZE9u3mUvYW4773XTZ69JPWxPRqzgL587Y29uVrRPbSsOD0E8JY9292rvRvsqz17BDg9P1ssvlKS373al8y909iGPSziQD5JMju+mou8va2jQj2ydKk8wonFPIt8N74atO29VAMqvtmGkbyOuAU+udXuvfB58b20qgS+43wlvhcZkj08vaM8ypAWPjycJz1MEBG+bVFavOPH7j1B3dW9K7WoPT+xdj1IwMg9TdESvk7w7b3dhDK9tl4MvX/0ID6hx469Xv3kvc7qIj6FvQ4+DGnQPOJ0lr3GEkO+k4tIvifToTeAYAc+d9KYPbxkp704HEG+1e0DPqJZiz2WLZC8PD0DPnWGiL2mJpY9T8PxPUSiPT55MCE+0iUhPS5/573YoRk+2wAAPfOuUD0Q0tu9NC2mvXUlSrulbNS8ZmYMvmzZ0T2g27M9lNVlvuQPQT2CrQi9nXcEvhkI2z3zhQa+HxVTvq6IE77b8+w92G0UPpTRC727qhc+FwAZPuMTbj1GVg69u/Pdva7zX71QvJO85kKGPByFvb1IUpq9fNQAvq2N3j2LRNI9g05AvX3rCL5JSxu9hUbjvR625Ty5Lck9F+MSvmf6Hz5CkVi+V1avvem4CT5aVEm8jNAiPoJlyDsrXUc9LT+BvoTHgD2Qyjs9eI6wvVkxTDurTQ++LdI4vg8hvT1m38q9K7lpvh88NL5iQwy8/LN1vf4mvDzVitm9GLJrPemEo75mmg+9NAXHvc9j+T1izga+FVERvrzZ3jwgt0a+kcX+vQKK7z0p4BK+0QrdPWasZrxR8Hu+sUjlPaUM1L0m1w0+ik0wvh2w9D3E0XS+m+uHPZUxGL40fEI+O9+butphFD20GTs+0aT2PD6Gcr1JihY9eITHPWEJLz4EuBY+D1//vA3mGb16pRq+gqQSvjQzzD3rhvW9RNJLvrLAI74SsVY8gqHKuwwIBD5iyMM8WV3qvL+24r0V2um9ZZxnPemE8b2tL26+9GC9vfAKtLyzjny9d37Ruzb0mL1Q/Ek6cWUBvmezSz5Yuri77qQHPYDhm73TNJq+9l14vhY/Hj6U5xg+Obevu6bK5r0z+1e+ttgPvinrsjzuL8m965YHvpUikj2rNCa+5Ut0vqbfL7t48C++Tw0mvkLIvL2Szac9unQSvtjU8Lv8UIG9f9GcvOssj70rghi+l4mSvYOayD1gxnK8hyRTvUWJFb3aOva8NFgeu/DqgjxHTxM93lqIvZKfWjzve747P+FOvsrPFz6cRD68fhMDPjxWGz6KDRO9qLdzPS4Gt70u0QC9tfruPTA0kL2w7mo8ySP0vdtfc75z7KC9LfnXvbJNSD4lLaK9EtWLvRhcqT3lyva9UfNnPTl4Vb0fEqi7bDcHvYgter1yJDs+mpKJvaN9bL2lNz8+le3APaRUAj4jFtM9rKNCvnrUz7zUO+69lA26PcMvLr6CtgY+HYCxuxhfqLyKmau9c1cIPscLUD3XdvO85MGNPf6CIT52MgG+6wtUvoMMWr6L/Zi9t927PD/VsL1Nvz29uSgbPji4sr3wz489YS0Pvv/2OL4jILU928wCvmRm0z2qrDI+DHUDvurBtr1SlyS8t2lZPhswJT3Ru7e9nVsNPltk+DzoiFs+qUfyvbPLQr7qVpa9sTgdPIems7w+WlA+I/+ZvRyjtbjv/Jo9KKi2veU5YT2Udx6+YOvvPNPKnb0FWDS+H5otvh13gD2uQQE+Nor6vZu1yL2fuBE+DibbPRWR2D0oXqe99dDoPZi8FjzWaB4+KzbZvMlXuz2pxog91ZJ4PcUloLyesfS91AOKPUZsHL7Iwqk9GDoEPu5rzb1tnzY9MkCfvemQAL6MaBm8gBPsvb8Bqb3IKVk9caudvfaF5b00Rim+mmpYvcA76Lw0oHE9GSrdvUYwv73G8tK7bqWAPaRbzDzhAaU86yf9vEaKBb7Eb24+PgVtPcrStz2/LOi9tIZLvTVZeb2nTMA9/saQPSXiDb6d/u+99pDzvSCxwz3vHO09x8osPiPu2Lw/GfA9lIo9vQMvNL4xnUc7bid3PrKs1TxktWS+aJYRPigkv729al29sW9OvgipCr5HNe89m1IZvnxFsjzfz7o9v0tFvj+KTL7DXiy+gl5MPs0ZXbzI07i8dCsHvWIHhb18uyG+CRqhPTaGAb0USiS9lRWevVFrH7xGYxG9kYp3vq6NKD4kXwm+CBnTPV4iMT7rKbA8Br2RvUh9Vj4h/wg+xCtYPnkB7L0gZ4M98CUyPfA8Dr0uP4O9Lp1qPoaT1T0aHyS+IQ3qPKQsAD4ulAG+HYa+veyxjT3JV3W8D1OLPdev7b1OmqY8p8edPeOlNz7wa9K9OubXvaZGK74S/Ym+tJDdvArKKD2i1BY+ysenvYSmTL1eT9k9W2MYvgUfqz2dMwG+5yGaPY88Yr3ARGc+ZgeYvQBHCj1iQx6+8NpdPVid1T03W0i+2XKNPZuC6D3PiSw+4dzAPTdg9b1M7qi7Wv5wvdpiSz1mHSS+GLHMPb+AQL5oram9GVftvK8zQL4gnuS9vOikPcQ1gb1jGw++AJd6PalKWjyv3AE95KI8vq4NH76PI0U+Jdo3Psl7QT5IUqW9okAyPry/Wr774JO92GBdvlHMaD0Uzms9hvZTvjGA+D2kpMM9qkDWPYPND74rDAc+ZXZPPR4GZD7Ibca7FrRAvSc55DyJko681KQcvRtnWb5heh4+j1yNPd5KOT7w0Rc+BNz6PUequj3NjRM8TLuMOyIZSD5Y2I8855HXvZ9oF76xhiA+0A0rPOmKOD3cA569BWjEPa5G4L2VW5U9iuIMPl48xL0NkPk9kx4Ovogrl73yeZg94QklvqJj9D0xrhA+HopRvXO25zxKYhE9K84nPAjUXL5KqAq+ASU1vlTK6z3Uese9ZoB5PMQrNL4Efai7sRAEPoJNpr0iP0Q+9RiJvJNTjTxMesy8cvYwuxniMb6T+S2+GuyYPdLzCL6Ctki+TH48vpmTLL7gScw9ZQo9vRc1Nb5Z2Kw9Ak1hvTvufr2kJY09cRkGPSmg2Tx/Bbo9+2e8PN/pwzxyZwq+5gm4vTKHL706E06+qhCsPLsFsb394KS8L49mPq9/MD7v5dc9MAsJPkIZ+r0hQkI+Ov4yPea+mjuZ3hI+T3lfPH/Ggb0QVSG+xiJSPapzvjy09zw+VNyFvPdVXr1vryG9UP/NPdlNG73yaZ09+huoPdyLBT2WlgU+sirHvWovJ72FKiE+xAlkPgPTyL2VYnK7VehpvY9Hfb0LmrM8cTpJvsQLfD1Aezw4Y7povs8wND2yFK89wozxvSfWpL3ge229MZdsvrR4Cr5KVnO+clX0vAWfkr4Rh2G+HdLtvY/7lD28sao9lJ3vPWoDUr7/5Iw8cEwWPr021TwSXjC+OVBMPhJPAz0ym349KUj+PEfqo73957q8kfyKvY5yp7xU+OE83OcmPRl4jb1c8mq+tnVSvhZmCr0vNQs9l26wvYu3cb3qEbY8aY8wvmKpSb4boI++Zvv2vWR8jb1gBby8Xu1PvkVTnD2aDdY8830WvfjJ5z1JXUE+fBpovWR91r0eRiw7R0DTvftxmb2iF6G9LG6nPXazC76RCDW+X3u5vbTqCzkgw8E9MJTmvUI5yDiHVMc9J4cPvrw9vT2lzQG8//8hvu9/uz1QCYu+0z6APWf3yb0aBOS84ylOPnew3724Xt69x7/gOyC8rj3svvu8Y7S1PaNkML5YSI6+0B8Evo4/VD25s4u75uYmvueJoD17EpK99GNMvgFR1Tz5V3i+KEwevbhHer77/g6+ELY2vV034jxDXN89hKn5vXR67rxJSSS+5nPUPX2aTj7S3bG9BVglPsM2tD3v3mG+PHwpvsDjez0KHQ49oE5UvhM9oj0aMCQ+Lep8vmZzrL2XCyg999tSvrMPFD305gW+VPxBvnYDNDzLQs29DJUivitsV75Hl7K7MAntvb/faT5UQ2Q+A0skvuwrh75HRJg8QXYaPn4Khr5uFw4+xojjvRU6Ej5LA6S92nY1PtB6D75/z7I9GfZkvu35QL4qJC2+df6tPfwJ1z1020W8F1DVvdIinL3nOR0+VHkHvvrvFj5ti0w+ie1OPbl4DT3DMWq+bpp1PWEFvj1FZIE9/XmqPFZab74BEfQ92GUCPRjbWLwbeia+CBasvJz6rr3TZfe9W3+cvCvc0D0oQbI974oPvUToPr7iiXM9+LHSPXCcEL4LBGY86K6sPYDHSz0xrC29KZPPvY82Aj23eT2+kudXPeN/oL2jbeu9KH1BvgzyTzx7mv08EkCyPc+dFr0VUTm+DgJ3vhq3oL3vrrM9YOejvCtzPj3jjBq+ZQ3TvVSxX7vpkjO+n/uUPQWO5j2Bqyw9B8tgPZXykT031iu+c+yqPRonH70vzzY9vfmEvQrRLr5G5/u9KQdyvNv5sD0IPCo+wacaPofPob0LJis9ZGdwvksUPD4O/hI+oCK8PT7tcb793YS9qOMPvkkDmD1UAsY9pNBIvt/LR74/kf090OBYvljTHT6y7nM8wcCWPEkG4Dw/qAm+kTikPfPC1L1wxxc+UM4NPnt3uT2pBNE9RWdGPub0TL0DkSe9ZY/ePS+Cij2ONT6+YM6yOlcIC72oRVY9SMgsvnPVeb43ApC93rqfPZwOHz7dNDK9018+PTcHZD1va+k9ZeAPPpF/Jr5V9pu9Ity+vM+vAT57Kdg96Mldu7bNi77Jo+Q8oay3vdR2N72tdGa+NoJ5Ph7Ihz0Tvt49m2G3PRgJqj2pTgm+tnTyu1MDCD7yUBU+bhbWPVB+Hb520Cq+4u9wvnbVZT1h7WS76skTvmBUGL5hzMs9uPXZPRt7Qr5V7E6+tD9hvmQhxLtLNhU+EalKvqcihr5F3qm9rKF6PivqNb5VZxY+K9UfPtm+yL3azq897pWGu85PPL64Cm6+WeqMPPt+Pz5IXQK+nX4sPmQnOT33v9a9xucXvVVUNj7Y0MG8GGykPVnhpb1mzBq+QT2FvoqQyT36+Jm9706/vdF6gb7aJuI9KtxFPuRBS76jYzK+ZbsqvvZEyj36Pxe+iGQ5vWn9pL0YSd29ghFrPWl6ij15m6+9FGGaPKgmaL6sQgu+ocCXvUJ+DbpiCFW+e2AbPKHioT1zFZc91eULvfpM5zxw60q+e79mvj/GyLwFUwo+vUFMvnAREb1YO288FEIBvsIQt70YH5y9498jPD21z72onQ4+eyupvXH2wL37mhE+X5gpvjwR+byiKYM9073QvU8jmz08oVu+6CGiva8nED5wzKm9h8n8PVNhnj0DRL29R1Q/vpqoGD5zUCo8Dj0PPmMzmzzmloe96hpcPQqYpT0Q1w4+OAdrvvSDvL1rXhg+kDKPvSIgnb2JhCC8nmMUvnTH6Tx+2RA8ccvOPLn47L3fBgY+iTKUvcAULz5NdUE+ogPFPU87Mj4nuCQ+8F31PeBx6bzYRyo8ZMccvqDS770ZNUs++KehuzLwqz2oqhE+DBx8PaFxxD3y6tu88FgNvg/fS75G7Og8S+MDvUJmDb5KtJQ9Fqpevgnetr0H2Pa9pn+SvbfyPb1RbAE+638Ovb4eob0MXQs+Igp1OzINSrxN8hA+qocTPiT59r2WFMU9qX0YupCLRT6NObE99XKtvRDhbD0Z6kW+rIAGvojcVD7aSpw9t1YUPnd8m71YhWa9adnePVRlXL0gbAa+Msc3vg+jlTw7yBU++CBcPjXJz715MTY+3hJBvv/LNzu5hTG+w+/aPDCtXj0BE+M8ATgsvmVPVL5aTOq9780pPlKYAjwlOXk9NT4WPmahGr4C6P89K6OLvejymT2B+7q9riAdvnQb+rzSMA4+sbMjPQHnHbxwCJC9PdASvvYJGb4+3mC9qVrePZVK4r1fEA4+9mQ1vRg4/7qHOly+invRPC2zEL4zwr+9gVaWvfxnlz1sdiM+/1cjPjsoIr7Mi529d5ZZPZoXyL1T3Ki9xFBIPTjJFj21SYk9vAEBPpwPFbuRAjw+uU4EvhRKhD1+DVm9VN6Nvbhk+r0Qb/a9YWEFPmGjbrxS2x++jZ4Vve60ED7hfPS8GDYQPiGMHj4UXBE98/X7vfPSfryjtt08tsICPu0/Vz05C0y+lPTRPGXRcT2pWX6+2lnxvX8H0T2Kr7O8wDDZORLgf75TtWY9xej9vH6eEb77czs8z8VIvmO2Jz1uKFq9exXfPWXxC74S+p89S3FjO8yeADyjpPM9OLwUvr1GWr76l6c90FE6PqNfqr06kt28+YDoPdIdHD6wtNm8rIebvR1nTD1a93i+7BwMvhjtSz4/nL28o8R/PMc9Az43cfe9O6ZivqoN/r0SE/291jFQvKILIL7Lcca69nEjvj4l1TyfMOw5A/A8PjetUb7Gdg8+iwb7PdrNQ72Z4iQ9wCg5vabIsT2wsKe+Q5AhvmFfW74r3Zq9nB0GvmsPmj1oZxA9X+nYPQ2SJD4N2vs9a1kxPml/Ozx+5Te7GSy+vXptzb1vTBK+r7wrvghCNb54mO47LnmbPSAbSD7tPsW9zSNBPjsqBj5gMUy97//svYMVvb3TlT+9ITI5Palp5z3PXz4+0/88PdKb1jwlIwA+H9M/vv9PNb6ufek9y3ttvN1oDb49R527fhYAPq+J2j0UbiK+P/4/vviTlD12pH09TKm8vcpQzrz+2ZE8OZkxPr0yp70G6Jw6gjY5vjNigz3DHgO+1YBZvM9LaL3MC+y9PTOOPR2rHz5K2hA+X8AaPs89r73c+Ek8RSYOPQtc0z2CAsM8pZP6vYPOir3DAsC9y5i/vTPetzydGgA+wbk2vXY8aj2ZnsS9H34CPoipBz459Nc9s8IGPilGQL7iCkW8/V1IPtCVvr35S5i9Bjb6vWdvh71jWiC+RbaOPHtJnb1C3Qm+C0UkvSWmM7zEjcY8sbWVPRvHxDwY4Qk+JseKPL4bCT0aFZC92c8DvSki370R7Zm9BiEdPX09iD7HS/A9HymNPWNoBz3827493DDVPFpZ773VFtC9DIVsvk8vhT1WUxq+gY9Iu+ficj0BsoO9r/PwPdZSDD41jzU9Ckj2vVs0FT4P86W9r2pDvcW4mLsMqu29IioDvrGuHbxnU7W9/pIPvh+4ubxNghM+18sbvuEqHD4gtwI+kYYYvj64obuPOCc+L/atvd4Qa76b0T++VVMjviT7CD6zkhW+ni1ovfEcUb2RRui9Sr2xvRgZCb4C1Ek9VCuwPYd5Fb5W/wE9nkEVvpg8Jj72BOI9y2OnPdepLj5gUVS+eF9GPvNdMb7sOts9RPC0PWWEvz3g5Vq+RUa4PF7QGr56jrK9L+yAvb8Hhb4Mljo+iA4LvonNZbwv56g9VI7ivaj7gj15vie9F/u5uwtAAr6JY8U98is6vtq5qb17TVG+KjsovtvP2b0iYh0+I7Xtvb5EcT4jvAG+XWo6PsB4sr0gWV8+0OvdvVDmCr5ncj++leQ9vbLmCr7PFeM8nzh2vt4yobw1rcw8lakivIaS8z0hjXi9L5sMPl5TtL2RdHG+uKN7vV1tFb6uNUW92aSHvpallr0U+TQ9YYjUvXHrWL2nAcq9LPmevKaERb4bAky8XcxtvYas1j360XO8Zn4aPvWhXL1OG26+Em8EvvXkID6JsHo8v74ZvuLOGD1Tcxm9z1XCPb0NAL4n8709mssDvceBLrxwAgw+yBomPtagrj1LnQe+r2idPQLVEjnWOCq+z6swvSFOND6vhik+89dIvpbjND32ck8+Ky1WvlNWDD7tOTc8yKWTvZpU+L2MIA8+p8shPpNlLDx5jge+Pz/WPCmkJD56gVy9c4P0PW9hAb4BRvA9ZEfOPbwSHjwZ1SA+76EpvngdsD2aDy8+2kQKPqdpAb1Khky+8pcUPoxmir4cFXc6b9lLvrTGQDw/Cpi9WUfgvcK32rxtZTq+uZmavY1OVbuu4RU+aTjKuyRkVr6l+oS+uQUpvuxBU72X7QU+tbsDvkBLJL4fIzk9OINWviwQ+j0CyDC91FjWPCLE0j1BPQG+LsQWvlLpozxJlwM+/kbuPMe5JT3Nali9ybeBPsA5o7zR4lq9E0oSPIXa9z0huvc8FEXePSKdeT513a08pR8kvb+eBL4U/ds9UvNevvJKRz4ugx8+gHupPYE1Ir5HRe+9soedvfb3Hj4sVPc9aVuuPVHTuLxXjeu82XrYPVzrBb5TH9M9sSkcvPX2L74NTcg9vc8ivtx/lT1XX/M7NqWZPUTkbb0QwZa9bSKvPV6dGb5rYNm9XKaHvDxADT6rOFq+5aeNvZDeub0UYYC9YolTvcDvJj5KH18+bU7SvYyc+Lnd6x4+Gru4vXDloLy/K5C84OlgvX9KoLw4K7o9FisFPsTUqT30/Ak+r1SFvdaMBT6TZLO6cratveXJRr4nhEC+I1FDPaLNOT4pgVC9IV0hPaK5mrvFUzA+kIcRPqPsxD3Gl/29P+h3Pa5F+j2ktAi+7qtZvYAdgz0vJpg9R5ITvcEdPTy7SDE+ueM8vel1v73Gi9i9cN5EPWYJKD5b8IC98BPsvXw9xD1H0Vw9qeNUPVeTELoOJDs+jCIJu6HNNb4+Wf69fkYsPrREIz4GTBs85B4JvVvB5z1Dftm9y7aHvcizUj16ITc+omygO3k4brzjbpM9YHIvvhCKrj24BBw93WgAPASeAb39/Jc9MZsUvSOrW735jwk+5cp6PaNNmj3ssw89VJcOPkh+GL5/vhM+HOVnvSH2Rr4tZWa96wqpPRM8z7zNDIc9PedlPqcUIz7XjyE9+M79Pc1MGr5ruzO+0SJUvgI8/j0RVxI+e3OTPaC5Nr11su+6Eh4NvmuyDz2eZws+CHivvfhNr7vZ2iy+1ZD5PRbJrr0P7ri8yzw4PgrRej1WWSK+Go2fvU/gVD1X1849lfcfvfHSkT28EHq8NfzwvQOhsT2NV3o9Ww/BvUyujjyOVXs9p/2NPHuz+L2P7n09wZcHvjTwhL2GnSg+j/bYvcwjRr05Ue49ZoG2PQjKJT5vpbU9RwaFvWCrkD03cWU8kvG5Pfe/Aj5R4K+9lIQLPqmU7j2Z2+G9FgOqvYbmojzC6v29g8Ctu4CuRb3j6kO9rLyKPZR0/j0hWx2+cLxXvrgg171Nxf48eDpSvXbwWz19Oca9JTniPS4hDT3L0i48lUGgvTF1TjyUgWY9bq3GPWasejyjeAQ+O1LPPXAcIT6Mg0E+2McxPrhDMT4defO7v8OnPSbUCj1Mn609cwexu/cTUjysDSM+X7FrvrqeG77z2Cq+N0kUvodyHr524oY9oM4TPvocaj2PQIs9j+nwvVkQMD7jkwQ+YUqAvaxbH75ERYY9J2ipvcd3W70pt5c97PDVPMmCxD1Yko+9waXrvctvMr0yfZ29s35yPRWE4j3oSjg+wvVyPZz0gLz4Vig93pBbPRmrgjzzuvW97dVKvnr/2L0l3mM9QBWWPcuqAj5rTUc8RCr5vQPDA75ljvG8JAybvJ2D6LxyjB2+YR2pPSfUzb2wYPO9vPzvPTB4Cj5rGZY8ez9Cvj1xAr7cAn09IpcgvmaqWD3XUUq+QD0CPDgQBT4c9zm97sUmvpnsOT6ozu09XSIFvVORKz0+Wtu8srvVvTfuCj6Z/Z69+EBAvnP3E7zW4AC+/COTvY2WRL4He7M9izMDPs7VRz7scGe+j9UJPtsPHb2iEXk95zKIPcu/Gr1wUVA+lUhmvmVn1b3XECO++vNzvlXqKT4e45W9mVGqvRk4ab1jIzQ+6zD3PIVBljyXRq09yDluvXACvr3TPrO93d+Kvi1n1T0Q/Qk+j/qDvq+8Xz3BV/I8C88CPhEOzzxxCQ4+IIqjPYfnHD5zbyS9TlANPhECrry/uHu9rs+qPGy1yb2Z6x4+ome8vI/YaT6pWXM95U9hvaCKej5FXdS9/0vivViMQT2SQwE9CYCDPXti/L3I/gW9IsiEPbCVVD1El1w9AXGoPmtqAr7jc2e+aRcdvhhoO75R7IA9Nft0vuHLRb32MUi+LeuaOZF7JL7qyAU+T/oTvlqfe70KHWq9mmntvF4vmLsc62U9PpCZPZ3K+b00zS6+CS4TPaFaMb0V5Pw7ahIpvpcUeD0OA8y9l6+0vd7CCb5Wcvs9m5UDPsb8Kj1sZGC9+wzZPQEO0T0DX+s9skZGPDOA3LoP/fa9cgQmvipBzb2uLuM9SIypO2vBFb5xILK9iQWVPKfkLz6o9/I8WibXu4+Sxb0UOIA9LIgNvtj4/z3tSTK+0feJvjcY9L2lay8+1iEBvsNzkL6GjAa+FYcfvodEXr5Hi1O+/J0Qvd0